1111111100010111
10011011
1010000
11101111
1111111110101010
1111111110000000
1111111100001100
1111111100101001
100110010
1111111111000100
1111111110000101
10011
1000111
100001
11110101
10010110
100111110
1111111101100101
1111111010111101
11100
1111111101001000
10100111
100100
110110
100101101
1111111111111010
101000110
10110111
1111111011100100
1111111111111100
100100011
100001011
100010110
0
1111111110011111
1111111111111000
1111111101110101
1111111101010100
1111110111000001
1111111000101100
1111110100011010
1111110100010100
1010001100
110100
1111110010000000
1111110101001010
1111111001011001
1111111110100001
1111111100110010
1111111110001111
1111111011010111
1111111011100011
1010110
11000010
10101101
1111111110110101
11011101
11111
1000100
1111110110111010
1111111011010011
100010101
1111111111101100
1111111011110010
1111110011101111
1111110000101001
1111110100101111
1111110010110001
1111101011101100
10000001
1111111100010001
100101010
1100101
1111110000101010
1111110100011001
1000101
1111110011101011
1111110000111101
1111101000010100
1111110000000101
1111110110111101
1111111000110100
1111111101010011
11000111
1111111100100100
1111111101000110
100000101
1011101
1011
1111110110100111
1111111000001110
1111111011001000
1111101110001001
1111101001110101
1111100111100111
1111100100100001
1111100111010111
1111101011011110
1111100101111010
1111100101100001
1111100110010010
1111101011010100
1111100110011100
1111100001101101
1111100110001111
1111101100011010
1111110101011111
1111101101001101
1111101101101111
1111111101110000
101100110
101000000
1111111101111101
1111111101010101
11111001
1111111100101001
1111111100010010
1111110100001100
1111111100100101
1111110110110010
1111110011000100
1111101110000010
1111101100010010
1111101101101011
1111110000101011
1111111001111001
1111110110101100
1111101101011010
1111101000111010
1111110000100001
1111101111001100
1111101101011011
1111110100010010
1111110010001001
1111111000101001
11101000
1111111100101000
1111111101011100
1111111000010001
1111110011101110
1111111101100110
100111100
1000100000
10110111
1111111001001111
1111111011010000
1111111000000101
1111110101100110
1111100110001010
1111100010100000
1111100011110000
1111101110011010
1111100111110010
1111101111011110
1111110101011001
1111110000010111
1111101001010110
1111101011100100
1111101101110011
1111101000110000
1111110010100110
1111111011101011
1111111111010100
1011101011
11110001
1111111011100000
110100010
1111110110110000
1110001
1111110110111111
1111111001110100
1111111111110110
1110001
1111101010100001
1111101111111100
1111100010010100
1111100100100100
1111010110001100
1111011100110100
1111011111100011
1111100110110101
1111101111111001
1111111000111000
1111110100001101
1111110001111001
1111110001000000
1111111001110100
1111111110011100
1110
1111111101110011
111110000
1000010011
1111101101
111010000
1001011
1111111101011100
1111111110011001
1111110101010011
1111110001110001
1111111010010100
1111110111110000
1111101110110101
1111100000110101
1111011111001000
1111011101111011
1111011000010101
1111011010101000
1111100110100011
1111110001001000
1111111101001001
1111111100010001
1111111110011111
11001001
1111111111010100
11000
111000100
101010010
110110011
111001000
1001111100
100011100
110000001
1111111111110001
11110011
101101
1111111010011111
1111111001011011
1111110101111000
1111110110111100
1111110000010111
1111101100011110
1111100001111000
1111100000011111
1111010111010110
1111011010000110
1111101000010001
1111110101110001
110011111
1001101011
1011101101
10100101
111101111
111110111
101100100
11110010
10011010
110110
10111101
1000011100
10001011
1111110111101100
1111111011001001
1111111011110101
1111110100100000
1111110100011011
1111110011110001
1111110111011011
1111101101111011
1111100101110101
1111011110010111
1111100000111010
1111100001010010
1111101111001011
1111111001010001
1011100011
10100111100
10010000001
10001101111
100110100
1000100001
1000111110
1001000000
10010000
1110101
100110010
100110101
1011111100
1000100111
1010110
11010001
1111110101101001
1111111101100000
1111110100011011
1111101101100001
1111101110110110
1111101110101101
1111100110011100
1111100000010101
1111100110100001
1111100101101100
1111110101011011
111101011
10010001000
10110100101
10100100001
10101111100
111111110
1111111111001010
1111111011100101
1111110111111011
1111111011100101
1111111010011111
1111111100011000
111101111
11010000100
10110111110
1100111000
1111111111010100
1111111101001001
1111110111010100
1111111100011010
1111110001110000
1111110111011100
1111101101110000
1111100110110010
1111100111001110
1111100111110011
1111101111100101
1011010
1000101001
1101001101
10000101111
1001111100
1101010000
101111001
1111111100011010
1111110111010010
1111110010001010
1111110100111100
1111111101101111
1111111101111010
1001001110
1110111000
11000001101
110111000
1111111000011010
1111111011001111
1111111011110111
10001
1111110100101111
1111110111010011
1111100110001111
1111110010100010
1111111000101011
1111110000101000
1111110101111110
1011001110
1001100011
1011001001
10000110011
10000011001
101100111
1111111101000010
1111111111110010
1111110000001010
1111100101111000
1111100100011010
1111100010000111
1111100110000101
1111110000011011
1111111000100011
1011110
1111111
1010101
1000100001
1111110101111111
1111110110010101
1111111101000001
1111111111110001
1111101111000000
1111110101111101
1111111100111011
1111111010010001
1111111100101101
1011100010
1111011011
1101110010
1110100111
1011100110
10100100
101011101
1111111101001111
1111110000111111
1111011100111000
1111010101101001
1111010000010000
1111011100000000
1111011111011010
1111100100010110
1111101010011010
1111111001100010
1111111011100110
101111011
1100
1111111111010011
1111111111011010
1111111001111101
1111111011000110
1111111110100111
1111111001100101
111
10010011
101111001
100100001
100110011
1011001100
100000011
1111111111110110
1010010001
1111111101010111
1111110001001000
1111011110001000
1111010011001110
1111011010001100
1111100011110111
1111101111011001
1111110100001110
1111110010101100
1111111011110101
1111111100001011
1111111111001110
10111011
1111111111011110
11
1111111111000010
11001101
1111111010011110
1111111001100110
1111111110011101
1111111101111011
10011011
111000001
1011110100
110111000
1111111110000101
1111111111001110
100010001
1111111111110111
1111110111001101
1111100010110101
1111010111010001
1111100110001000
1111101011000000
1111111010000110
1111110110111100
1111110011111110
1111110101110001
1111110111011001
1111111110010101
1111111000110110
1111110101111101
1111111000110100
11101011
11110000
100001010
1111111110011000
1111111001011100
1111111000000110
100000111
10010101
100010
101011111
110011110
10010010
1100010
1111111011010111
1111110000101011
1111100010110100
1111100011000010
1111110000111001
1111110100111101
1111110010110000
1111110101101001
1111110110011011
1111111011101101
1111111101100011
1111111011100011
111011
1111110111000110
1111111011100011
110100011
10001100001
100101111
1111111011110100
1111111010100111
1111111000000100
1111111110010111
1111111101110110
1111111010010010
101110
1010101101
11101011
1111111101110101
1111111000001000
1111110101111000
1111101010111100
1111100110011000
1111101101011011
1111110010001111
1111110011001000
1111101100110111
1111101010100010
1111111111001010
1111110111100111
11000
11011000
1111110100101000
1111111011110101
1001101001
1101001100
1100100010
101111
1111111011001011
1011010
1111111101000001
1111111110000111
100010
1010111111
1111010001
1111111001110000
1111110110011011
1111110111101010
1111110101110000
1111111010111100
1111110110111001
1111111100001111
1111111110010010
1111110001100010
1111110010001001
1111110010010011
100001
110111010
110000111
1111111011100001
1111111000000101
1111101111101001
1111110110101110
1111110111010001
10010111
1111111111100001
100100101
1111011
1111111100001011
1111111101000100
101101010
1011000010
10101100
1111111001110011
1111110111100101
1111111100000010
1111111000110111
1111111110110111
1111101110110101
1111111010111101
1111110111000010
1111111110101011
1111111110000111
1111111111100001
100010001
111001000
101000000
10001011
1111110111111001
1111101011010101
1111110000100101
1111111001100111
1111111111110101
111010
1111111100101110
1111111000001011
1111111010100010
1111111010001110
10001010
1111111101101111
10001111
1111111000010011
1111111101101011
1011110
1111111000110000
1111111111001000
1111111100101010
1111111001011111
1111110010101011
100000
101010110
11111000
101100010
1101110
110011100
1111111111100101
1111111011000000
1111110011000001
1111110111000111
1111111011010001
1111110111110110
1111111111011101
1111111011110100
1111111100101010
1111111011100011
1111111000111111
1111110110011110
1111110101110101
1111111101101100
1111110111111010
1111111000000011
1111111110000100
1111111110001110
1111111010111101
1000111
1111
1111111000011010
110001100
1010001010
10110001
100000010
1111111111001111
1111111111011001
1111111111000100
1111111001110101
1111111011111011
1111110111110111
1111111101000000
1111111000101011
1111111100000001
1111110111010001
1111111011111001
1111110011100001
1111111001000101
1111110110010100
1111110001000010
1111111001110011
1111110101010100
1111110111101110
1111111100101000
1010101
1111110110110100
101101001
11101
1111111110010101
101011001
1010001000
101110101
1011101010
1010001
10001011
1111111010111001
1111111000110111
1111110010000010
1111110110001000
100101101
1111111101010001
1111111111000011
100110010
10111011
1111111111001010
1111111010101000
1111111111101001
1111110011010001
1111110100010100
1111111001111010
1111111101011001
1111111111000011
1111111100111110
1111111010001011
101010001
1111111001010111
1111111101111011
1011001
1010101111
101010010
1010101111
1111111100111000
1111111101000100
1111111111001101
1111111000010000
1111101110001101
1111110111011010
1111111001101111
1111111000101001
1111111101010100
1111111111011101
101001011
1111111111001100
1111110101111100
1111111010010011
1111110101001111
1111101101110010
1111110101011101
1111111001100001
110101111
100001000
101000111
1111111000001010
10001010
111001101
10000011101
1100010000
10101111
1111111100110101
1011101
1111111111100000
1111111110111101
101100111
1111110100100101
1111111100001111
1111110100110010
1111101111111110
1111110111111110
1111110100111110
1111111011011110
1111110110111111
1111110111000011
1111110111010100
1111111100000000
1111111010010001
1111111111000010
111
110000110
11011
1111111010101100
101110101
1010010011
1001010011
1111011000
101101100
1111111100011100
1111111011001100
1001101
10110011
10100100
1111111110000100
100110100
1000101110
1100010101
1001000010
1111111101100110
1111111100111101
10011110
11001101
1001010111
10000101011
110001011
1000000110
1100000111
1101101011
1101101100
1111111011100001
1111111011101111
111101000
10000010
1111110111011111
1111111101000100
10
1111111101111001
0
1111111010110111
1111111011010110
1101011
1111111100010111
1111111100001000
1111111011101000
1111110010101101
1000010
110001101
101011
1111111100000101
10000111
11011001
101011000
1111111110001101
111000100
1010101100
1010001101
1111111111110000
10101011
1101001
1100101
10100100
1111111111010001
1111111101110001
1100101
1
1110110
1111111101000001
