1111111111010101
1111111011000110
1111111011100111
1111111110100010
1111111011100100
1110100
11101111
100000011
100110001
110011
1111111111011111
1001010
1111111011001010
1111111101111010
1111111101101000
111010
100110111
1111111101011100
11010000
1111111011010100
11111110
10000110
1111111111110001
1111111110111111
11110100
11110011
1111111110011011
1111111111010001
1111111110010111
10011010
1111111110100010
11101000
100001111
11111
1111111010000110
1111110001010111
1111111101010001
1111110100111111
1111111001101110
1111110110100100
1111101101110111
1111110110110101
1111111101010010
1111111000100001
1111111001111100
1111111010000000
1111101110100010
1111101111001001
1111110101000110
1111110001101101
1111110100000011
1111110101011101
1111111010111001
111101
1110111
1111111110111101
10001010
1111111101100100
1111111101000100
1111111100011101
1111110100101110
1111110111110101
1111110111010000
1111110010110001
1111110110010010
1111111010011101
1111111001010110
1111110111011110
1111110111101010
1111111010100101
1111110100111101
1111111011010111
1111110000001100
1111101110011111
1111100111111110
1111100100001010
1111100111110000
1111110000000001
1111110101010111
1111110011011011
11101010
110000001
1111000
110100
101000
10011
1000011000
1111111000011010
1111110100100100
1111111111011011
1111111110011001
1111111001011000
1111111110011101
10010010
1111111000000110
1111111011100100
1111111010011000
1111111010001010
1111110011001101
1111110001110001
1111111001101011
1111110101001000
1111101001101000
1111100100100010
1111100011011100
1111100100110001
1111100101011011
1111110000000100
1111110110000000
10011
1111111011111010
1111111101101111
1111111011000000
1111111100101111
11011101
1111111110111010
1111111110101100
1001110010
1000101
1011000100
1011101010
1110011010
111000010
101000010
1001100001
10101001
11110111
1111111010100111
1111110101010011
1111110111011010
1111110011010000
1111101111010010
1111110001110101
1111100110111001
1111110001000000
1111101000110001
1111110010110110
1111110111101111
101001
1111111011100100
1111111101100111
1111111111101011
1111111110000000
100111001
10001111100
1011010111
1010011111
1100000110
111111010
1110111
1111111111011000
1111111010110111
1010110
1001111
111111010
110000000
1111111101111101
1111111001001001
1111111000000110
1111110111110011
1111110110001001
1111110111100101
1111101110101101
1111110100110100
1111110000011101
1111111001100011
1111111100111110
1111111110001011
1111111111110100
10001101
1111110011011110
1111111111101011
101101000
101111100
110100101
110111100
1111111110010100
1111111110011111
1111111101101101
1111111010010110
1111111010110010
1111110101100111
1111101011110101
1111110001111101
1111101110101010
1111101110100110
1111101110111001
1111110100111101
1111110001000100
1111111100011111
1111111001000101
1111111110100101
1111110111001101
1111101111010001
1111110111010110
1111111
0
101100101
1111110111100111
110101010
10000100000
10100101000
100111010
100011011
1111111001001100
1111110110000110
1111110111010001
1111110010101110
1111101110010001
1111110010010010
1111101101101001
1111110000001011
1111101100110101
1111111010000110
1111111101000001
1111111101111111
1111111010000110
110110111
1100010110
10000110100
11101010
1111111000000001
101111
1001011
10011010
110111
1111111100001001
100011111
10001100111
10000110111
10001110
110001010
1111110111001010
1111111101101001
1111111111110100
1111110100110101
1111111000000000
1111111111010010
1111111010011110
1010100
110110001
110110101
1010111101
10100110100
10000111110
10110000110
10110111000
100000000000
10110101001
111001111
100010101
11011010
1111111011111110
1111111011001001
101000101
1111111011011001
1000000101
110100110
1111111110010011
1111111111000010
1111111101100010
1111111100101000
100000110
1111111100011100
1111111110100011
1001111000
1010001100
10100110000
11000101010
100001001111
11101011001
100010011100
11111110011
11110010110
100001111010
100111110001
11010100011
10100001
1111111110101000
1111111010101101
1011110
1111111011101111
10000001
1000101
100111000
111111
1111111010000101
1111111010100001
1111110111011101
1111111100110100
101100011
110011101
1000010010
1010100101
10000110111
10111001101
11000011001
10100101111
10101110000
11111001110
11000110001
11010101000
100000011101
100010110001
10100110111
11111010
1111111010011111
1111111001110110
100100
100110010
1111111000111001
10111100
1111110111011101
101000
1111111010101010
1111111101010011
1111111100111011
10111
1111111011000001
11100101
1101001011
11011100
1000000100
111000111
1111111110100110
1111110110001010
1111111011010000
110010010
1010010000
1110010000
10100000011
111010111
1110000011
1111000010
1011110111
1111111110001000
1111111110101101
1111111101010110
1111111101100011
1111110011101010
1111101111111111
110001
1111111100001010
1111111010001011
1111111100010010
110001011
10000001
111111
1101101001
101010101
1111011
1111110100110100
1111101111000101
1111110011011010
1111110011101101
1111111100100111
101
110000111
1000011101
1111111110101010
10100010101
10001110100
101000110
1001001
111010101
10101100
1111111111100111
1111111000111010
1111110100101110
1111111111011101
1111111111111111
1111111100000010
1101111
1011010
1111111101001010
110111010
1010011100
101011110
1111100
1111111101000101
1111101111010011
1111111000000100
1111111110000010
1111110110110001
1111110011111010
1111111010011011
110000100
101101011
11011111
10001110001
10101100011
1100001000
1110101
1111111010010000
1111111011011010
1111110110010011
1111111010011011
1011111
101100
101110001
100001001
10110110
1111111111100011
110000010
101011110
1000001000
10001001
111001
1111111100010111
1111111101010010
100111
1111110100111101
1111110011011010
1111110011011010
1111110111101001
10001001
110000
1111011111
11001101010
1100010000
1111111111101000
1111111001001110
1001011111
11010101
101100001
1001101100
11000111
1111111110101101
110011001
1111111111100111
11000000
1111111101001100
11010111
1010110101
1000101000
101011101
1111001
1111111010001111
1111110101100101
1111111100100110
1111110100010110
1111101111111111
1111111001110011
1111111110101010
100110
1101111111
11001101110
111011110
1111111011100100
1111111001101001
10010100
11011110
111010101
1100001011
1011100100
1001011100
110010100
101100110
1111111011100000
1111111001100011
110010001
100110001
1000111111
1010010110
100001001
10001011
1111111010010000
1111110110010000
1111111100011011
1111111011101011
1111111101011010
11110100
1111111100010010
1011010001
11110100010
111011111
1111111011111101
1111111011111010
11110100
100010001
1101110101
110010001
101110010
100100010
10101100
1111111111001011
1010
1111111001101011
10001110
110101101
1001100111
1100001001
11010101
1111110111111010
1111111010111010
1111111001001000
1111111011010111
10110110
1111111010011011
1111000
100010000
1001011001
111110111
1100001010
1111111110011100
1111111101101101
1111111111110011
1111111011010101
10001100
1010000101
1111111010101100
1111111110101000
1111111111000111
11111100
1111111011101110
1111111111100001
100010011
111010111
100011000
110110011
11010011
1111111111010110
1111111111110011
10001
110111
1111111101100110
1111111110111101
111111101
1110111000
10110011
1000001000
1110010101
101100110
1111111001011010
1111110011101110
1111110100011011
1111110100100000
1110011
1000010000
111000
1111111100100011
11101101
10110100
100110110
11001100
101010100
100000011
1011101001
1111010
110110111
11011100
1111111110001011
1111111110010111
110001110
111000100
1000010
1111111101111100
1000101101
1000111001
111100001
110000
100010111
1111111110011001
1111110111110111
1111111010101011
1111111111001001
1010101000
101110100
11000
111100010
110100010
111011000
1001111010
111110001
110001110
100110111
111011
1100011
1000110101
1111111101110110
1111111111011100
11110011
100000001
1011
1111110110011010
1111110100011111
1001000010
100100001
100
100000111
1001100000
1011000
1111111100110111
11001010
110100100
10011011
111110110
1010010101
11000011
11011101
100101
1111111111111001
110001111
1111111100110111
111000
111111100
1000110110
101001111
110001001
10100001
1111111111001000
10100001
1111111000110101
1111111110100000
1111111111000101
1101111
1000111
101100000
100011111
10101110
1010111
1100101001
1110001100
110100001
111111110
101110011
1100100
1010100
1111111100011111
1111111110000000
10001011
100100110
1111111111110000
1000100011
10111100
1000000010
100001110
1000001100
1111111011011000
1111111101100010
10111
100000011
1111111110011000
1111111110100010
1111111100110000
1111111011011101
1011001100
1111101100011001
1111110100101001
1111111010001000
1010011
1100010101
100000010
100011111
1111111110001001
100101110
1011010100
11000100
100100100
10100100
1000001001
1100101001
110011101
1000011010
10010111
1110
1111111101110000
1111110010111000
1111111001000011
1111111011101000
1111111100011101
11101100
1111111101000110
1111111101100110
1111110110101100
1111101111101011
1111110010011110
1111110101010000
1111110010111011
1111111010001011
1111111010110011
1111111011001011
1111110110001101
1111111111010101
101101010
1100
1000000010
100111011
0
1100111
110010
11010100
1111110101010110
1111111001011010
1111110101111011
1111101111111101
11101011
1111011110
10011011
11011000
10110011
100100011
1111110111101010
1111110101101001
1111110111000010
1111101101100010
1111111010101000
1111110101001010
1111110000100011
1111101100010011
1111101101000100
1111101100100111
1111110010011011
1111101110001111
1111111001111101
1111110101111111
1111110100000101
1111111100111110
1111110101010000
1111110001101000
1111101110010100
1111100101011001
1111101110000001
1111101111100001
1111110100101100
101000001
111100010
1111111011011010
100100111
1111111011000100
1000011
1111111110110101
1111111010011100
1111110100100011
1111110110000110
1111101111111111
1111101000100010
1111100100110100
1111100111001000
1111101101001011
1111101010110010
1111100010010000
1111011011000000
1111100111000110
1111100111011011
1111011111110010
1111100100001100
1111101010100111
1111101000000000
1111100101001001
1111101101100101
1111110011111101
1111111010010010
1111111101100110
1111111101011111
10001010
1111111111100011
100110000
1011110
1111111110111110
1111111111000111
101000011
1111111100111000
1111111010110001
1111110100011100
1111111100010010
1111110100100110
1111110100001100
1111111010100101
1111111100001001
1111110010111101
1111111010100000
1111110010110011
1111110010101000
1111110110100110
1111111011001001
1111111010110100
1111110001011001
1111111000111110
1111111101001001
1111111111110101
10000100
1111111011111010
1111111011101001
