100110101
1111111110010111
11001110
1111111110111100
11000010
1111111100110111
11
1111111100000001
1111111101000110
1111111110001100
1111111011101101
1111111111010101
1111111111010011
1111111110000110
1111111101100111
10000101
11111010
1111111101010000
1111111110001010
1111111011111111
1111111011000001
1010000
1111111110111111
11010101
1111111100001110
1111111011001011
100001000
1111111110111000
1011000
1111111011111001
100000111
10001010
10100000
1100010
1111111000101111
1111111000000011
1111110100101100
1111110010101001
1111110111000001
1111110101101110
1111110000010110
1111110101011110
1111111111000010
1111111001010001
1111111111110011
1111111001000001
1111101001011001
1111110010010111
1111110000100010
1111110000100001
1111110110101000
1111111001001100
1111111110101000
1111111100110101
100001111
1111111111111101
10000010
1111111101100010
1111111100010000
1111111011001101
1111110001111110
1111111010100000
1111110001000101
1111110010010101
1111110000010100
1111101100011001
1111100001101111
1111100110111001
1111101010000110
1111101100010110
1111100110101111
1111100011000001
1111101010111001
1111101101100101
1111100100000011
1111100111100100
1111011111000101
1111101000100101
1111101010000110
1111101011011000
1111111111001011
100100100
1111111011100111
1100001
1111111110011100
1111111110001000
1111111111101001
1111110011001000
1111111101001000
1111110100101101
1111101011011111
1111110000001100
1111110000100010
1111100111110100
1111101011011000
1111101110001000
1111101001011010
1111100010010001
1111100101000001
1111101000011101
1111101011011010
1111101000110000
1111101000111110
1111101011111101
1111101101111000
1111101110111101
1111101110101010
1111110010010111
1111111101000101
1000000000
10100111
1111111011100110
1111111110111000
101010
1111110001011010
1111111010101001
1111110011100100
1111110110101010
1111110110001011
1111110110100111
1111100111010010
1111101011101011
1111100111000011
1111110000001111
1111101011111001
1111100111011000
1111101101010110
1111110000110000
1111100111101110
1111101110100110
1111101110111001
1111101000101101
1111101111110010
1111110011100000
1111111000011001
1111111000001010
111010
10011001
1111111101111011
1111111001000011
1111111011001101
1111111101011011
1111110010011000
10100111
1111110101000100
1111110110111000
1111111010111010
1111111001100011
1111111110000011
1111111000110011
1111111011110010
1111111101111010
1111111101001010
1111111011110001
1111111101110110
1111101101011011
1111101010111010
1111110100101110
1111101111011100
1111110000110110
1111101010001101
1111110011001000
1111110011001000
1111101111011001
1111101110010010
1111110011101011
1111110010011001
1111110010111011
110
1111110101101010
1011011111
10100100
1111111000101011
1111111110000001
1111110110010100
1111110101011111
1111111100110011
1111111111101100
10010111
100001101
1000100011
1100010001
1001110011
100110010
1000100110
100100001
1000010101
111000
1111111011010010
1111111100111010
1111111010011001
1111110001010110
1111101101001110
1111100110110001
1111110100011010
1111110100000000
1101110
1111111111101010
1000001111
1011010011
1111110001100000
1111110110101110
1111111000101111
1111110110110010
1111111110011001
111101011
1011101110
10110011110
10000110000
10001010010
10000101000
1100000100
1101011000
1010100110
10010010010
1000101100
111110001
101110110
1010001010
1101001
1100
1111111101001101
1111111000000101
1111111000110101
111110000
101010101
111010001
1001000000
1111110110011110
1111111000010111
10110001
1111111110000110
1100011
1100011010
1100110001
1111001100
1111001010
1000000000
1101100011
10001100110
10001111010
1110101110
1101101100
101110001
1100110011
1100110111
1111001101
1101111100
10000100110
1111111110101111
1111101001100100
1111111010110000
101011001
100000000
10011110
1000100100
1111110101100111
1111111010001000
101100100
10000100
10001010
111011010
1110001011
1111111101
1010011101
10100101010
1011100000
1001101011
1011011111
1010111101
110010000
1010000110
1010110011
1011001010
1011101101
10011001000
110111110
1111110110100011
1111111010110001
10110010
101011000
1010000
1111001111
1110100010
1111110110101000
10010000
110010011
1001110010
1110111101
1001010000
1011011101
110011010
1001011111
111000111
110000010
110011011
101001100
1001011000
111101
10011000
111000000
1100001111
1000110110
1000110010
10000100
11111111
1000
11001011
110101101
101101111
1111
101010001
1111111011010011
100110001
1110011010
1011110010
1110000001
101111100
10010111
1010100001
1111111101110000
1111111110011000
1111110111111001
1111111010111101
1111111101010001
101001011
111011110
101111010
1111111110000001
1011001
100010010
1111111111110100
1000111
100011
1111111101111111
1111111011100001
1010001
1110110
1001111111
1010111101
100000
100011011
1000010011
111
1010011010
100100
10010101
1111111110111111
1111111111101000
1111111000010110
1111111011110100
1111111000111011
1111110001010110
1111111101101011
100001011
1000101010
101011010
1111111111000100
1101001
1111110101101101
11000
1000010101
10000000001
101100110
1111111110100100
1101100100
1000101010
11110001
1010101000
1100011
1111111011111111
100101001
100110
1111111101000111
101011000
1010101000
1111111101110010
1111110011001110
1111110001101011
1111110011011010
1111110101111111
1111111010001011
101110000
11
111000101
11010110
1000100000
1111111010101100
110100001
1100011110
10100100100
111011011
1111111011000001
1111111100101001
10000
1111111010011011
1001000111
1111111101110100
1111111010100111
11000000
1111111111101101
1111111111011001
10010100
1001101010
1111111111011000
1111110100011111
1111101101001100
1111110001111110
1111110001100110
1010001001
1010000011
10101110
1001011001
1000001111
111101011
110000111
110110100
100100001
10101011011
1101100000
1111111000001011
1111111011011110
1111110110111000
10111001
1000010111
11111101
1111111001111100
1111111111000100
1111111100011101
110010
110101000
1011001000
1111111110101010
1111101011010111
1111110011101111
1111110011011100
1111111110111000
1001001100
111010110
101100110
100011010
101100110
101011011
11000
1001111000
110110
10110011100
110010000
110111001
1111110111100101
1111101101111001
1111110111001110
110000001
1111111111100110
1111111001010010
1111111100011011
1111111111010110
11100011
11101001
110111101
1111111101100101
1111110100011111
1111111000110010
0
100011010
1110110011
1000111
1111111100010110
1001100001
1101111
1111111111111000
1111111110100001
1111111010100111
101011111
10000101010
1100110101
1111111111011010
1111110111100101
1111111010110010
1111110011101100
1111000
1111111011111111
1111111100000000
1001101
100100011
11100110
111110100
10110110
1111111110001000
1111111101100100
100110
1010011001
111000111
1010001101
1111111010101111
1111110110011111
1010110
1111111010001100
1111111001101101
11100
1111111110100101
100101000
10001011000
1010100111
11011111
1111110011011100
1111110100001101
1111110100111000
101001001
1111111100100000
1111111110000001
1111111111010101
1111111100101001
1111111010111100
1111111100011001
1111111111010010
1111111111110110
1111111101100110
11110
110010101
1111111000111000
1111111011111001
1111111010001001
1111111000000111
1111110111100111
1111111000111011
1111111110001001
1111111001001000
101011
100001100
1100001
10001110
1111111111010001
100111000
1111111001110101
1111111000100001
1111111110100110
1111111011110100
1111111010101110
1111111011010010
1111111101101101
1111110100110011
1111110111001000
1111111111011010
10001010
1111111110111111
1111110110111101
1111111010000110
1111110001010010
1111111001011000
1111111001111011
1111111111101000
1111111000000000
1111111001101011
1111110100111101
1111111111011000
11100
1111111010110011
10110000
1111110111000111
1111111100111001
101110000
1111111110100010
1111111001110010
11111101
1111111111100111
1111111000100110
1111110001000010
1111111011011011
1111110000000111
1111110101101010
1111110101011111
1111111101011101
1111110111110011
1111101011010100
1111110100101010
1111110000100000
1111110101100011
1111110100001101
1111110101100101
1111110110000100
1111110001000101
1111111001111101
1111111110110000
1010000111
1111010
1111111010110101
1111111010011110
10111101
1111111110110001
1111111000011110
1111110010100010
1111111001111110
100010011
1111111011100000
1111111000001101
1111110110110111
1111111010111010
1111110010110100
1111111100100100
1111110101110101
1111110101001101
1111101000100101
1111110001001000
1111110101111110
1111101101111101
1111101110110111
1111101101000100
1111100111011010
1111110101101001
1111110111100110
101
1001010110
1111110111111010
1111111110010000
100101101
1111111111110111
1111111100011111
1111111001100110
1111110111110100
1111101111110111
1111111001000011
10101
110100110
1111111111001011
10
1111111100010101
1111111100010000
1111111010110100
1111111001011000
1111110011010100
1111110011111000
1111111010100001
1111110100010001
1111110010000111
1111110010111111
1111101011101110
1111110011111010
1111111110110111
1001000110
1011100111
1111111110100110
1111110100001001
1111111011101010
1110111
101001010
1111110111010100
1111110110111001
1111111110001110
10110101
1100111011
111011001
1101000001
100100011
110000011
100111000
10001100
1011010
11011010
1111111100101011
1101010
1111111101110000
1111111000111110
1111110111100001
1111110110111110
111110
110001000
111110000
101111001
110111000
1111110100010100
1111111100101111
1101101
10100010
1111111111111100
1111111101110010
1010000010
10001001110
10010110101
10000100010
111110110
10111110
101011000
1111111
111100001
1010000011
1101000011
1110111111
1100010000
10000110000
1011001101
11110110
1111100110
1100010100
1110101110
1011110101
1000010111
1111111100110001
1111111010111100
100101111
1111111011000010
1111111100100011
1111111001000010
1010001001
1011001010
10000000010
1100110110
10011011100
1111001100
1000000001
10000111111
1111101111
110011101
10010001011
10001010001
10011011011
11010000111
10110000000
1111101000
1100100110
110111010
1000100100
11010110
1001
11000
1001111
100001
1101101
11100
1111111010111101
1111111110000010
1111111101101101
11101
1010110110
110101101
1000101001
110101110
1100010100
10000010000
1011010101
10100000100
11010011100
11110110100
10001001011
1110101011
1000110100
1101000100
1101100101
1100001011
100011001
1010001001
111110101
1000111001
1100110
10111011
1111111111001000
1111111110011001
1111111100100000
11000110
1111111110001000
1111111101101101
101010000
100000110
1111101
100100
100110100
111001100
110100111
101100010
101101101
1000110110
101111000
111111000
1011010111
1100011010
1100000101
111100010
1000110100
1000100001
11101000
1111111110110000
100111010
1111111110101100
1111111111111010
