1111111101111100
1111111100100011
1111111011100000
11010
1111111101010100
1111111111101101
1111111100100101
110001
0
1111111100100100
1111111011100101
1111111101000001
1111111010100111
1111111011111101
11011000
100100001
1111111110111110
1111111100000001
11011011
1111111110100100
101000110
1111111111100101
1111111101011011
11100110
100100
1111111101010000
11101101
100100
1100000
1111111110011101
1111111110010110
1111111100001110
11010011
1111111110100100
1110100
1111111000100110
1111111111000111
1111111100001001
1111111110000111
10111110
1111111001100000
1111111000011000
1111111011011000
1111110110110011
1111111010110100
1111111100011100
1111110111010100
1111110011111011
1111111001101100
1111111011100000
1111111011000101
1011010
1111111110101111
1111111011101100
11100000
1111111111001100
10011000
110101
1111111111100100
100001000
1111110100111010
1111111110001101
1111111101101110
1111111100111111
101001101
101010010
1111111111101100
1111111110001011
1110001
1111110111001100
1111110101011010
1111101000101110
1111101001100010
1111110011001010
1111101101010101
1111101011000110
1111101101110110
1111101010110101
1111101010000101
1111101111001000
100111001
111110
1111111011111100
1111111111101100
1111111011001011
100001
1111110100101010
1111111001110100
1111110011000000
10000011
11100110
1000100010
1010011100
1101100101
10000111111
10101010111
101011100
10110110
110011001
1111111001001000
1111110111000010
1111111001010110
1111110100000111
1111110100111110
1111110001000100
1111101100000000
1111110100000000
1111110101000100
1111111000111100
100001011
1111111111001000
1010001
100110001
10110
1111111100110001
1111110110111111
1111111011010111
1001010101
10100000000
10110101001
10110110110
1110111110
1100110100
1101010101
111001100
111101100
11100100
1111111011110101
1111111000111011
1111110111001110
1111110101111111
1111110111000010
1111111010010110
1111110100011011
1111111000111111
1111110001100101
1111110110011011
11011001
1111111010010001
1111111110100011
11100100
1111111101000100
1111111010101000
100111010
1011110011
10000010000
10100100001
10100010000
11110010101
10101011101
10011001001
1110011011
10010111101
1011001110
110110101
1001000000
1111111111101000
1111111100101011
1111111010100100
1111110110111011
1111111100001110
1111111010011010
1111111001101111
1111111000011000
1111110011111110
1111111111010110
1111110001000100
1111111001001100
1111111100110001
101101000
1111111010011111
1110
1111111110101101
110101100
1101011010
10011101101
11010111110
1110111100
1011101011
10011101
1010100111
11111001
101011000
111000001
100011010
1111111001011001
1111110101001010
1111111011001110
1111111101010000
111100
11011
1111111001010110
1111110001111000
1111101111010001
1111110001101001
1111111110001011
10100111
1111111100101100
1101
1111111100011110
1111111010110001
101000100
101101011
10001001101
10111000001
1000110010
1111111001000110
1111111011110011
1111111000100001
111
1111111100011011
1111111011100100
1111111000011001
1111111100011010
1111110111000100
1111111101010000
1111110101000100
1111111010101111
1111111010001000
1111110011011101
1111110101100001
1111101111110110
1111111010100000
1111111010100001
1001000100
1111110101001000
10110
1111111011001101
1111111110100010
10101110
110101110
100010000
1000111010
1111111
1111111011100111
1111110110010110
1111110110111000
1111111000001100
1111111011011101
1111111001000000
1111111001010000
1111111001100011
1000001
1111111110101101
1111111101001000
1111111011010101
1111110111010111
1111110101110110
1111101110000110
1111110010110010
1111111111010100
1100100
1111111001011011
1111111001011010
11110011
1111111011100001
1111111001000110
111100011
10101111
1101000001
110001101
10001111
1111111011100111
1111110000101101
1111110001100100
1111111010001111
1111110101101000
1111110000111001
1111111000110101
1000110
1000101111
1110101001
1110001010
11111101
11011000
111110100
1111111011001100
1111101001001110
1111110101011100
1111111100011100
1111111000000001
1111111110011000
1111111001000111
1111111110110011
11010010
110111111
1110001111
1010010000
1001100011
1111111111110001
1111111000100110
1111110101010111
1111110010100110
1111110001000011
1111110011111100
1111111000101110
1101100
10100100100
1111001000
10110101000
10100110011
10010010010
10101011011
10101101000
1111111111100000
1111110001010111
1111101100000000
1111111011111101
1111111011110010
1111110110010110
1111101101111011
1111111110011101
1111110110101011
1000010100
1110100101
101001
110100001
101101110
1111111111011011
1111111001001001
1111110100101000
1111101100010101
1111110010001100
10010101
1100101011
10110101100
1111011011
10111111000
11100010100
10111110010
10100001111
10101000011
10001010000
1111111101111111
1111110111100000
1111111101001100
1011111
1111110011100110
1111110001101100
1111101110101110
1111110011100001
1111111110110101
110101
1111111101010001
11111101
101111011
1001100101
11111
1111111111110111
10001
100010101
1000000100
1110011011
1100100101
1100110110
10100101001
10101100010
10100110110
11101010110
11101001111
10101101000
11110111
1111111010011010
1111110110100100
1111111101100001
1111110110100010
1111110110001100
1111111000011000
1111110111000100
111100
1111111101011010
1111111111000101
101000010
101111101
1001000011
11101100
1110110010
1010100100
100010010
1000001010
11011000
1010001110
1100110000
1000001000
111010010
1100011010
11001001101
11010110110
10001110010
1000011011
110100101
10111001
1111111111111011
1010010
1111110010111110
1111111101011001
1111111110010100
1001010
110111011
110000110
1111010
1111111110000111
101000001
1000101110
1111010100
1001100001
111110111
1111111110100100
11101110
101000101
1111111110000100
1111111101001110
1111111110011011
10011111
1111000011
1111111111
1011110111
1110110110
10001001111
1100101
1111111100100001
1111110111100011
1111111011111111
11101010
111000001
11110
1111111010100010
1111111110111000
11010111
11100000
101111011
1001100000
1011111001
111101110
11011000
110101101
1111111110100100
110101
1111110110101110
1111111001110011
1111111110111101
101000001
1101010010
1111010001
10100010110
1111101111
10011111000
1011000000
1111111001111111
101110110
1111111110111111
1001010011
1001010100
1111111110110111
10100101
1001100
1111111111100111
100101110
1010010001
1100001011
10011101111
1011110011
1111111111101111
10001000
111001111
101100000
1111111110110010
1111111101001110
1111111111101001
110010001
11001101000
11101001110
11001110111
10010011101
1111100110
100011111
1111111111100010
1111111001111111
111110101
1111111111100110
110000101
111001101
1101011
1111111000101000
1111111011010100
1001001001
1101101001
1110010110
10000110110
1100111
1111111101001001
1110000
1010111001
111100
1111110100001000
1101010
1100111
1100100110
11000011010
10101111110
10000101100
10100110000
1001101100
1010100100
1111111010110000
10111
1111111100111000
100111110
10011
111101000
1111111101100100
1111111011011110
1111111111001000
1010111001
10011010100
10010110100
1010111001
1111111111100011
1111110100010110
101101
1111011
1111111000000011
1111110111111110
10011
1111111010101100
1100001000
11001000110
10100001100
11000110100
1011010101
1111111111011001
100011
1111111001010101
1111111011000010
1111110110010111
11010000
1111111011101111
100101001
101110111
11001110
1110100
110000101
1110101001
1001001100
1000
1111111100011010
1111111100100110
1111111001110001
1111111101011100
1111111110100110
1111111000110010
1111110101001110
1110101
10000001010
11100001010
10011000001
1011001001
1111111101101101
110001010
10111
111001
110000100
1111111110110101
10010
100011100
110011111
101001001
10110100
10101001
10011101
10011100
11101111
1111111000111100
1111110100010110
1111111001110111
1111111101010110
1111111101011010
1111111011100101
1111110100010011
1111111001101011
1111111111011110
1001011010
1110111111
10001010010
1011101
100
11000000
1111111000011010
10110000
1111111101101101
1110000100
100100001
10000010
1111111111101010
111000000
101110011
1111111101111000
1111111111001011
1111111011111010
1111111001101110
1111110101001110
1111110110010100
1111110101011011
1111110111010000
1111111001000111
1111110101010001
1111110110110110
1111111111010010
1111111011000001
11010
10010011110
10010011011
1111111110110001
1111110111110101
111010
1111111111001011
10101011
10110111
1110101000
101111011
1111111110110010
1011000
1111110000
1010100101
1010011101
100000011
1000010000
1111111111000101
1111111111101001
1101100
1111111000110100
1111111110001111
1111111001101001
1111111001110101
1111111001101100
1111110111111010
1111111000010100
1001011110
10100011110
1100000100
110101011
1111111110000101
1111110111011011
11001100
1010001
100000101
101000111
110000100
10000001
1000001011
1101111101
11000011010
10010111000
1001111110
1000100111
101
1111111010010010
11000001
1111111101111101
1111111101111000
1111111110110101
1111111101111100
10000101
110001110
1111111110101100
10010001111
11000110001
1111001110
11101010
1011000000
1111111001101111
1111111111110110
11001100
1111111110001001
1000110001
110001
1111
1111111110111011
101000001
110110010
1010000111
11001011
110100110
101001011
10101101
1111111110000100
100110000
1111111111010110
11000110
1110000
1011010
1111111011100000
11011101
111010110
10001110100
1000010011
100100010
10011000
1111111010011111
1111111110101011
1111111011011111
1111111101111101
110111010
1111111000111100
1111111100101110
111010110
101101011
1111111101111011
1111110101100100
1111111011100101
1111111011100010
1111110110110010
1111101101101010
1111111000111100
1111110110111000
1111110111011100
1111110101100010
1111110000101011
1111110000100110
1111101111000011
1111111000110110
1111111000011001
1111111101011011
100111
1111110010111001
1001010
111000111
1111111111001101
10011100
1111111101001101
1010110
100010000
101101011
1001000110
111000010
10001
1111110010011111
1111110011001010
1111110000110010
1111101110101001
1111101101011111
1111101100011100
1111110100000110
1111101111010000
1111110011101001
1111101011110110
1111101000000000
1111100111111000
1111101011101100
1111101110000111
1111110111010101
1111111010011010
110010
1111111101000110
11010010
1111111011011111
1111111111010101
1111111101010001
1111111100111000
1111111011101000
1111111100110111
1111111100010110
1111110101011100
1111111011011100
1111101110011000
1111110011000111
1111101110111111
1111110101010011
1111111011101001
1111100110011111
1111101101000101
1111110100111110
1111111010000100
1111110001110010
1111111000010111
1111110110101011
1111111100111100
1111111010001011
1111111111001011
1111111000010010
1100010
1000
1111111110000001
0
