1111111011111101
1111
1111111011000000
100000010
1111111111000111
11111000
100110100
10111010
1010111
1111111011110011
10010100
1111111010111100
1111111011111011
1111111010000100
11001111
1111111101011100
1111111101001100
1111111101001001
11001001
100101001
1111111101111010
1111111011110001
1010110
1111111101101110
1111111110000101
100111010
1111111111111000
1111111100001011
0
1111111100010101
100001001
1000101
10011010
1111111011010110
1111110110011011
1111110100011011
1111111001110111
1111111010001000
1111111011110000
1111111100011101
1111110000110011
1111111000001101
1111111101001100
1111110111100001
1111110000111101
1111110101110100
1111110001011000
1111101111011010
1111101110111101
1111110010001100
1111111000000011
1111110101111001
1111111101101100
11100010
100100111
1111111101111111
1111111101010001
10011001
1111111100101011
1111111001101000
1111110011001011
1111111000000001
1111111001011001
1111110001111100
1111110000101100
1111101001111001
1111101101101010
1111101000011010
1111110000101011
1111111100010000
1111111101000011
1111110011011111
1111110000111111
1111110110011100
1111101011100101
1111100101010001
1111101101001101
1111100110000010
1111101011110100
1111101010110000
1111110111111000
11010010
1111111010110101
11111
1111111100010001
1111111101001110
100100
1111110011100011
1111111111010001
1111110100110101
1111101011101100
1111110110001010
1111101000010001
1111100111111100
1111100100110110
1111101001111111
1111100110011110
1111100100001100
1111110111110001
1111111001101111
1111110100010101
1111110101101100
1111101100010100
1111110000100010
1111101001101110
1111110000100100
1111110011011100
1111111010010111
1110001
111010110
1111111011110000
10011110
11011000
1111111100110000
100000010
1111110111100010
1111110110100111
1111101111011100
1111110011111101
1111110011100000
1111110011110100
1111101110011001
1111101111000101
1111111010010110
1111111011100110
1111111110000010
1111111111100010
1111111001000000
1111111011111111
1111110100010011
1111110001000110
1111110111010110
1111111010000110
1110011
101000000
1100000000
111000100
111110111
1111110111011001
1111111001011100
1111111011001111
1111111100100011
1111110101011100
1111111001000111
1111110010110110
1111110001010001
1111111011100111
1111111101110011
1111110110000100
101010
1111111101001110
11100000
1111111110000101
11100111
111001000
111101111
10000
101100
1111111101011001
1111111100111010
11110010
1011010
1100011101
10100010000
10000110000
1011100001
1111111101100101
1111110111110011
100111101
1111111010001111
1111111101100111
1111110010001101
1111110110010011
1111111111110010
1111111000100100
1111111101011110
1111111101001100
1111111001001000
1111110101111101
1111111001101010
1111110101111010
1111110110000101
1111110100111010
1111110101110010
1111111111000110
101110010
1000000010
1000110010
1110000000
10001001110
11000000111
10111011010
1110000001
101111010
10001101
1111111101011111
100001011
1111110011011100
1111110101110111
1111111100111010
1111111000101001
100010
1111111011001001
1111111100001011
1111111000101110
1111110100110101
1111110110000010
1111110001010010
1111101101011000
1111101110010111
1111110100100101
1111111001011000
111010010
1100100011
11000111101
10001011101
10100000110
10101101100
10100011001
100000000011
11100001111
1111011110
111101010
1010001
100111
1111110101001001
100010011
1111110110100110
1111111000011101
11100100
1111111010110111
110001
1111111010110010
1111111110011101
1111110111101011
1111101111010010
1111110101000101
1111110111001110
1111111110001001
1010000000
1101011101
10001011000
11101110001
10101110001
10011111010
1110101001
10100110110
11011011100
11100010011
11000101011
1100110011
11011101
1111111011010111
1111111001101110
1111111101001010
1111101111010011
1111101101111100
1111110100101101
1111111110000110
1111111101111011
1111111110110001
1111111101011110
1111111010111111
1111111011100100
1111111011100000
1000011110
10110001
1101010010
10001101000
1011101111
1101000011
10100011111
1101011000
1001111110
1001101110
1111100111
10000001100
1010101110
1111111100001110
1111110111110111
1111111101011011
1111111010110100
1111111001011101
1111101110000000
1111110010101010
1111111000000011
1111111011010110
1111111011100110
1111111011011100
10000110
110000100
1010100011
1000011011
1000100001
1111111100111011
111010000
100100101
1111111110111101
101001000
11101000
1010011
111011110
1000010110
1111111011101001
11011101
1111111110100111
1111111010101000
110000000
11011
1111111010101001
1111110010010101
1111111001011110
1111110100000101
1111110111111111
1011111
1
100100110
1100011111
10000000111
10000010111
10000111001
110100001
1111111001101111
101010010
1111111001010101
1111111000111001
1111111010111101
11000100
1111111010000100
11110100
1111111100000101
1111111011010000
1111111100001111
1111111100100101
111001011
11011100
11
1111110111110100
1111111001011100
1111110010011101
1111110001101100
1111111001111011
111110101
1000111100
1011111010
1000100111
1111001001
10010100010
1111001011
1111000
1111110101001110
1111111010101010
1111101111000011
1111101110111011
1111111000111100
101000001
1000100101
1001000000
1111111110011100
1111111011110111
11010011
1111111001101101
1111111110011000
1111110011011110
10100010
1111111101100101
1111111011111111
1111101111111101
1111111100000100
1000100100
1011011011
10001000000
10000010010
10000011100
1110110001
1111111100
1011110011
1111111010100001
1111110111110000
1111110110001100
1111111001101101
1111111000100001
1111111101111100
1111010
11100000
1111111111011101
111010
1111110111001110
1111110100000000
1111111100010101
1111111010010111
1111110101000011
11000100
11011000
1111110100111111
1111111000011011
1110001011
1111001010
1001000010
10011110010
1111001100
110000110
101010110
1001110100
1000110011
1111111110000101
1111111110001011
1111111010110110
1111111011001111
1111111111001110
1111111101100111
1111111100111010
10000110
1111111000000110
1111111010000010
1111111000100010
1111110111101111
1111111100011100
1111101100111111
1111110101000111
111010110
1011101
1111111011111111
1111111100101000
10001001110
1011111111
110000000
1111110111
111110110
11110110
1101100
11100011
1111100
1111111110010010
1111111101000110
10110111
100011111
101000000
1111110110100111
1111110110000101
1111110000101110
1111110001110111
1111110010001010
1111111001001001
1111110001110100
1111110111111010
1111111111010111
1111110101110111
1111111101000011
1111111000011111
1111111000001111
1111111000010101
10110110
1000101010
1111101
111001011
1101010100
110001100
100010000
1001101
1000110
1111111010001011
1111111010100100
1000011011
111110000
10110010
1111111011011101
1111110010010001
1111110100100110
1111110100011101
1111110101110110
1111111011101110
1111110111101100
1111101101111010
1111110001111101
1101100
1111111101001100
1111110101100001
1111111001000011
1111111000100011
101001111
101100100
1100011
11100011
1000110010
1011111011
110111100
1111111101101000
1111111110111010
10010011
1010000010
101101111
1010000110
111001
1111111110011000
1111110100001011
1111111101011110
1111110111000101
1010101
100101010
1111111101110110
1111100110111111
1111110100111100
1111111100011110
1111110101101100
1111111011101111
1111110001011100
1111101110010011
1111111100101011
1111111100010110
1000011010
11110110
1010101110
1000010010
110011101
100001101
110000111
10111011
11101101
10010011
1110
1111111011011111
1111111000100101
1111110111111110
1111111011000001
1111111011011011
1111111000100110
1111111011001010
1111111100001111
1111100010100001
1111110100110001
1111110110000011
1111111101101100
1111111101000101
1111110110100100
1111110000010011
1111110110010001
1111111110010111
110111
1111111101011010
11101000
1111111010110000
1111111111010110
1111111010011010
1111111101000000
1111111010100101
1111111011101010
1111111100100100
1111111000111101
1111110111011000
1111111100101101
1111111010001011
1101010
11001001
1111111110111100
10110001
1111111011011001
1111101011011001
1111111001011111
11010
11110000
100100001
1111111001010110
1111011111110100
1111101110001111
1111110111101111
1111110111111111
1111111001011100
1111110111000011
1111111000111001
1111111010010001
1111111000111001
1111111110100011
1111111100110001
1111111101010101
1111111101110000
1111110111001001
1111111101000111
1111111000000001
1111111101100100
1111111101101001
1100011
1000100100
10000000
1111111110011001
1111101101011001
1111110110011001
100101010
10101100
1111111101011101
1111111010011011
1111101101101011
1111111001000001
1111111010000110
1111110101100100
1111101100111011
1111101110110010
1111110111011100
1111101110100111
1111110110110111
1111110010111010
1111111001100000
1111111001111010
1111111001010101
1111111001101110
1111110111101000
1111111000100110
1110101
11000000
1010101011
101000101
10011011
1111111100000011
1111101111001011
1111111110101000
10001111
1101100
1001
1111101101111011
1111101100111000
1111110000101110
1111110110010000
1111110111110001
1111110111001001
1111110011111010
1111110110000001
1111111000010101
11111
1111111110001110
101010101
101110110
1111111011000001
1111000
11111110
110101100
1000100100
100001110
1010101001
1001100000
1000001001
1111111111011110
1111111001101000
1001011100
11101001
10001
1101010
1111110001010010
1111110100101100
1111101000011001
1111100111000011
1111110001111000
1111110110110001
1111111110011001
1011011001
1101000000
1100100011
10100000101
1101101110
1011101010
101111010
1100010011
100100011
1010011010
101110
11011010
1010011101
1000101
1111111000001011
1111110110011000
1111111100110100
1111111101000010
1111111100110000
10000111
100110000
1111110111110101
1111101110001111
1111011111100100
1111101001011110
1111101000100001
1111110010100011
1111111100011011
11110000
1000110011
10000011001
1011000010
1001011010
1001100001
1111111110000111
1111111111001100
1111111110011011
100000000
100010101
1111111111011111
101001110
1111111110011101
1111110001101001
1111101100101110
1111111010101101
1111111100010110
100111110
100001101
101000100
1111111001011100
100100000
1111110100100100
1111110101011101
1111110010010100
1111101101001111
1111101010001101
1111110100011000
100101011
1111111101101110
1111101100010111
1111110010010000
1111110011001010
1111110001111001
1111110100101111
1111101111001001
1111101110110011
1111101110000100
1111110001000110
1111110111111111
1111111001101011
1111110111100110
1111110110101001
1111111000001011
1111111100001010
1111111111101010
1111111101000010
10001
1111111110101111
1111111110010000
1111111110011111
1111111111001100
1111111100111110
1111110100000110
1111110010110010
1111101001110101
1111101111010010
1111101011101100
1111101110111101
1111100000100110
1111011111001101
1111100011011000
1111100011001001
1111011111111101
1111011010110011
1111011100101001
1111011101001111
1111101000010000
1111110000001101
1111111001100000
1111111001110000
1111111011101001
100000
1111111111011100
1111111101110111
1111111101100101
111011
1111111010111001
1101000
1111111001101100
1111111001101110
1111110110010110
1111111010100001
1111110001110111
1111101110001000
1111110111010101
1111110010011010
1111101000000101
1111100111101100
1111111000110100
1111110110001111
1111101111000111
1111110010000000
1111111000100111
1111111100000110
1111110101000010
1111110110010110
1111111101001101
110010
1111111011000101
1111111101001100
1111111110011111
