101110
11011111
1111111101001011
1111111011011111
10110101
1111111101000000
1111111100101111
1111111110000100
101000000
1111111101100000
1111111010110101
1111111101010010
100101001
10100001
1111111100000011
1111111010101111
11001100
1111111110101100
1111111101001100
110110
101000001
1111111100111000
10001110
110110
1111111101110011
1111111110000101
1111111110001110
0
100000100
10101011
100100
1111111011000110
10001000
1111111101100111
1001100001
1101011111
1101001110
1100110100
1100100100
1111100110
10001101011
10011010000
101101001
1101110011
10000010011
1101111110
10101100011
1010011101
1011000101
111010010
1110001011
110011100
1001100
10111110
1111111011100111
1111110
1010100
100001001
1010010
111011001
1101101
111110111
1111101000
1001000001
10100010101
1110001100
11011000000
10111000001
11110101101
10100011100
100101001010
11001101001
1010011010
1010111
111001
1111111101001000
10000100
10101100
111111011
1111101
100110110
11000011
10000001
1111111100010001
101111
1111111011100011
1000111001
10000111100
101010110
1100001010
10010001000
10111000101
10100011001
1111000101
1101111101
10000010111
10001011001
10001101110
110100111
1111111101111101
1010111
1111111101001010
1111110011000011
1111110111111111
1111110111000110
1111110011011001
1111111001110010
1111110111000101
1110111
1111111
1111111010110011
1111111101001000
1111111101110111
100001111
1010100011
1000010000
1110011100
10011000100
10100111111
10001011110
1110010001
1100100010
1010001001
11011011
11001011
1101
1111111010100101
1111101000000001
1111101001111010
1111011110111010
1111100110011010
1111101001111001
1111101000110011
1111100011000001
1111100011001100
1111110011011111
1111110110010101
1111111101100101
100100110
101000100
100100001
1111111100111000
1000000
1011111001
10011100010
10010111110
110001100
1000101011
1111111110100011
110111011
1010111001
1010101000
111010011
110011100
1111111010110111
1111110011000110
1111100110010011
1111011111000011
1111100100011111
1111100000111011
1111011001000100
1111011010010110
1111100000001011
1111100101101100
1111110011000000
1111110001111011
1111110111100001
1110111
1111110
1111111001000110
1111111100010100
1010001000
1010010001
1111101111100101
1111111110001101
1101001
1111111111101100
1001101101
111111010
1001110110
1010100100
1001100001
1011101000
110001110
100111000
1111111101010000
1111110010000100
1111011110001100
1111011101000111
1111100101111001
1111100001110011
1111100101101111
1111100101111100
1111110011101110
1111110111100110
1010011
11011010
11011110
110110001
1001110011
110001100
1111110010010101
1111111010100111
1111110101111101
1111111111100100
101110001
1000110101
1011001001
1000010010
1100101000
1010001111
10010001001
111110010
11111110
1111110010101000
1111101010110110
1111011111100011
1111100001101010
1111011110010001
1111011110000110
1111100101011010
1111101110110111
1111101111001111
1111111011001110
1111111101010101
100010010
1110100
1111111111001110
10010010
1111111101101010
11011001
1111111010101101
1111111111000111
1111111010100011
10011010
1111111110011001
1011001
1101111011
10100011100
10001001011
111111
11101000
1111111001110110
1111110100000010
1111100100010000
1111101001110001
1111100101010111
1111011111111100
1111100110100100
1111100111001010
1111101111011100
1111110101011101
10100100
1011001101
1111111110100011
101010101
101110110
111100011
1000100001
1000010001
110110110
1011011
110000010
101010010
1111111111000111
1001011111
11001000101
10010101000
11001000
1111111111101001
1111111011110110
1111110101111010
1111110001011000
1111100100100100
1111011111110010
1111100000100111
1111100110101111
1111101011110000
1111110000100011
11100111
11010110
111110010
10010001
1001111010
10100000
101110110
1001001100
1000100001
10000011
10101111
1111111111111111
1111111011110111
11101000
10010011000
1110101101
110101110
110100
1111111100011100
1111111110011101
1111111100011100
1111111010101001
1111110000110101
1111101110110110
1111100100001010
1111100011010110
1111101010010100
1111110001001010
1111111110011110
110001011
101100001
111111111
1100110111
10100110
101101001
110001000
101100110
1111111111011010
1111111010000000
1111111010000000
11100011
1000001
111000100
1101100010
1111111101010001
1111111110010011
1000001001
1100111110
100111001
1001011101
1111111110000001
1111111101000111
1111110110010010
1111011110100111
1111011110100111
1111101110101010
1111111110100011
1010000
1111011
1000110101
100111001
1000011000
1000001011
100011100
101111101
10010010
1111111000100011
1111111010001000
1111110110101000
1111110010000110
1111111101001100
111000110
1000101110
110000011
1011100000
1011101001
110111010
101101111
100001100
11011111
1100111
1111110001101010
1111110000011111
1111110000001001
1111110011
110111101
10011001
110000101
1011000010
1011100000
1111111111010010
1111111111000101
11
1111110101010000
1111110101100011
1111110011111110
1111110010010011
1111110010100100
1111111100111011
110111110
111000011
111011100
111111011
111110010
1111111110101100
10011001
11011100
10011100
101110000
10111000
1111111001110101
1111111111101011
1111111
1111111001011010
11111101
11100110
1110001110
101000
1111111100101011
1111111111100100
1111110011010000
1111110001111010
1111111000000000
1111110101011101
1111110001011000
1111110011101000
1111111110111010
110101111
1111111110111010
100000011
1111111111110100
10110111
100110000
1111111100100111
1000000100
101011010
1111000010
10001
101110110
110011110
111101100
1111111111100111
10010
1111110011110010
1111111110111110
1111111010001110
1111111000011100
1111111011010000
1111110010010010
1111101100001010
1111110100101100
1111111101011011
1111111010010011
1111111000011010
1111111111100111
1111111101000001
10111001
1111111111000101
101000
1111111111001110
1010111
11001010
1111111111111000
10000110
1111111111100010
1011011010
1000110000
1111111011111110
1000100001
101011110
1111111010111011
10001101
1111111101000010
111001001
1111111101000100
1111111011011111
1111110101101011
1111110101000111
1111111001000001
1111111100100000
10010110
1111111010011100
1111110111110111
1111111001010000
1111111001000100
1111111100010110
1111111101011110
11001010
1111111011011110
100111111
11110100
101110111
1111111100100000
1111111110010001
110001101
110111
101110010
0
100111101
1111110111010010
1101011
10111
1111110101110011
1111110010100000
1111110011010111
1111110101111101
1111111110100110
1000011100
1111111110110010
10000101
1111111101001100
10110000
1011
1111111100110011
11001110
1111111110101110
1111000
10101001
1111111111101101
1001010
1111111001000001
1111111100101111
10110100101
110000110
111011010
1001110001
11011010
100111110
1111111100101100
1111111001100001
1111110010011001
1111101100000111
1111100111111010
1111101110000110
1111110101000101
10000010
100110
1111111000011001
1111111101111000
101000100
111000010
1110001
100110100
10000000
111010000
100010010
1011001000
111100
1111111101100111
1111110110000001
1111000110
1100110000
1011000001
11010100
1001011110
1111111110000010
1111110100001111
1111110001110101
1111101010101010
1111101000000001
1111101001011011
1111101001011101
1111101100001001
1111110111000001
10110101
101100010
101111010
10100001
1111111101101101
10101000
101001110
101100111
1100010
1001001
1111111111100110
1111111101101100
1111110111110011
1111111111011011
100101100
110111010
11111011
1111111011101100
1111111110100101
1111111000101111
1111110100110001
1111101110011111
1111100001111001
1111101010000110
1111101101110100
1111100110101001
1111101010000001
1111111000000101
1111111010011011
100011000
1001010101
111100100
1111111110000010
11
11000100
1111111011110011
101001111
1111111100011101
1111111110101000
1111111000011100
1111111101111000
101010010
110011100
110111000
11010011
101000010
1111111101101000
1111110111111100
1111110011111101
1111101011001110
1111101011100010
1111100000111010
1111101001110101
1111101111110000
1111110000101010
1111111001111001
1111111011000101
1111111111100010
1111111100101000
1111111101101001
10111111
1111111101011100
1111110101010011
1111111001001001
1111111010101001
1111111011011101
1111110010101010
1111110000111100
1111111001000101
11001100
1000001
1111111001011100
1101001
100011110
1111111100001110
1111111000111011
1111111001011110
1111111011011110
1111101100101010
1111100101010111
1111101011000100
1111110010100001
1111111011000111
1111111110111010
1111111101110100
1111110111011010
1111111011110100
1111111011101001
11000000
1111111100101001
1111111000011001
1111111111011010
1111111011101000
1111111111100010
1111110110000011
1111101110101100
1111111010001101
11001
1111111111100000
1111111100000110
101111
1011101
10111000
1111110111110100
1111110001111011
1111111000001110
1111110001011100
1111101010100111
1111101000101101
1111101100111110
1111110011100110
1111110101111100
1111111100000110
110010
1111110111000011
1111110110101010
1111110101001100
1111110101110001
1111111000101011
1111111001100000
1111111001001010
1111111000010010
1111111110001010
1010110
1111111110111001
1110011
1111111010000000
11111
1111111110001110
100011111
10111110
11110011
1111111001011000
101011001
1100001011
101100
1111111101011111
1111110110000000
1111110011100001
1111110101011101
1111110001111011
1111111000000011
1111110000000001
1111110111111010
100111
1111110111100000
11100001
1111111001100001
1111111010100110
111101001
111011000
10001100
1011111
1111111101001111
11110000
1111111110001110
10000110
1011100
0
101111111
1001001
11111010
1111001001
1111111110011111
1001101100
1001001111
110011000
1111111111101100
10100
1111101
1111111101110110
10011010
1111111011100000
11001100
1111111101011010
101100111
111010
11100111
111000100
10000001
1011000
1111111111010010
1010
1111111010010100
1111111011000001
1111111101100011
1111111100110010
100001100
101010100
110010101
11100100
1000111111
10110111001
11011111100
10110101010
11100000000
10001101110
1010100010
10100001110
10110110100
10001001001
10000011101
1111001110
10000111101
10001000010
1100000111
1000101000
1010001011
100011111
1011101001
1111111011111010
110100
100010001
1111111111111101
1111111101000101
1111111011110000
1111111011110100
1111111011110110
1111111010010110
11011100
1100110010
1011110101
1010010101
1010000110
1001110011
1101100110
10000000000
10010010100
1100011111
1111000101
10001001111
1101010101
1100111010
1010010001
1110110110
1000111000
11001001
1111111100100000
10101100
100000100
10010
