1111111100111110
1111111011111010
1111111110110100
1111111011001011
11001100
1111111111111011
1111111100000110
1111111110001100
1111111100010110
1111111011001010
10011110
1111111011100100
1111111001010110
1111111011010100
11101101
1110111
101011
1111111101000001
11011101
1111111101011000
11011101
11010111
1111111011100101
10000011
110100
100101101
10111000
11100011
10100101
1111111111011000
11111101
1010101
100000110
10100010
1111110111110110
1111110000001001
1111110010110010
1111110010101001
1111110010111011
1111110111111100
1111101100110011
1111101101100001
1111110100111001
1111110100100011
1111111000111110
1111110111110101
1111110111001001
1111111010011001
1111110110110011
1111110111001010
1111111010111011
1111111011010100
1111111111101101
1111111111001011
1111111111100000
1111111110010100
100100010
100000011
1111111001111111
1111111011010110
1111110101000100
1111111111000101
1111101110100010
1111101011101100
1111101001100111
1111101111011001
1111110110111011
1111110110010101
1111110110000101
1111111010000100
1111101100011111
1111101111111101
1111110110011010
1111110000101100
1111101011101011
1111101101111000
1111111001001001
1111110100011101
1111110011011000
1111111100101010
1111111110110011
1111111110001101
1111111101100000
1111111110101110
100110110
10111011
111011010
1111111011111010
1111110101100111
100111
1111111010000000
1111111111001111
1010100
1111111001001110
1111111010001110
1111101
1011011001
11010
1111110100010001
1111101110001011
1111101111010011
1111101111010110
1111100100011011
1111100010100101
1111101000111111
1111101101000100
1111110000010111
1111110011010111
1111111111100110
1111111110110100
11100101
10011011
1111111011110001
10011011
101010000
110000100
1001000001
1000101001
101101100
10010110
100010001
11010000
10110010
1010001111
10000110
100001011
1111111111011111
1111110101110111
1111101111101101
1111100011011010
1111100111111100
1111011110100000
1111010111100110
1111100111110000
1111100100001111
1111110001111100
1111110111101111
1111111101111011
1111110101010000
1111111101001111
1111111011101001
1111111100010000
111100100
1001001111
1101100010
1111010110
1101011010
1010110010
10010001
1001010011
1000100010
1111111111111100
101011011
110101
1111111011110001
1111111111101010
110101
1111110000101000
1111101001010001
1111100001110101
1111010101100011
1111011000011101
1111011001001000
1111100111000011
1111101101010011
1111111001010100
1111110100100111
1111111011100011
100110110
1010101011
10110110
10001111011
1010000100
1000100010
1000010010
10001101
10011010
1001100001
1000011
10100110
11001100
11101
10111101
101110011
1101100110
111101010
1111111101001100
1111100100100001
1111100100010101
1111011111001110
1111011000010110
1111100000010100
1111110000100000
1111110101110110
1111111010110001
1111111100110010
1111111101111000
10010011000
100101011
10001010000
10111110101
1011000000
11010100
1111111011001111
1111111101101001
1111111100010000
1111110111010111
1111111011111011
1111111100100111
110000011
100010001
1111001001
1110011100
111110001
1111111110011100
1111110010111010
1111100101111101
1111100110010111
1111011100111000
1111100110101101
1111100011101000
1111101101000111
1111101111000100
1111111101010001
1111111010100001
1001111011
11011111
1100011110
11001011110
1011001000
101101010
100010001
1111111000010011
1111111101001011
1111111111001000
1111110111001011
1111111011111011
111100101
10001001010
10011111001
10000011100
11011101
1111111111010111
1111110010111001
1111101010100100
1111101101111100
1111101011110111
1111100100001101
1111011110010111
1111101001010101
1111101100101111
1111111110101110
1100011
1000000011
11001110
1110011101
1101101101
111010011
1100000101
100011001
1111111010001011
1111111001111001
1111111000001111
1111111000110010
1001100
10000011000
10110011100
100001100011
10010000110
101101001
1111111010101100
1111110101011111
1111110011111010
1111110000000111
1111110010111001
1111100111101011
1111011111001110
1111100010010001
1111110100101101
100101100
111011000
1001011010
1011011011
10011011110
101000010
11100000
110101100
1111111101111100
1111110110101100
1111110111010100
1111111001101101
11010111
101101001
1010001010
11001001010
11000101001
10010001011
1111111101110101
1111110100101111
1111110010010010
11110
1111111111001100
1111111001000101
1111101100101001
1111011010101111
1111110001011111
1111110101110001
1100100
1001011001
1111111111011001
10011000101
10010111101
1000001110
1111111111001001
1111111011100101
1111111011101000
1000110
1111111101101101
1101110
1100101110
11111110
111111001
1110110111
10011100111
1001011011
11010001
1111110111100000
1111111001000100
101010001
1111111111010110
101001
1111110000111101
1111010111110001
1111110001001011
1111110101111011
1011000001
1111111111111011
1111111110111110
1100000000
1011000101
1000000011
1111111101111110
1111111101000011
100010
1111111110110010
101110110
1001011001
10111000
1111111011100000
1111111111100000
1010100101
1111110110
1001010100
11111100
1010101
11001
1111111110011000
1111110110101010
101101
1111111100110101
1111101010011101
1111111011000011
1111111100111100
1110001100
1111111001100110
10101100
110001101
1100100010
100111010
1111111110101000
1111111110001110
101001000
110000110
101001110
1111111101110100
1111111010110011
1111110011000111
1111111001010001
1100000101
11110111
1000011000
111011010
10000
101111001
1111111010011001
1111111100000010
1111110110101100
1111110101011110
1111110111000101
1000100
1001010101
100000101
1111111010001111
10100100
10101100
1100110101
11000101
1111111101100001
1111111011110100
10000110
1000011
1111111110010100
1111111010110101
1111110011100000
1111111000001111
1100000
100000000
1011001001
1101000100
100010001
10011010
110011101
11000110
1001111101
1111111111101010
100010
1111110000010010
101111000
1010011000
1111111001111000
1111111010111011
11000101
1111111101011001
1000010010
1111111110111000
1100011
1001
1111111110010010
1111111111000100
1111111010110101
1111111010001010
1111111101000011
1111110010110111
1101100
10111010
1110011011
1110100010
1101011100
111010011
1001010
1100011000
110001011
1100011000
101100100
1111111100000010
1111110111100001
1111101001
1110010000
110110
1001010011
1100111
101111010
10100101
1111111011110011
1111111011110100
111001110
101101100
11111
1111111010111111
1111111000000001
1111111100001101
101101011
110110101
100010010
1011000
1011001
100100100
110100111
11101110
101110000
1001100010
11011011
1010000
1111111000110001
1010100111
111011011
1111111100101111
1000011000
11110010
100100101
1111111010101111
1111110011000110
1111110100000001
1111111110001111
1111111010000001
1111111001000010
1111110111010010
1111110001011100
1111110100111010
1111111100100001
100110100
1000000110
10110001
1111111110101001
1111111010100111
1111111110001011
11100001
111111001
101010011
1000001100
1111111000111111
1111001
110011110
1111110110000100
111000001
1000000
111110111
1001010001
1111111101001101
1111110110001001
1111110010010011
1111110110010010
1111110100001101
1111101111101101
1111101110011111
1111101000101001
1111101000001010
1111101110110001
10100000
1111111110100101
111010
1111111111010001
1111111101000001
1111111110010101
1110111
110
110101000
1111111011100101
1111101000101100
1111111010000110
1001011011
1101011110
10100101
1111
11100011
111101
11101000
1111110101110000
1111101011111000
1111101101111001
1111110011011001
1111101001001100
1111101100101110
1111100001010101
1111100100111110
1111110111001001
1111111110110100
1111111010110000
111011
1111111101000100
1111111010100011
110001111
101100101
1111111110000010
1111111101001000
1111111001001000
1111101000011110
1111111110100101
101010100
1011000100
10111100
1111111001000100
1111111001001110
111011010
1111110101110001
1111110110000110
1111110010100001
1111110000111110
1111110111010111
1111101111001100
1111101100111010
1111101100000010
1111100111000111
1111111100000010
111
111101
1111111011111001
1111111100101001
1111111011101100
1111111101010001
1111111100100010
1111111111100110
1111110100010100
1111111101011110
1111111001101100
11011001
100011100
1111111111111000
1111111100111111
110111
11000011
110011110
1111111001100001
1111101100111010
1111110000011011
1111101100111010
1111101101100011
1111110111111000
1111111000010000
1111110001100100
1111111010011110
1111111100101100
1111111110110111
1111111100110010
11111000
1111111110010011
1111111100110001
11010101
1111111110001001
1111111000011100
1111101110010010
1111101110110000
1111110111011101
110101010
1111110110010110
1111111011000010
10010100
1111111100111001
1001001010
1001000000
1111111101000110
1111110110101111
1111110000000100
1111110110101001
1111101111111100
1111110100001111
1111111010111100
1111111010000101
1111111100010111
1111111010101101
1111111000000101
1111111000111110
1111111110010101
1111111111100111
11100011
1111111111000101
110110
1111111011110000
1111111001001000
1111110001100101
1111110111111101
1111111110101110
1111110010001001
1111111110111011
10
11001001
11110
111111010
101111000
111011
1111111111100111
1111111010100010
1111110011000101
1111110011000110
1111111101111001
1111111001011110
1111111011100110
1111111100000101
1111110110000101
1111111000100100
1111110111111110
10111100
111100010
1111111101110001
1111111100101101
1111111110101000
1111111010111110
1011010
10011110
11001111
111011000
1111111100110010
10001100
1100000
1010010101
1101001100
10100101010
11001111000
1011111010
1010011000
1111111100110011
1111111111011111
1111111011100110
1111111110101000
1111111011011101
1111110011011101
1111110111010001
1111110110111110
1111110100001010
1111111010110001
1111111000001001
1111111110100000
11111111
1100100111
1111111011011111
1011110
1111111101101000
1111111110101011
1111111100101011
1111111111110110
1111111111111111
100110100
110001110
1110011
1101010011
10110010100
10000001000
10111001010
11000101001
10100101000
1101101011
101010100
1001010000
101101001
1100100
1111110101110110
1111111010111101
1111111001110110
1111111101100110
1111111110101011
1001111001
10010100
1111111110100100
1111111110111101
1111111010111110
1111111110111110
1011001
1111111100110011
1111111101000110
1010000
1111111100100000
1111111110110011
101110111
11000110
1001111100
10100100011
11111000111
11111001000
11010110110
101010110
1000001101
1101000000
11001000101
10011000000
10001101010
10011011011
1110000001
101110110
11111110
1001100111
101001011
110101111
110001010
11110100
10111111
10000
100111
1110010
1111111110011011
101110
1000110001
111111110
110110000
101000000
1001011001
1111111010
1010100011
1111111100000101
100110
1011000111
10101011101
1110011101
1100110001
10001010011
1100001011
1011110100
100100100
1011110110
1101100000
111110111
1111111101001110
1111111011101010
11000100
1111111110110010
