10011100
1111111100100001
1010001
1111111111010110
11110101
1111111111110001
1000
11000010
1111111111101101
1111111101111101
110111
1111111100000011
1111111100101110
1111111010001100
1111111010100011
1111111101111100
1111111111111110
0
11001110
1111111100010100
1011001
1001010
1111111110000010
1111111011010010
10101111
1111111111110000
1111111110010011
1111111010111011
1111111011110101
1111111101011110
1110010
100111101
1111111101101110
11110101
1111110101101111
1111111010010010
1111111001001010
1111110111011100
1111110011000010
1111111001011111
1111110000101101
1111110011110001
1111111001011110
1111110100100100
1111110100001100
1111110110010101
1111110111110001
1111111001110001
1111111010100100
1111111001001110
1111111000011001
1111111010110010
111001
1010000
1111111110101000
1111111010110101
1111111011010000
1101101
10011111
1111111010101110
1111110111001110
1111111111001101
1111111000010001
1111101110011100
1111110001011011
1111101001001111
1111101000011010
1111100110001101
1111101101010100
1111101001110101
1111100111110101
1111110011010010
1111111011011100
1111111101100011
1111111010011001
1111110011111010
1111110110011101
1111110011000011
1111110111010100
1111110001111000
1111111000111110
1111111001101001
10000101
1101010
1111111111110011
1111111111001000
111111011
1111110010110011
1111111101101000
1111111011111100
1111101110101101
1111101001001001
1111100110111100
1111100111101111
1111100010111101
1111100101110000
1111100001110111
1111011111010000
1111100000100110
1111101101001001
1111110100001111
1111111001011100
100001001
1111111101100101
1111110101101010
1111111100100110
1111111110001010
1111111001111000
1111111010000110
1111111010111010
1111111001100100
1111111110000000
111101
100000001
110011101
111110010
101101001
11001010
1111110101011100
1111101101000000
1111101110111001
1111101011101011
1111101101111110
1111101001001001
1111101101100111
1111110000010010
1111110010110011
1111111000010110
1111110111111010
1111110111010101
1000011010
1011000010
110100101
1000110101
1110110000
1000101110
1111111110100101
1111110110011000
1111111000101010
1111111101010101
10000111
100110111
111101010
1010101010
1111111101100011
1001010111
1111111110110110
11101001
1111111001011001
1111110111110101
1111101110010010
1111110101001111
1111111110101001
1111111000001001
1111110111010001
1111111101101110
1001101
1111111000111011
1111111001000100
1111111110011000
1111111100010000
1111111111001000
1000010011
100100110
101101000
1111110010011000
1111110101001010
1111110110100001
1111111110010101
100101001
1111111011111111
111101111
100000011
111111010
1111111101110100
1111111111011101
1000010
111100111
101101000
1011111001
101001111
110111010
11001000
1111111011100111
1111111111011011
1111111111001000
100110110
1111111101101101
101001000
111010001
1111111110010110
1001101010
1111111001001111
1111110110111001
10001111
1111111000101011
10111110
10001111001
1111111001010010
1001101010
110000001
1111110111111100
1111111111110010
110101000
111101101
1101010
1001011000
110000011
111011110
111001000
10010010
1001111
1000001111
101100
1000000001
10100010
1010110001
100100100
110100001
1001010
1111111011011011
1111110010101111
100100
1111111011110000
1111110101111010
1111111111000100
1011101
1011111100
1001010101
1111111100000101
10010000
10100000
100100001
101000
1000001
1111111110101100
11110100
1000111110
1111111010111100
1111111101110100
1000100
101011100
1000101011
100101011
1011000
1001101101
111011001
1111111101000101
1111110011110111
1111111101101011
1111111110101000
1111111000001111
1011011110
11101001
1111111101010110
10000100010
1000110010
1111111111001001
111110101
110001011
1010111111
111000
1111111010011101
1111111010111011
1111111011110011
1111111101111000
1111111111111111
11111110
1010101
111000000
1011010000
1000111100
11000001
101010000
111101011
1111111101100111
1111101100101010
1111111000011100
1111110111011110
100010111
100001101
1000000
11000000
1001000111
101100001
1111111110111011
1111111100010001
11110110
110010010
1111110110000100
1111110001110100
1111111011010100
1111111110111101
1111111011000010
1111110111100101
1000110
1000100111
110001110
1011010000
1100101101
100101011
1011011100
110110010
1111101111011010
1111100011011100
1111110011000011
1111111000001110
110000000
101100101
110010
1000110111
1001010111
1111111101
1111111111100111
101000001
110110
1000001010
100010101
1001011
1111111101111100
1111111101111001
1111111011010101
11110110
1000111011
111011100
1000001100
100011111
111011000
1100111100
100001101
101100
1111101011110001
1111011110010110
1111101010000110
1111110011011100
1001001011
1111111110000011
1010100111
111110111
10001110001
1101000101
101000000
101011100
1011001110
10010101000
111000010
110110101
1111111111011010
1111111111011011
111111
100111100
110110100
1001011011
101010010
1100001
1000101011
10000111
1111111011110100
1111111111000000
1111110011101000
1111110010111101
1111110100010100
1111111010011110
11101010
100011000
1011000010
110110111
1010000011
1001110010
101100101
10010010001
1101011101
10001101001
1100001010
1111111110011011
1111111011110001
1111111010000010
101010111
111001011
1101011110
11000110
11010110
101011101
1111111100001011
1111111100010111
1111111100011010
1111111000000000
1111101111100001
1111110000100010
1111111001011010
1111111010010000
1111110101001011
1111111011111011
1010001110
1011101111
1101111010
111010010
1101010011
110101100
111011110
10000011101
1011101
1111111110000001
1111111000100111
11010010
101111010
10000001101
1001101011
1110100000
10000100101
1000101101
11110111
1111111111100011
1111111110100010
1111111011110111
1111101101011100
1111101111001001
1111110101010100
1111101100101110
1111111100000010
1111110110011000
110000011
10001001101
101100100
1010111
1111111110111011
1010000000
10100101
11101001
11100000
11101011
10010111
1000010101
1101111100
1101101011
10000010011
1000111111
1110011001
1110110
1111111101010101
1111111100010111
1111111111100001
1111111111101001
1111110110111110
1111100111101010
1111100110101101
110100111
1011110
1001101111
100011110
100101100
1111111001001001
1111110111001011
1111110111000011
1111111010010101
101110100
110010001
1000000101
10111011
1111111011011011
1010011111
10111010110
1101111000
10110010
1000100110
101000110
1111111110001101
1111111010111111
1111111111011011
1111111010111111
1111110100011100
1111110000111111
1111101011110111
1111100101010011
1111101101110000
1111111101101100
1111111101110010
1010110001
10110100
1111111101010100
1111110011001111
1111110011011111
1111110110111111
1111110011000100
1111111001101101
1111111000110110
1111101110100001
1111110101100001
1100110111
10100001010
1110001100
111000011
10010001
1111111001100110
1111111111000000
1111111100001100
1111111111100010
10101010
1111110111101110
1111110000110011
1111110010100110
1111101111000101
1111110110111001
1111110100010011
1101010001
1001000111
1001010001
1111111111111000
1111110000111100
1111101010011100
1111100100100001
1111101001100101
1111101110000110
1111101000010000
1111101001010011
1111101101011110
1111110011011011
1111111111001110
1111111100110101
1111110100111111
1111110101100011
1111110111010001
1111110001110011
1111110110101000
11100010
1111111100000011
1111110101000111
1111100011001100
1111100100100101
1111101001111011
100111001
1001101100
11000111
101000111
11110
101011101
1111110110101010
1111101110011111
1111101111010011
1111100111000111
1111101100010100
1111011111100010
1111011101001110
1111100110101000
1111100111111010
1111110110110011
1111111010110011
1111110010110001
1111111000010000
1111110001111010
1111110110011101
1111111100000110
1111111010100100
1111110111001111
1111100110111100
1111100110110111
1111011100110001
1111110011110101
1111111010110010
1000101111
1101111
1111111100101100
100001011
11110011
1111111000110000
1111110100110110
1111101111101001
1111101101101101
1111101101101000
1111100111001111
1111100011011001
1111100110100000
1111101110011100
1111110000111011
1111110010110000
1111111101000011
1111111101101111
1111111000100001
1111111011101010
1111111100101010
1111111100111111
1111110101000010
1111110010100111
1111110010111111
1111101000101010
1111110000110011
1111111001101010
101100100
100101
1111111111110111
1101110110
1111111011110001
1111111010101101
100100011
1111111101000010
1111111110100111
1111111000011100
1111110011100101
1111111001010011
1111111000000010
1111111010100111
1111110101110110
1111110111010100
1111111110100110
111010
1111110011110111
1111110111100001
100110011
1111111101101100
1100100
1111110111110000
1111101110111011
1111110000100010
1111111000111101
1111110110011111
1111111010111100
1111111111000000
1111111101100101
1100011
1111111111001100
1100000
10001110100
1001010111
110011111
10110110
1111111001011101
1111111011100000
1111111000011110
1111111100001101
1111110011100000
1111111001101101
1111111001010011
1111111001100110
1011101
10110101
1010101000
101101100
1000000101
1111111011011100
1111110010101000
1111110100010010
1111111110111100
1111111101100111
1111111111011100
1111111111010001
10011010
1111111110001100
100111011
1011010110
1100110001
1001001001
1001011110
1101
1111111100011110
1111111111010101
1111111111001010
1111111001101010
1111111010110101
11010010
110110100
110011100
1010011111
1001011010
1101010100
1100110111
111010011
10111001
1111110101111101
1111111110010111
1111111100001100
101100110
1111111111110110
101010
1111111111000101
1011001010
1011010000
10001011101
1111010001
10101110000
1001111010
11010110
1111111110100111
1000110101
100010101
101110110
110100011
1101011100
1110111011
101011111
1011101011
1111100111
10000100101
1100101010
10011011010
1011001100
101100110
1111110110100110
1111111001010011
1111111010000011
100101001
100001100
100000101
1111110110101101
1101010
1111011101
10111000101
11100010111
11101001010
100001111011
11010011111
10110001110
1111111110
11100110010
100000110001
100000101010
10110110000
10101111000
10101011000
10001110011
1000000101
1110011011
10100111011
100000001
1111111111101010
1111111000001011
1111111011010010
1111111100010000
10100010
10100010
1111111100100001
100101000
10011111
1111111111100000
10000010
1101000011
10111100111
11010110011
11000000010
10101100101
101110000
100001101
1001011101
1111110001
10001010100
1010111111
10100111110
1100011110
100100011
101000100
1001110101
101100000
100111101
11111001
1111111110110111
1111111011110111
1110111
1111111111010000
10110110
1111111110110011
1111111110011010
11100000
1011011000
100010001
1111111111011100
110100001
10011010
110111111
1111111100010000
1111111110010110
111101010
10000001
1000000010
1110010
100010101
10010001
10111110
101100101
1100101100
110101001
1011000101
1111111101001000
1111111100011000
1111111111001001
1111111111010110
