1111111011100000
100111
1000010
1111111110011010
1111111100001001
10001111
1111111111111101
100001110
1011010
1111111111100001
101001010
1111111111010000
1111111100010101
11001110
10011000
1111111111001001
1101000
1111111110011001
100001110
1110110
1111111100010011
11010101
1111111110010110
10100001
1011111
11011111
1111110
11100100
11100
1111111110100011
11011001
1111111100101001
1111111100011110
101
1111111100001010
1111110011101010
1111111011010100
1111111011000001
1111110011100010
1111111010000010
1111110101110111
1111110101000110
110111111
1111111111010110
111
1111111100110100
1111111000100110
1111111010101011
1111111100000100
1111111000000101
1111111100101111
1111110100101100
1111111011000101
100000010
1111111101000100
1111111011101000
1111111101110111
1111111101010100
1111111111000010
1111111101000101
1111111001010000
1111111011000110
1111110000110001
1111110100100111
1111110011000000
1111110111101100
1111111011000101
1111110100010110
1111111100010101
1111111110000100
101100011
11110010
1000010001
1111111100010110
1111111010001010
1111110001100101
1111110100110110
1111101110000001
1111110000011110
1111111101000000
111110001
101000100
10000011
1111111011100010
1111111101000000
1111111010111011
1111111
1101000
1111110110110010
10101110
1111111111000011
10100000
1111111010101001
1111111101001111
1111111101001011
1111111110001110
100010110
110011000
1111111101011101
1111111110111100
1000010001
1111111101110010
10010100
1111111011101000
1111111010000010
1111110101010011
1111101110100111
1111110010010000
110101
1111111110110111
1111110101001001
10101
11111001
100001010
1110011110
100000101
11111000
111000010
1101001
1111111111111111
110011011
101110011
1111111110000100
1111111110110011
110110111
1001100101
100001000
1000001110
1001011100
1011001
1100101
101001101
1111111110010011
1111111000101110
1111110000001111
1111100101111001
1111110101101101
1111111010100100
100000000
1111111110011010
10011001
1111111110101100
1011001111
1100100011
100010000
1011101000
1010001101
1001111100
10111101
1111111010110011
1111111000100001
1111111100010010
1111111110100000
1111110111010110
10100110
10100110
10000101
1110111
11111111
11001010
10010111
1111111111010110
1111111000111101
1111110101100011
1111111010010100
11100000
1111111101010000
1111111100100011
1111111011000010
11101010
10000000
1011001010
10001010010
1100001010
1101010010
11100111
101000101
10000010
1111111101011100
1111110111101111
1111111000100000
1111111100101110
1111111001000101
1111111010110000
1000110
10010000
1111111100111101
111000101
1000000001
111111101
1111111000100000
1111110111111001
1111110101100001
1111111111111001
1111111011010001
11010010
1011000
10011000010
111000100
11010010010
11001010101
111010010
1001100001
111001001
110110
1111111110100001
100001100
1111111101000011
1111111110000001
11000111
1111111001001011
1111111001111000
1111111011011011
1111111100000101
110000011
1110000001
100000010
1001111010
11101
1111110101010110
1111110110110010
1111110111110011
11011110
1101111
1111111101000111
1010010000
110010110
10110100011
11000010110
1010111001
110101111
1010011110
100101001
101001000
1000101100
111111101
101100011
111111100
100001011
1111111010000100
1111111110101111
1111111
110001001
1000011000
110011011
101000101
1010011100
1111110110110110
1111110011010111
1111110111010001
111100111
100110111
110001111
111110001
1000101101
10011000101
10100111101
10001111101
1111011100
1010011010
1001001011
110101101
110011011
11011001
111110001
1111111111111011
110100
1010101
1111111110101000
10101100
1111111110111101
100011010
101011011
101010011
1111111110011000
1111110110110001
1111110011010001
1111111010010000
10000000000
101100101
101011010
100011011
1010010001
10010110110
1110010000
1110110100
1011111011
10010011100
1111001011
11100011
1101001
1111111110010111
1111110100001101
1111111101100001
1111111111111010
1111111100101111
1111111111000011
11011000
101011010
100110110
1000011001
100011011
11
1111110000011001
1111100110011101
1111111001000001
1000000011
1100111100
10111001
1001000100
111101001
1001000010
1100011000
110100111
111010111
1111101110
1111111110110000
101100111
1111111000000100
1111110011101001
1111110000011000
1111101101110101
1111111110001010
1111111111011100
1111111010000110
1111111000111011
1111111011111110
1010001
110011
1111111111000111
1111111011111111
1111110001000011
1111101101111111
1111111010111110
101000100
101000100
10101100
1100100110
11101
1111111100001110
1111111010000111
1111110111110000
1111101111011101
1111110110110001
1111111001110011
1111101011110100
1111100011110110
1111100001010011
1111101101011001
1111101111101100
111111110
1010000
1000010
1111111000001000
10111010
1110101
1111111100101010
1111111000011100
1111110110101101
1111110010011111
1111111111011101
1101111111
1011100100
10000010110
110011011
100011001
101100111
1111111111001000
1111100111011110
1111100001101000
1111011101111101
1111011110001100
1111100000101010
1111100000110111
1111100100101011
1111101010001110
1111101000100100
1111111000010100
10011000
100100100
110111
1111111110001100
1111111000110100
1111111010110011
1111111110101110
1111111011001000
1111111000010000
1111110101110010
101111111
10001100010
11110011110
1100010110
1111111000110110
100111100
1101000101
1111110010111110
1111100101001100
1111011001101101
1111010011100010
1111011000101010
1111011011100110
1111101000100010
1111101010011100
1111110101011101
1111111011110111
1011111001
10000011001
1000
1111111010001110
1111111000001010
1111111100000110
1111111101011001
1111111010010100
1111111001110011
1111111001010001
1111111001000111
100110010
1110000101
10111111001
111101011
10110
1111111100111010
1100100111
1111111101100111
1111101000110111
1111011011000001
1111100100001011
1111100000001110
1111101001110000
1111101111000111
1111110011110110
1111111011001100
1010010110
10100010010
10000101001
110010011
1111111001011111
1111110110010111
1111111011010111
11000101
1111111010111010
1111111011000010
1111111101101101
1111111101111011
10001101
1000110011
10110010110
1001000011
1100
1111111110111000
1001000001
110001
1111101010101100
1111101001101010
1111110100010101
1111110010000001
1111111011110110
1011111
1001110
1101110
1101101000
10010110011
1110010100
1001111000
100110100
1111111110001110
100111100
1111111111111001
1111111010100010
1111111011001110
1111111000101100
1111111111111000
1111111011101011
10100100
11001110111
1001101110
1111111100010011
101001010
111100100
1100110110
1111111111011101
1111110110111000
1111110100001101
1111110111001111
1111111100110011
1111111110101001
10011001
11010111
1001011101
10010010111
1100101011
111101111
1111111110101110
1111111001101100
1111111110000110
10101000
1111110110001100
11000
11
1111111111100111
110000100
1011010100
10100100111
1000101000
101110
1001011010
1110010101
11001101011
110001101
11000110
1111111000110001
1111111100000100
1011100
10111110
11011010
1111111111100011
1011100000
111001101
11100001
111111
1111111111100001
1100101
11010
1111111111111010
1111111001100011
1111111011111111
1111111011011000
1111111101000100
1111111110101000
1110101000
10001011000
1100100010
110101000
1111111110001101
1111111001000110
1010110010
10010001101
1000011
101000001
101110
1101111
1001011111
1111111100110101
1111110110011110
10110100
100101111
11100011
111000101
110010101
1101100
1111111011100100
1111111100001011
1111111000011110
1111111101100100
1111110101001111
1111111100010000
11101000
1110001111
1101010011
110100001
1001100
1111111010101001
1111111110111010
111100111
1001000110
101111111
1110100110
1100110011
1001001101
100110100
1111111110100011
111010
100010
1111111110110111
1111111001110111
110110
1111111111110010
101
11110101
11111010
11010111
1111111100111101
1111111010010110
1111111101110110
1111111111111010
100111000
1110111001
1111111111011001
1111111011111110
11101101
1110011100
1010111000
111100010
1000000100
10001111110
1100100100
11101011
1101000
1111111110001100
1111111011010100
1111111111010010
1111111101010110
1111111011100111
1111111110001001
1111111111110101
1111111011110100
11010000
11001000
1111111100101011
1111111010010010
1111111100011111
1111111101001111
1111111111111100
1011001
1111110111101100
1111111110011000
1111111011110000
11100100
1111101001
10001011
1111001010
1101111110
1011110101
1101101011
1100100011
11101011
1111111111111110
1111111011101100
1111110110111000
1111111111110000
1111111011010000
1111111100010101
1111111001100000
11000
101100111
11110001
1111111110111110
11010010
100001001
1111111010100101
1111111011110000
1111111101100111
1111111000010111
1111111111101111
1111111111111011
11001000
111000110
1111111100011111
1000010110
1110110
10000100011
1000000000
1111111100101010
10100
1111111010101010
101101
1111111100001010
1111111111111111
11100110
1000000011
111110000
1010000
101101011
110100111
10010000
101110
1111110101101110
1111110110110111
1111111010001110
10100111
10101001
100110
1111111100110100
100111011
10101100
1111111001001100
1111111101011010
1111111000101010
101111110
1111111011111000
10011001
1111111110101001
1111111110010011
100110100
1010111
1111111110101011
1111111
10110000
1111111101010011
1111111011011001
1111111010011100
10001001
1111110110111011
1111111010010010
1111110100100000
1111101111011000
11100101
100101101
111111100
11110011
1111111111001111
11110
1111111011000111
1111111010011010
1111110111100110
1111111101100010
1111111111111111
1010111
100111001
1111111110101110
1111111110110101
101001111
110101
1001010
1111111110011110
1111111000111000
1111111011101101
1111110111110001
1111110110000110
1111111001111010
1111110011110010
1111110010011010
1111101101000001
1111110100011001
1111110110001100
1111111100111001
11111000
111011
1111111111000010
1111111011001111
1110110
1111111101101000
1111110100000110
1111110110110010
1111111000011001
101110100
11010111
1111111111100100
1111111011110000
1111110101111101
1111101111011000
1111111001111000
1111110101101101
1111110111001101
1111110110000000
1111111001111111
1111111010110110
1111111001110010
1111111101100101
1111110110100001
1111111010011110
1111111100110110
1111111001111001
100100
1111111011110000
10001100
101001000
100010100
1111111100001100
10000
111010111
1100011110
111001110
1111111011110101
11110100
101110011
111110100
100011000
1111111011000111
1010111100
11111010
1100000101
111111001
101010111
1111111101001110
11101111
1111111001010010
1111111011011110
1111111001010000
11000000
1111111010111100
11001100
1111111011011010
111110
