1000
1110101
1111111111001110
1111111010111111
101000000
1111111100100001
10100000
1000010
1111111011111001
100011
10111111
1111111111011011
1111111100101000
1111111110100001
1111111011001000
11001
100111110
1110110
1111111110100101
1111111101001000
10110
1111111111010010
100101100
101000000
1111111111011010
1111100
1111111101101000
1111111111000100
1001100
1111111110110110
11100011
100100
100011000
1111111011011110
1010001
1111111000010011
1111000
1111111001111010
1111111101010001
1111111000101101
1111110101110111
1111111101010010
101001011
1000111110
1111111000010111
1111110100110000
1111111111011101
1111111001000100
1111110110111000
1111110011110110
1111110101000111
1111
111010
1101011
1111111011010101
1111111011100100
1111111100101110
1111111100011111
1111111010100001
1111111110011111
1111110100011110
1111111001000011
1111111010110100
1111111011110110
1111110110010011
1111111001110010
1111101101101001
1111110001000101
1111110101010110
100110011
1111111100110110
1000001
1000110110
110110000
111011
1111111010110111
1111111011001101
1111110101001111
1111110001010111
1111110011000100
1111110101010111
1111111011111000
10010100
110010
1111111101111110
1111111011010101
10110110
10001111
110111000
1111111001111101
1111110101110010
1111111000001010
1111111001010001
1111110101111001
1111101100010011
1111110000111111
1111111101000101
1111111000010010
1111110100111001
11111001
101100000
110101100
100111100
11000011
1111111110000100
1111111100100011
1111110110100000
1111101100001110
1111101100110001
1111111101110001
1011
100100100
10010011
1111111111111100
1000100
1001110000
1111111100001000
1111110110110111
1111110110011000
1111101101110110
1111100111101101
1111100101100111
1111100101000011
1111101111100101
1111110001011010
1111111001000101
1111111100111001
110010011
1111111111101111
1111111100011100
100111
1111111000000001
1111111000011000
1111111010001110
1111111000110000
1111110101010010
1111111010001011
1111111000000001
1111111110100101
1111110101001000
111101
1111111110011100
111110111
10000000
1111110110011101
1111110101110100
1111110001110100
1111101101110101
1111101010000111
1111100111001111
1111101001000010
1111101110011111
1111110110111111
1111110011110011
1111110000000100
1111110101010010
1111110001111010
1111101010110110
1111101100010111
1111101010010110
1111111011010001
1111110011001010
1111111001011010
1111111101000110
1111111100001111
1111110001011001
1111111000100111
1111110100111101
1111111010111010
1111110100110011
1010001101
101000010
1111111000000000
1111111000001010
1111101111111111
1111101101001110
1111101001111111
1111110001101000
1111110110101100
1111111110101001
1111111000110010
10101
1111111110101111
1111110111000010
1111111010101010
1111111001100100
101001101
110101
100010001
10101101
1
1111111100110101
10111011
10000010
101101
1111111100011110
10101110
1111111001111111
100110110
1100001101
1111110111101010
1111110000011010
1111110010111010
1111110101010001
1111110010111110
1111111010110100
1111111101000000
1111111101001101
101100100
1100101000
1001000000
1000011111
1100011101
10010110110
1110001101
1110110111
10000110110
100010001
1111111100011111
1111111100101011
1111111011110111
1111111110100001
1111111001011111
1111111101010101
1111110111001111
10010100
1111110111100111
10110110
1111110111001100
1111110001001101
1111111000100101
1111110110101011
1111111001010010
1111111100111010
1111111110000011
110100110
110000
1011011000
1111001011
10011001111
1110011111
1100110111
1110000110
10000011100
111001000
1010100111
111010001
110010110
110001111
110100100
1111111111111001
1111111111000010
111011001
1101011000
10000100
10000011
1111110010111100
1111111001000101
1111111110000010
1111111110001001
1111111111011011
1111111000110000
1111111100000011
1111111100000101
1001
111010111
1110000100
10000000100
110101010
1010011001
10000011000
1011111010
11101111
1110101
1100100111
110100000
10100100111
11001000010
10001010100
1001000000
1011011110
1000101000
100100101
1111111010110000
1111110011010110
1111111000101001
1111111011110011
1111111011001011
1111110101000101
1111111011110100
1111111111111010
1111111111110001
1111111010101010
1001010100
1101011110
10010010010
1111110100
111111000
1001101011
1001010011
111101001
1011010111
1100110000
1100101111
11010000110
100110000110
11011001110
1110110111
110110000
10100011
1011101100
1111111010011101
1111111111000011
1111111011100011
1111110100111101
1111111101101011
1111111111001100
1111111011111101
1111111100110100
1111111111011001
1111111100010101
1101010101
10011011111
10100001001
1100001110
1000101110
100010010
1001110101
101010010
1010110101
100010000
1100111011
1111100011
11110101110
10011011010
1110100011
11011100
11010100
101100111
1110100100
1010100100
1111111100011001
1111111110110010
1101101
1111111111110101
1111111101111100
1111111000111011
1111110010110011
1111101100000001
1111111001011110
10001011000
1001000000
10100010
11110111
1111110
1111111101011010
1111111111110111
1111110000111111
1111110001110011
1111101110010010
1111110000011010
100001011
1100101110
1100000000
101100101
1111111101001110
101110110
1111000000
1011010000
100011000
101100011
1001000011
1110000
1111111011011010
1111110100011101
1111101101100000
1111101101010010
1111111111100101
1001101111
11010001
1111111011011001
1111110111011010
1111110011010011
1111111100110010
1111111000011111
1111110001110010
1111101110101011
1111100011000111
1111101111011000
1111111010001101
1111111010100000
1111111100111101
1111111111101111
1001100
110011010
11000111
111110110
1001010010
1111111111111101
1111001
1111111111111001
111010
1111111001101111
1111101101010110
1111101100011110
1111110111111111
1111111101111101
1111110111011010
1111110110111101
1111110011100011
1111111101101000
1111111110110011
100001001
1111110100100010
1111101110000101
1111100111011101
1111101110111001
1111110010110100
1111101100101000
1111110111111011
1111111111011100
1111111111011001
1111110111000011
10110110
101
111101001
1000110011
110110100
10011
10011101
1111111101110100
1111101111101011
1111110000010111
1111110110111101
1111111011101110
1111110110101001
1111110110110011
101111
11001111
1111111110101011
11110111
1111111100110110
1111101111010101
1111101010000110
1111101110011111
1111100100010101
1111101010010100
1111110100111101
1111111110010101
1000011101
1001010
1111111100011101
1101111
101111011
1100010100
11011101
110100101
11100011
1111111111000101
1111110110000000
1111110011111011
1111111000011110
1111110011100011
1111110110000111
1111110011111101
1111111000100011
11010011
1111111100101001
1111111110000111
1111110111110100
1111101011001011
1111100101111000
1111100111110100
1111100000110101
1111110010101000
1111111000001011
1010001
1010010101
1111111001011000
100001100
1010110000
1110000100
1010101110
1000000100
11100011
110011011
1111111101001110
1111111000101011
1111110011110110
1111111110010011
1111111001101111
1111111010001011
11001
1111111101011110
111011
1111111111010011
10101111
1111110110111101
1111101001100010
1111101000110000
1111101001101111
1111110101010101
1001010
1111111100011110
111000110
1001010000
110111110
1000000
111100100
1000111011
100110111
100110110
11010110
101101001
111010100
1100110
1111111110000000
11010001
1
10010100
1111111100000100
110000011
1111111111101000
11111011
1000111
1111110011010111
1111101111000100
1111100100100110
1111101100010111
1111111110101101
1001010110
1111111101010010
1111111111011001
101010000
1110101000
10101100
11010001
100101000
101100110
11111101
101011100
1111111110110001
100100010
1111111010110100
1111111101101010
1001000011
1111111100110110
1111111110001010
1111111100000011
1111111110010101
10101111
1111111100011001
11011
1111110100100101
1111101001001101
1111101011011110
1111111111110011
11101100
1111111111000010
10010010
1111111101001110
1111111110011100
1000001110
1111111100100001
11000110
1011000001
1100100
1111110110010111
1111111001111100
1111111110011110
1111111001101100
1111111011011101
1011101
1101010
1111111111001111
1111110101101000
1111111010001001
1111111000101101
1111111100011111
1111111010100111
1111110001010010
1111110010011110
1111110101101111
1111111100010101
1111111111101100
1100011100
1111111011010101
101010100
1011110
1111111000000100
1111111101000001
1111111010011010
10001000
1111111110111101
10011110
1111111001111000
1111111010110011
1111111100001101
1111111110101001
1111111000101011
1111111101010000
1111111001011001
1111110101000001
1111111100010101
1111110011000000
1111110011001100
1111110010011010
1111110110000001
1111111110010111
1111111100000001
1111110010001000
1111111010100000
1011011000
1001011111
1111110111001001
1111111110110111
1111111110000100
1010010
1111110010010010
1111111101011010
1111111000011010
1111111110111010
1111111101101010
1111111001000010
1111110111100010
1111110110000011
1111110110100010
1111110010010001
1111110100011001
1111111001010001
1111110110110100
1111111001000110
1111110010100001
1111111000111111
1111101110111000
1111110110001110
1111111110000000
1111111111011110
1101000
1010110010
10011110010
111101011
1111111110111011
1111111111010111
1111111110010110
11001010
1111110111011011
1111111110101001
1111111111000010
111000000
1010101
1010101
1111111010011111
1111111010010001
110000010
1111111111001000
1111111010000111
1111110000110101
1111110001001110
1111111000001010
1111110110010111
1111110111000001
1111110100110110
1111110100101000
1111111100101111
1111111010010101
101001100
1111000011
1110001111
100001000
1010001111
1111111101011111
10101110
1111111111000100
101110101
11100010
10010001100
11000010101
1111000001
1000111111
1000100010
1101100
1111111101010111
1111111001100000
1111111100111001
1111111111100000
1111111011111111
1111111010101101
1111111001001110
1111111101011101
1111110110000000
1111111111110100
100100001
1111111110010111
111010010
10000101101
1001100000
1111111010010101
1111111010001000
1111111111111001
1111111011111000
11011110
1111111110001101
1001000111
1101011010
10101101101
1000101110
10000001110
11001001111
10010001101
1101101000
10000011100
10100110101
1001010010
10001000
111001010
1100110111
1001001011
10011000100
10001110010
10010111110
11010100100
10001110000
10010100100
10001010000
1111111111110100
1111111010001100
10000110
1111111011110010
100101011
1111111110000100
1111111101111001
11110011
1001111011
1001110001
1101100011
10000000111
11100100011
10100100100
10110000011
10000010000
11011000010
11111010000
10110110000
11011001010
11110110001
11001110101
11110011111
11011000000
11101001111
10110000101
1010010100
10111000
10010111
1100000
101110
1111111101101000
1111111110000010
1111111111001101
1111111101011010
1111010
1111010
100010000
1000100101
111000111
1110001100
1101101000
1001000010
1100111110
10101101111
10001101110
1001110001
1011001111
10011001100
1011100101
1000100001
1011110001
1110011010
1100000111
1000100010
1111111100011001
10000010
111101
10100101
