1111111011000111
1001011
100111
1111111100000001
1111111011000001
1111111111000010
101000000
1111111111000101
10001011
10011110
1111111111101001
1101011
101000111
1010010
1111111100101100
1010
1111111011101111
1111111100100000
1111111011110111
1111111010111010
1111111100000111
1111111101011111
11111
10001100
11010000
1111111111100001
1111111101100001
100010011
111
1111111111111011
10011
1111111011110100
1110001
100000
1001010
1111111111010100
110101
1111111001111001
1111111010110001
11111
1000000001
110000111
100100011
1110101111
10000110011
1110011010
1111111011011100
1100
1001001001
111010100
1001010100
10010
1111111111001111
0
1111111100111011
1111111110110101
1111111110110010
101101
11000000
1110000
1111111111100111
1111111110100011
1111111010111100
1111111111010010
1111111011110100
100001110
101001
1111111111110010
1111111110000111
1111111111111110
1111110111101001
1001010
1000101110
1010100000
11000000
1111111100010110
1111111010100100
1111111000010100
1111110100111011
1111111011011001
1101110
10100111
110010
110010
1111111100010001
1111111110110111
11110101
1100111
100110110
1111111101011010
1111111010000100
1111111100101110
1111111100100010
11011000
11001011
11101100
1010110100
1010111001
1111111111010100
111100101
1100100011
10000111110
1001111000
100001010
1001101110
110110101
1111111011110101
1111111001110010
1111110111111010
1111111001100101
1111111100011101
1111111011010100
1110100
1111111111100110
1101101
10000100
1111111010001101
1111111110011000
1001011
10000011
110000100
11000001
1011011001
1010000011
1101100
1111111101001100
110001010
10000110110
1111001011
1010000001
10011110010
110110001
10101101
1111010
1111111011111101
1111111101001010
1111111111001000
1000110001
1010011110
1111111110100111
100101
1111111101110101
1010111011
1010111101
1111111100011101
1111111000111110
1111111000000100
1111110101010110
1111110110100000
1111110101000101
1111111111010110
1111111110011100
1100
101111100
11101101
11101010
1000111000
1100101000
1100011001
10000111010
1011001101
1001100010
10000010
1111111110100011
100111100
110101001
1110000001
1111111110000011
1110
111101
1111110101101101
1111110100001000
1111111000011110
1111111000000100
1111110001101010
1111111011001001
1111111001101110
1101
1101100
1111111000001011
1111111100110010
10011010
1000101
110101001
110000000
111111
10001110
1111111111001011
1111111101101001
1111111001111001
111101
110100
1101011010
1011010011
1011011101
1010111011
1111111000111111
1111111111101101
1111110101111110
1111110001111111
1111111100101000
1111111100101110
1111111010110000
1111111011110000
10001001
1111111110111000
1111111011001100
1111111110100110
1111111110111011
10111101
101001111
1001101011
1001101110
1101001
1111111111110110
1111110111100000
1111111000101101
111110
1111111111101000
1111111110001010
1001110001
1010000111
11000101
111101
11011110
1111111010000100
1111110010001010
1111110110001011
1111111101010100
1111110010001000
1111110010000111
1111110010111011
1111110110100001
1111111011010100
1111111110110101
1111111000010000
1111111110101101
100001100
10011110
101011010
101010001
10000101
1111111100010100
10011000
1111111000000111
11111001
1111111101110111
1010100110
1110000001
111010001
100
110101000
1111111100100000
1111110101100011
1111111001110000
1111110011000110
1111110101001011
1111111011000111
1111111110100101
100001
1111111100101000
110100
110000
1111111110100111
10000000
1111111111111001
1110110011
1000010000
1001111
1111111110111011
1111111100110101
1111111001110011
1111111111011101
1111110110100001
11110111
1010000000
1101000111
1110011001
10000111011
110111
1111110101111110
1111110101011011
1111110101011000
1111111010100110
1111111011100110
1111111010110100
1111111101011101
1001
100111001
1111111110101111
10
1001110
1111111110111111
1101010010
11101111100
10010000001
1111111000110010
1111111010100101
1111110010111011
1111110110011001
1111111000101000
1111110111001100
1111111010000011
10011111010
11010101110
11010001001
10001111110
1101110
1111111010000101
1111110001010100
1111110101000111
1111110010001010
1111111001010100
10010001
1111101
1111111100010110
1111111101000101
1111101
1111110100111100
1111111011111011
1111111101011101
11100010001
100000011010
1000101010
1111110001001101
1111101111101011
1111111101011001
1111111110110011
1111110110100010
1111111010010101
1111110101101101
110010000
100010110010
11111011111
11010111111
100110010
1111110110111010
1111110000010110
1111101100110101
1111111111100110
1111111111011001
1001001
1111111011000101
1111111110111110
1111110111000010
1111111110111001
1111110111000100
1111111000001000
1110001
100011010101
100100011110
1111111101100111
1111101000111010
1111110101111001
1111111001110001
11011101
1111110010100100
1111110010011101
1111100101001111
1111110111111101
1110110011
10110011011
10011110111
1111111110000100
1111111101101111
1111110101100010
1111110011111110
1101010
1111111000110001
1111111000001011
1111110111010001
1111111011010100
110100
100001
1111110111010100
1111111110011111
10111100000
100111111111
10101010011
1111111011110100
1111101111010101
1111110011110100
1111111101110010
1111111111110000
1111101111101110
1111101101111001
1111100110010010
1111110000111101
11101101
110110100
1101100110
100110001
1100
1111110010110000
1111110001010100
10000
1111111000011101
1111111100000001
1111111011111010
1111111011000110
1111111110010101
1111110111010011
1111111111101101
110100110
10111111000
11111001010
10011000
1111111011100111
1111110110011000
1111110010010101
1111110111111111
1111101110100100
1111101010101110
1111101111011011
1111101011111110
1111111010011101
1001000100
10000001110
10101110110
1010100100
1111111110010010
1111110110011100
1111110001111001
1110011
1111111110000111
11010110
1111111111011001
1111110111000011
1111110010111011
1111110100001000
1110011
1000001110
10110011001
1110100011
10111110
11001
101011
1111110100010100
1111110100000001
1111110000100011
1111101001110100
1111101100101101
1111101111100111
10101011
10100010011
10011111111
1000100111
101101111
1111111100111100
1101101
1000010100
1001011111
10010101
101110110
1101000
1111101101111000
1111110001000001
1111111001101110
101101100
10110001001
10000001000
1101111001
1111111110111000
1111111001101010
1111111111101100
1111110110001101
1111111010100010
1111110001101011
1111110001000110
1111110110010101
1111111110011101
1101111110
1111000110
10001001110
10010111001
1100000001
1111111110010111
1111110111101001
1111111100101100
10000010011
10001000
111000110
1001111111
1111111111000101
1111110011101101
1111111000000000
11001001
1011101101
1001011010
1111111011001011
1111111100111010
1111111001001010
1111111001111000
1111111011011100
1111110011011100
1111111001111110
1111111100001110
1111111110011100
1111111111010011
100101111
111010100
1110000100
1000010010
10000001010
1111110110001011
1111111000001000
1111111010000001
1111001010
1111111111101110
1111111111111111
110000111
100001001
100010001
1111111110000010
11010101
100101111
11101100
1111111000010101
1111111011110101
1111111111101011
10010011
1111111101010011
1111111000000101
1111111110110000
1111111100011101
1111111010010111
1011100001
10101101100
1101001010
1111000100
100111100
110111101
1111111111100011
1111110110100010
1111111110111101
1010110010
1111111101001110
11101011
10000000
110010100
111110101
110010100
11010
1111111101000000
1100
110001100
1111111111110100
1111111110110011
101011011
1111111100110010
101011111
1111111111100000
110111001
1000000
11000000100
11100000100
1110110110
1111110010
110101111
1111111100100110
1100000
1111111010101001
110110
1101110001
1111011100
110011111
1001101101
11111010
100101111
1001001000
111000110
10110111
1111111101100110
111010111
10101011
101001011
11110001
1001011001
1101011101
100101101
10010110011
10101001111
11100001111
11011110111
1101000101
10011011001
101000
100101000
100010101
100000110
1101110110
10101011111
10100001100
1000010111
1110100110
1010001101
101101100
110101101
111101001
1100100
1111111110101110
11011101
101111011
101100010
110010000
1001100000
1100110000
1000111101
1001010100
1010011110
10000110010
10100101001
100001111
10000110001
10111101
10010
100100111
11001110
1000111000
10000010011
10001110011
111110111
100011011
1100100
11100
100100
1111111111111000
100110000
1010001001
100100100
111011110
110000001
1000111001
1011000011
111110110
1010101000
1011010110
1011111100
10110001101
11000001000
111101000
111110011
101100110
1111111101111001
1111111011100100
1111111101100110
110101001
1110010101
1000111
1111111011000011
1111111001101001
1111110111101000
1111111110101100
110010
100010011
1111111110101000
111101010
1011010011
101000100
101001100
1001010111
111111111
1110110101
1001101100
10000110101
1011111101
10001001111
10000111100
1001011101
111110011
1001100111
1111111111001100
1111111011111101
1111111111101110
1111111101100001
10011111
1111110011010101
1111110000000111
1111110001000000
1111110101011111
1111111101101111
1111111011000110
10100101
1111111101010101
101011110
1000010010
1100110011
1011000010
111101011
10000001110
1100100000
1110010011
101110
11101101
1110001
1001111001
1011100011
1000011111
10110110
11000
1111111100011100
1111111101101000
1101011101
1111110101111110
1111110001111011
1111101111010100
1111111000001101
1111111111000101
1111111101001110
1111111110100010
1111111100110000
1111111000101111
1111111111100100
101000101
10101100
111001011
1001011111
1000110000
101011111
1010001010
101100010
1111111111010000
101000100
1010110111
1100111011
101011111
1111111111011001
1111111110111100
1110111
1100101
1001001
1110011
100101111
11101
1111111001111110
10010110
10111110
1111111111100110
11000010
1101011001
1001101010
10100111
101110000
111100
1111111100001001
1111111010111110
1111111100100000
1111110100110001
11101010
10100
1111110101100110
1111111010101011
1001
1010001
1111111111011110
1111111111001001
101000101
1111111111111100
1111111100110010
1111111111011010
1111111010000011
1111111011001010
1111111011111001
10000000
1111111111110011
1111111011011011
1111111011011110
11111011
1111111110111000
1111110010010110
1111111101100001
11000011
1111110111110110
1111110001110011
1111111110000000
1111110111011111
1111111101100110
1111111000111101
1111111011010010
1111111011101011
10001101
1111111100011111
100110011
10011110
