1111111111010100
1111111011110111
101000100
101000100
1001010
1111111100100111
101000110
1111111011001101
1111111101010101
1111111100011001
100100110
1111111011010011
111101011
1111111111000010
10001110
1111111110001110
1111111011111011
1111111010110110
10110010
1111111011000010
100101100
1111111011001010
1111111110111011
1111111111010011
10110
1111111101100110
1111111101010010
10010
1111111111111001
10110101
1111111101001110
100000001
101100100
1111111111101111
1001001100
1000110100
111001001
1011100010
1010101001
1011010
1010000111
11111100
101110000
1110001101
100100111
100110001
1010001111
111000010
1000101000
1001110001
1000000101
1000110101
101010
10100000
101001000
10101010
1111111100101011
1111111111011110
1111111111010000
1111111111101100
1000100101
10111011
100100111
1110001110
10010001101
10100001001
10110111111
11011000000
10011111000
10001110010
10000000000
10111011100
10000000100
10000100111
10001000011
10100011010
1111000111
1001101110
1000000010
11110111
1011110100
1101011
1110010
11010101
11001
1111111111111001
1001111001
1001101101
110010000
1100001110
10000000011
1100001000
10010010010
10110000110
1100010111
10000010110
1111101111
1011001001
1001111000
110110000
11100000
1000101100
1100001110
1111010010
1010000011
1111111100111100
1111110111100100
1111111011000011
1111111111000011
1111110111101010
100110101
101000011
1111111111011110
100000101
1001111001
1100100100
1011111110
1110110001
10000110011
101110001
10010010
1111111010000010
1111111011111111
1111111000101110
1111111000001100
1111110111011010
1111111011111010
1111110110110100
1111110101110100
1111110011100010
1011101
1111111100011010
1111110100001101
1111110111000100
1111111000110111
1111111001011001
1111111111111001
1111111100110111
10111
1111111001110010
11100101
1111111110010011
10001110
1010100100
1111111011
10110010101
1011011001
11001001
111011010
101011110
1111111111100110
10010
1111111000011111
1111111001010101
1111110101101001
1111111001100111
1111110110010101
1111110001100011
1111111101011110
1111110011110001
1111110100100001
1111110011101111
1111110010100111
1111110101010100
1111110110111011
1111111010110011
1111111110110001
1111111111110110
10011111
100000000
1000001101
10001101100
1010101110
111001
110111111
1010011111
1000010100
1011100101
101010001
110100111
1000100001
1011000001
110111110
100100
101001111
1111111111100110
10110010
1111111100101100
1111110100011100
1111110111010011
1111101110010000
1111101001101111
1111101010001110
1111110111000100
1111111010111111
10111111
1111111111000111
110010100
11111101
1011111010
1110001101
1111111011110101
1110100000
10001100
11000000
100110111
1100001110
1001010101
1101110010
10011011101
1001010110
11011111
1001101
1111111110001001
1111111001010111
1111111001010101
1111111100110001
1111111100010000
1111110100000110
1111100111010001
1111100101011001
1111110101001111
1111111010101001
1111111100010111
1111111010111010
111111000
100001101
1001011011
1001101101
110111111
110111010
10110110
1001101000
1000111000
1000011010
1100100001
1001000100
1001001011
1000010100
10100000
1111111110000010
1111111000010010
1111110111011100
1111110001001101
1111110101100111
1111111001100100
1111111010100000
1111110000100111
1111101010000101
1111101010010101
1111111010100011
1111111111110111
111000110
1001100101
10011
1011101010
1000010111
11100001
10101000
100110110
1011110101
1000011111
1000111010
101101100
10111
1111111111110111
110001001
101111001
1111111100100111
1111111101110110
1111111000100110
1111110001110010
1111110111000001
1111111010010001
1111111110100100
1111110101101000
1111110101000001
1111111010011000
1111111001000000
10111001
100010011
111110011
11001110
1010101011
110010010
1010011111
1011011010
1111111110111010
1000010101
1111111111001101
1111111100000111
100010110
1111111010010110
1111111111010111
1111111111100000
111110010
0
101101111
1111111110010111
1100000
1111111110110101
11100110
101000000
1111111000011110
1111110011100110
1000001001
111001010
10111000
1000111000
111001000
10000000010
11100010
111011011
111001001
10011100
1111111100011001
1101011
1111110111001111
1111111010001110
1111111001101000
1111110000111000
1111111101001010
1100101
111111101
1100010100
1100101011
1110110010
1100101
1011010001
101011011
101001001
100011100
1111110001110100
1110011
100001
10010101
10001100
1000000001
10000011001
10101110
10000011010
10110101
1111111111001101
1111111001000001
1111111001101000
1111111001110101
1111111001010111
1111110110111110
1111101110101000
1111110001000000
101000010
11010100
1010001101
1111000000
1111101010
110100011
110100100
1000010010
110111101
10110110
1111111000010100
1011001101
10000010110
101110010
1110101
100110110
1011000010
1010010111
1010100111
110100
1111111000111100
1111110111101110
1111110011001001
1111111000100010
1111111010000011
1111101100111110
1111101111000111
1111111011001101
101010001
1111111101000010
1111100
1110101
111010011
11100100
1010101000
110100010
10010001
1111111011100101
0
1000101
10111010
1111111101111000
1111111100100111
11111
100000000
1010111101
1001110000
1111110101111011
1111110111100001
1111110101100001
1111110111011101
1111111000011010
1111110011111000
1111110100110011
1111110001000110
1111111110000010
1111111010001010
11001011
10001
110100
1111111101100000
100110011
1101110100
1101101011
1100010111
1000001000
100100001
11110100
1101000110
100100001
1111111100000101
1010110
1111110101110100
1101100000
11111000
1111111100110001
1010100
1111110100001000
1111110001011111
1111110010001110
1111110110011010
1111111001100001
1111111000000011
1111110001110010
1111111100101101
1111111000100011
1101011
11011101
10001100
111001110
10010111110
1011100111
1011100011
100100000
1000001000
100010011
1111111111000101
101011000
1111111110110110
1100010
11101001
1000111111
1101101001
1111111100011110
1111110111001110
1111110111111011
1111101111101000
1111101111111100
1111111000010101
1111110111110000
1111110111111101
1111111011001011
1111111100110000
1111110111100001
1111111110001000
1111111110100100
100000111
1100010011
1010011101
10001100011
1110000100
1001011001
111001100
1010000000
1110111100
1111111111110001
1111111101101001
1001110101
1111111111010101
10011011101
1010001101
1111111100011010
1111110111001010
1111111010100100
1111110101000111
1111101000101101
1111101010100011
1111101111000011
1111101111010110
1111110110101000
1111111100111000
1011
1111110111110111
1111111101111100
1010110011
10000000010
100111101
1010111111
101110100
100110000
11001101
10101011100
10111101100
1111110111110011
11111111
111010100
110101111
10110001111
1000011010
100001111
1111110110100011
1111110001100101
1111101111110110
1111101010101011
1111100101100101
1111101001010110
1111101011101001
1111110111011001
1111111101111110
110110101
110001001
11001000
1000001010
110111000
1001001000
1101110111
111101010
1111111100011011
10100110
11101101100
10000011101
10000101001
101000110
100110111
101101101
10001111111
100010001
11000011
1111111010100011
1111111100100010
1111110111110110
1111111010001001
1111101100111100
1111101111000010
1111111001110000
1111111000000100
1111111010111110
1011001
101111010
110111110
11110010
1001011101
1111111111000010
111100010
1111111010011001
1111111100011111
1111111110110101
11001101110
110011001
1011100110
11000110
10010
10010111
1110001101
111100111
10010101
1111111111110001
1111111111100010
110111001
1010010
1111111010100000
1111111110101110
1111110011000111
1111111101010111
100100011
1111111111100001
10111011
10001000
1111111111100100
110101001
1100010
1111110101011111
1111111000001010
10000011
1101011111
10101001110
1101010011
101111011
11100111
1111111010100100
11100101
111001001
1000010
1100011
1111111011111100
10101
1111111111110111
11010101
1010100111
10001111
100010011
1111111010011110
1111111000111010
1111111100111011
11101001
1111110111101100
100101
10100110
1111111001001101
1111111101000001
1111111011011100
1111111110100100
1111010011
1111101001
1111111110010110
1111111110000011
1111111111100011
1111111111011100
11011100
1000101000
11101010
1111110
1111110110110100
1111111011001011
110110000
110000010
1011101100
1111111111001100
10000000
1111111000101011
1111111100110011
1111111000010110
1111110110110000
1111111011100110
1111111011101011
1111110100100111
1111111000000000
1111111000111011
1111110100110101
1111111110110111
1000111001
10100011
1111111101101001
1110110
1111111100011011
100001100
1111111110100100
1001010111
10000101010
1111110100
1100110101
1001001011
101100110
1100001
110000111
1101
1111111101111101
1111111001000011
1111111000110001
1111110011100001
1111111001000110
1111111001000100
1111110111110101
1111110001000000
1111111000110110
1111110101101110
11000001
1001100100
1100100111
110101001
1101010
100100001
1111111100011110
11010011
100001
1010110100
11011101101
11111010101
11011011100
10111010111
111001110
111101001
100100000
1111111101100111
1111111000100111
1111111000110100
1111110100100101
1111111110100101
1111110110111110
1111110111111101
1111110110010100
1111111010010110
1111111100010000
111111101
10111110
1110100011
1001011001
1111111010101100
110
100000100
1111111110101101
10101010
110000000
101001000
10111100010
10110101000
10001100010
11100101111
10111101101
10101010111
100110010
100011101
1011010101
111000111
1001001101
10000010
110001100
11011
111000111
1000100000
1100000010
10100001011
1001111111
110100010
110110011
1100110
1111111011111001
101000100
1111111110110100
111010
1010100
100011100
110100111
100100100
1001001100
10100110010
10110000001
11100011110
10111000101
1010100111
1101010001
11010100001
100110101000
11011101101
11100111101
11001101011
11001100111
11100000011
11101111100
10100110011
10100100011
1100001100
111010000
1110
1110101
10101010
1111111111100010
1111111011111010
10000001
11101010
110
101111110
1010110011
100001011
1010010111
1111101111
1110000110
1001100100
1010010111
1101110000
10101101011
1111111000
1111110010
10011000100
1110010100
1001000010
111010001
1111011000
1001101110
101100000
100000010
10011000
1111111010111101
1111111111110111
