110111
1111111110011011
1110
1101100
1111111100110110
10011011
101000100
1111111111001001
11111111
10010011
1111111111111000
10001000
1111111101001101
10100110
1111111011011111
1111111011100001
1111111101001000
100010101
1111111100011010
1100
1111111101111011
1111111111010110
1111111111000110
1111111010111000
1111111100101010
111010
1111111101000111
1111111111101100
11101001
101001
100101101
1111111011110110
100101000
11010100
1011100101
1010101011
110010011
101111000
110010110
1111111110110001
1111111010010011
10010
1001011010
100101111
1111111011100110
1111111010000110
111111
11001101
110111011
111000
1011000101
111110111
1111111111011101
1110000
1111111100110001
100000000
11100110
1101011
11100011
1111111111010001
1111111010101101
111100010
1111110100
1100101000
100000001
101110011
1001011011
1111111111110101
11001110
110000111
10001011100
10000100010
100110101
100111000
10001011
1111111101011011
1101111
110000011
1111111111100101
1111111100010111
101001001
11100
1111111101111011
11011011
10011011
1000101
1001100011
1100001
1111111111000110
11100010
10000111001
100110111
1111110100110001
1111111110001111
1111101110001011
1111101010000001
1111100100010011
1111101001110111
1111101101001110
1111110100100110
1111110101111001
1111111001101000
1111110100000011
1111111101110000
1111111000001110
1111101111111000
1111110001110110
1111111010001100
100111101
1111111101000000
1111111111111000
101000
1111111011111111
10100111
1100010111
11000000
1111111111011111
1111111100011001
1111111101101110
1111111001000001
100110011
100001101
1111111000110000
1111110000101000
1111101110011101
1111110010110101
1111101101110111
1111110000111110
1111111001000001
1111111111000010
1111111110000100
110001110
10101100
1111111100100100
1111110110011011
1111110101111010
1111111000101011
1111111010000101
1001110010
1001011001
100100
100110011
110100010
1111110011000110
1111111111010101
100010110
1001111101
1111011000
1011101000
1111111111110111
1111111000111110
1111110110010100
111111
1111111101010100
1111110111010011
1111111001010001
110101
1111111011010110
1111111010101101
1111111000100010
1111111010001111
1111111110101111
1111110111001110
1111111101101001
1111111100100110
1111111100100011
101100101
1100011
1111111100011000
1111110111111001
1111010
100111100
101001001
1000001001
10001111011
1101101100
1101011110
10001011
1001011110
10100101
100010100
0
1111111001010010
11001011
1111111100010100
100000100
111110
1011001
101111
1111111111001111
1100000
1111111111000110
1111110111011001
10001100
1111111111011100
1000011110
1111111101111101
100001110
101011100
1000110000
111011001
1001011000
1011011101
1101011000
1000101000
1010000110
100011010
100100011
1111111100100001
1111111101011011
1111111011111000
1111111110010010
1111111011100010
1111111111110000
1100011101
11000011
1001100011
100001000
10010111
1111111110110011
1111111101011010
1111110010100010
1111111011110011
11011101
1111110101011010
1011100100
100101011
1011010011
10001010101
1100100000
1100111101
1111110010
1101011011
1011101
1111111101110111
0
1111010
1111111100001000
100011
1111111100010110
1111111011011010
1111111101110111
10010
1100
1110111
1111111101001111
11100000
101000110
1111110100010100
1111110010111100
110101001
1111111101110111
1011001111
1000111100
101100100
1001110010
1010001011
1000110000
111000111
1011100
11000000
10001100
1111110101011001
1111111000000011
1111111110011100
111001
110000011
1111111100001111
1111111000100110
1000000
1111111100111111
110101
11000011
1111111101111111
1011001
1111111110001001
1111111001000101
1111111001101111
101110101
1000100010
1010000000
1010011000
1101101101
1001010
1010010100
1000000100
100100010
101110011
1111111101011111
1111111101110100
10111000
1111111110100100
1111111110101101
110000111
1010110011
1111111111100010
10100011
1111111011100111
1111111100010011
1001000
1111111010011111
1111111110010111
1111111101010010
1111110110011111
1111110110010011
1111110010010110
1111111101111100
1010010000
10100001
100010100
1100110000
110111010
1001110001
1100101001
1111111111011100
1000011010
10011011
101010001
1111111111001010
1111111111000011
1111110111101010
1111111101100011
110101
1000000100
100110011
11100
1111111100011101
1111111000101001
10110
10011101
111001010
1100100
1111110101011011
1111101010111111
1111111010001000
10111100
1111111111011000
1110110110
1101011000
111110010
1001101010
1110001111
100011011
1101000001
1011011110
111111010
1111111010110111
1111111001101110
1111101101101001
1111101110101010
1111111011010011
10001101
11111101
1111111010111110
1110011
1111111100100100
1111111010011110
1101010
110100010
1111111100010101
1111111101011111
1110101
1111110111010110
101001100
1111111110101110
111011100
1111010111
1001011111
1001010000
1001011011
10101011
111001110
1111111110100011
1111111100001011
1111111001111111
1111110011001100
1111100001000110
1111100001110010
1111111100000001
100100
10110101
1111111011110000
1111111111101111
1111111000101010
11100
11011
1100
1000011111
1000110011
100001010
1111111100100000
1111111000100110
11100010
101111110
1101101110
1001001010
11100001
1001000010
11
1111111011010101
1111110111111101
1111111011001011
1111110110110001
1111101111000101
1111101101101101
1111110111110101
10101001
111000
100011101
111100
10011110
1011010100
111110
1111000
1010000111
10001101010
101010001
1000101
1111111111001000
11100
1111111111000000
1111111010111000
1011100100
1001100000
1111110111111011
1111111000101101
10111101
1111110001010100
1111110000101111
1111110000101001
1111101000110010
1111101011001101
1111110000010001
1111111110011100
1001011110
101110000
1111111011011010
100100000
111101110
110011110
11001100
10010110
101011011
110111011
1111111111011110
1111110001110001
1111111011100110
100000011
101011111
1111111111010000
110001001
100100110
1111111011110001
1111110010010111
1111110111111010
1111101100111000
1111101011000111
1111100100000010
1111011000011001
1111100011111011
1111111011101001
1010010001
1010110011
101110001
1111011
11101010
10110110
1111010
1111111101111000
1100011
1111111001101101
1111111000001011
1111110101010111
1111100111001111
1111111100100011
1101
1111111110111110
100110
10110100
1111110011010000
1111110100110101
1111101001010011
1111101000011011
1111011110011101
1111010111110111
1111011011011001
1111011101011111
1111111100111011
1011000001
1011001011
1110010001
1001100011
1111111100101001
1111111000011100
1111111100100101
1111110101101101
1111111101110011
1111111011011110
1111110111111100
1111111110010111
100
1111111100110011
101111010
1111111010110011
11001011
101101110
111001011
1111110111000011
1111101001110001
1111100100101101
1111010101111001
1111011110011001
1111010101000111
1111100111000101
1111110111001100
111111011
10111001011
1011111010
101111010
1111111110001111
1111111010000000
1111111011011010
1111111100111001
1111110111000100
1111110100011100
1111110000110001
1111101111010001
1111101011000010
1111110110100001
1111111100110010
1100110101
110100011
110000101
1100001101
1001111001
1111101111011000
1111101000101000
1111011011100000
1111011010001101
1111011100101110
1111101001000001
1111111000001111
1001111111
1111101011
10111000100
10010111000
1010011100
1111111100011110
1111110111001000
1111111010000101
1111110111110010
1111110010000100
1111110101101011
1111101001111011
1111101100100000
1111101111001011
1111110110000101
1111110101111001
100010101
1111010
101001001
1111111001111000
1111110110101010
1111110011001100
1111100110011011
1111011001011011
1111100000110101
1111101001000100
1111110110110101
1111111011111111
1010110100
1110101101
10110100101
1000101100
110101001
110000010
1111111110111001
1111111000111100
1111110101001111
1111111011000110
1111101001111011
1111100011010011
1111101000000000
1111101000000101
1111110110111100
1111110001111000
1011100
11100010
10111011
1010100
1111110000101000
1111101110011000
1111101000110010
1111101101000111
1111101011110001
1111101110110100
1111111000100100
1111111100011100
1111111111010100
110101111
111100010
1111111111001010
101101100
111100001
10110000
1010011
1111111011000100
1111110111110101
1111111001011000
1111110100001100
1111100111000001
1111110001100010
1111110100010111
100110011
1111110110011100
1111111100001010
10001111
10000011
1111110101111011
1111101110100010
1111110100110111
1111111100000011
1111111001111011
1111111111110001
1111111011010010
1111111001011001
1111111000111000
1111111101000111
111
101010010
1001111100
101000110
110111001
11001111
1111111101000011
1111111000000000
1111110000110110
1111110011111100
1111101001100111
1111101100111001
1111111100000111
1011100
1101111
101110
1111111011010111
10000011
1111110100101001
1111101111001101
1111111101000101
1000001
11101001
10101000
1111110111001011
1111111001111000
1111110010110110
1111110111110110
10011100
100110011
1011101001
10001010000
111011011
100011111
111
1110110
1111110000000100
1111101101010101
1111101110101010
1111110110100011
1111111100111101
101110100
1000101011
1111111100010011
11100000
1111111110101111
1111101
1111110101101101
1111111101011101
11101010
100000101
1111111100110011
1111110010101010
1111111000001111
1111111101001011
110010
10010010
11010111
1001110000
111011
111110
1111111100111010
10101000
1100110
100101111
1111111110000100
1111111001101001
1111101111111100
10010100
11000111
110110110
11010
1111111100101000
11001000
1111110001010110
111001110
101111000
1111111101100111
1111111110111110
1111111010000000
1111111011001010
1111111011001101
1111110100011010
1111111011010001
1111111111100110
1111111001100000
1111111100110110
111010
1111111000100100
1111111111100111
111100110
11100000
1111111011011011
1111110111101111
1111111001010101
1111101110111010
1111110101101011
1111110111001010
111001
1111111110101110
1111111101110001
1100010
10110001
1111111001001001
1111101110011010
1111110110110001
1111110111111011
1111111010101000
1000101
1111111110011110
1111111000010110
1111111010001000
1111110111101111
1111111010001001
1111111000010110
1111111001111101
1111111000010011
1111111111111100
1000100111
110100011
110110101
1111111111001101
100011
1111111100111011
1111110111010010
100010010
1111111110011101
100001100
1000
1100001
1111111110000110
1110011
110010000
1100010001
1000100
1111111011011100
10001011
101111110
111011101
1111111110000010
111101
10100000010
100001
10001010
1011101010
10100011001
11110110
1011101010
1001000101
100111101
1111111010111110
111101100
1111111111101111
10100100
10110101
10011111
