11110
1111111100101110
1111111110101111
10100101
1111111101111010
1111111011001001
1111111011001100
101001001
1111111101101011
1111111010111110
1111111111110100
11001
1111111011110111
101100010
1110010
1111111101001101
11110000
111000
1111111100000100
1111111011101100
100110011
11011000
1111111011010001
10010101
1111111101000010
1111111111000001
1111111111100110
11001101
1111111101000011
100000011
100110101
1111111101100101
110110
100000100
110000101
1011011010
1001011111
1000100011
110110011
101001001
1101111111
1100000000
1001101001
1110111011
1111000011
10110001100
10001100110
1101010011
11111111
111100100
100001100
11101110
100000001
1111111100100011
10101110
1111111111110101
0
1111111101110100
110100
1001100
111010100
110011111
1011011011
1011001101
1010101011
1011
111110001
11101101
1110111011
1010110110
10011101100
10011001000
11010101000
1111000110
1101101100
10100101000
1101000100
1111011
1101101100
1011010000
1111111111011111
1111110110111110
1110000
1000011
10000010
11000100
1010010000
110011011
100000011
1111111100110110
1111111110000000
1111111011110011
1111111001101001
1111111111110101
1111111111010101
101001010
1111001010
1111010001
10000101001
11001010001
11000101000
10011011011
1110001100
1100100000
10010110000
10011001011
1110010010
100110011
1000000100
101000
10111010
101011
11101010
11111111
1111111100100111
1100111
1000101011
1111000
10011111
1111111101101101
1111111010100110
10010
1111111101100011
11011000
1111111011100011
10100000
1111111111011111
1001110101
1011010
110011100
10110001
1111111010111010
10100
1001000001
1010110010
1101000101
11011011
111001
1111111011111111
1111111110100100
1011000
100011000
11001
1111111001101100
1111111100011111
1011100111
11001100
1000110
110000000
1111111110101011
1111111110111010
1111110111101001
1111111001100111
101110001
100111000
1010010
10000010
100010010
1111111011111100
1111111110010111
100100110
101101001
1001110111
10001001100
1111000101
11010110
100111
101001
11110101
11000110
1111100
101100000
1111111111110100
1010001010
1111111101100001
1111111110101010
0
1111111101000100
1111111010100001
1111111111111110
110000
1111111110010101
10111000
10110100
1111111011101000
1111111100111111
1111111010111001
1111111101001001
1111111101111100
1111111110110000
11010010
1001000011
1110000001
1110100011
10010011
1111111000100110
11010
1101001001
100110000
100110100
11010110
1111111011100110
10001100
1111111111010111
1111111011001011
1111111001010100
1111111110101111
1111111011011110
1111111101000110
10101100
11110011
1111111011110111
1111111011101010
1111111011101011
1111111110010110
1111111110000000
1111111111101111
1010100
1111111100000001
101111110
1100100001
1000110011
100000101
1001011
1111111101110011
111010000
110001011
110011110
1111111101101010
100
1111111000111111
1111111001110010
1111111001101011
1111111010110011
1111111010111011
111000
1010010111
1101001111
10011010100
1000100011
1111111000111101
1111110010110001
1111111001100111
1111110110110110
1111111110011111
1111111001001110
1111111100111011
10011001
1111011110
1001110100
10011011
1111111110001011
1001011100
110110110
10001110
1000111000
111100011
1101000
101110
1111111110001010
1111111101001011
1111111101100011
1100111
111100111
11001101111
100000000101
11110010001
1111111111000010
1111101001000011
1111110000000010
1111110000000100
1111110001011101
1111110011011111
1111111101010110
1111111001100001
1000010111
10001100011
1111111000
11111001
1110101000
10101101
1011000100
111001000
1011001001
11111100
1111111100000000
1111111000111100
1111111011010001
11011
101001011
1100101111
10011100111
100011110110
101100010010
10010001011
1111110000101010
1111100000001000
1111100101000011
1111110001011100
1111101101010011
1111111011110100
1111111011011110
1111111010011000
10100111
1010111000
10110000101
10110101111
101110000
11011110
110010100
10111110111
111110010
100100000
100010
1111111101111011
1111111111000010
1111111111010011
1001001110
10011001111
11000011001
11101111010
11001011101
1111111011000100
1111011110110111
1111100010001000
1111110011011110
1111111000110011
1111110000011101
1111101111000000
1111101011110000
1111101110110111
1111111110001110
1001001111
1010111100
1010000100
10000101
1111111101111010
1000001100
10000001101
11110100
11011000
110001
111111101
1011101111
11000001
1010010000
10101001111
10100111100
10001010100
1111111010101101
1111101100100110
1111100100011101
1111101001001100
1111110000101011
1111111000101011
1111101001101110
1111110001000100
1111100100010010
1111110011001110
1111111010001111
1111111001011010
1111111111111000
10100101
1000001000
1111111110110001
1000010100
10000011001
111001101
101101011
101110
1011001010
1011100010
1000110100
101101100
10010101011
111011010
11111000
1111101011100110
1111101011010000
1111101111011001
1111110010001111
1111110001000101
1111110100110011
1111101001000010
1111110010000010
1111110000100010
1111110110101100
11001011
111100111
1111111100000100
1111110110001111
1111111001001101
100110111
1110000010
10101001010
101101010
1111111111011110
111110010
10110111
110010011
11001110
1101101
1001000111
1111111001101001
1111110000011101
1111100101110110
1111101010001100
1111101110011110
1111110001110000
1111110100101010
1111110100110110
1111110110011000
1111111000011011
100000
1000000111
10110101100
10010001110
1111110101000010
1111101101001101
1111110110011101
100010101
110011000
10010010101
10110101
1111110100100111
101010
1111111111000010
110000100
100000110
1100001
10011101
1111110101001101
1111101111000010
1111101011000001
1111110000111010
1111110111101000
1111110101110001
1111110101101011
1111110110101111
1111110101001101
1111111111011100
1001111
1001101111
10000010010
1111010100
1111111011110000
1111100111000111
1111111010111001
10011011
10010001
11001001
1111111101011100
1111110101110100
1111110101100010
1111111000000111
1111110111111100
1111111000000101
1111111110000000
1111111001111100
1111110010111100
1111100101010000
1111100110101000
1111101110101011
1111111100101101
1111101110100010
1111110010001000
1111111010001010
1111111011000101
1111111110010000
1111111110010011
1111111111101110
1111111111000101
1111111110111110
1111110001101101
1111101011101011
1111110111111100
1111111011111000
1001111011
1111111101010001
1111111100010011
1111111000101101
1111110010011010
1111110010001000
1111110101001011
1111110001000011
1111111000111001
1111111011000110
1111110100011101
1111100010100111
1111011101010000
1111110010010000
1111111010101100
1111110110000011
1111111011000111
1111111101101100
101001000
1111111110011111
111000
111010101
101000000
1111111110000101
1111110101101110
1111110000011110
1111111010111001
1011011100
1111011
100010100
1111111011110110
1111110111001000
1111110111110000
1111110001011011
1111110110101110
1111110111011011
1111110101101011
1111110010011100
1111101001000001
1111011001111100
1111100000101100
1111110110110001
1111111011001100
1111111101101101
101100
1001
1111111110111101
1000100001
1101011110
111001000
1111111000111100
1111111000111101
1111111001100000
1111110110100010
1111111011011101
1111111101111111
110110000
1001000000
10000
1111111100010100
1111111001111000
1111111110001110
1111110110101001
1111111101111110
1111111001010100
1111110100110001
1111110011100011
1111101100110110
1111110100011011
1111111010000010
11011010
100000010
111011000
10101011
1010100011
111011011
10000001
101110101
1111111100100011
111011
1111111001001001
1111111001011000
1111111101010100
1111111101010001
1011110
11100101
1111111001101101
1111111100011100
1111111000111100
1111111110000000
1111111111001001
1001001010
10100111
100010011
1000010000
1010101011
11000000
1100011010
10010111011
1001110011
10001101010
1000101011
1001101111
1001010011
1000111100
1010001111
10001100
110011
1111111000010101
1111111001111101
1111111101100100
101011101
1111111010110001
1111110111001010
1111111110111010
1001001
1111111100010001
1111111011110001
1111111010011100
1000001110
10100010
1000101111
10001000000
10000100001
1011101000
1011011111
1010010111
1100011110
1110000000
1011101011
1001001110
1110001111
1110000011
1010111010
111011110
1111111101110111
1111111100011000
1111111111101011
101101111
100001100
1111111011111011
1111101110100011
1111111110110010
1111111001111011
1010110
1111111011100111
1111111100100000
1111111110010100
1001001000
1001000
11000010
1000111111
10011101
100111110
1101000100
1010100100
10000111111
1110001101
10010010010
1011101111
11101001
1111111111011100
1111111111110110
1111110101010100
1111111111000101
1001001111
1111111110011010
1000001
11100010
1111111010110001
10010000
1000001
1111111110110101
1111110111001010
1111111001011110
1111110111101010
101100110
111110010
111100
10101110
1101101
110010111
1001111101
1011000011
10001000011
101101001
111010000
110101000
1000
1111111001100010
1111111011110011
1111110110101001
1111111110000001
100100100
100110001
10000110
1001111
1111111110110001
1111111110100110
1111111100011110
1111111101000010
100101
1111111110100101
1100000
1110011110
11110110
111111101
1111111111000000
1111111100010000
1001100
110100011
11111001
10001000110
110111010
1011111
1111111110111011
1111111111100010
110001101
1111111011111111
10100110
1111111010011010
1100101100
100110011
11110110
10001000
1111110111111001
1010000100
10011011
1111111110001110
1111111111101101
10001000
10100001110
1100101110
1111111111000000
1010001001
101110
10110
1111111011011101
1111111111101110
1011000011
1010001000
10010110110
10011000011
111010111
101110011
10011001101
1000101111
1011111101
10000
10000110
1111111111111110
1111111101101010
1111111011000010
1111111110001011
101011
1111111100010011
1111111001010111
1111111100001000
10
1001000011
110100110
1111111110110010
11000111
100000110
1111111111001000
10100101
1110010110
1001100100
101100000
111100100
10010001011
100010001
1010000111
1101001110
100010100
1111111110110011
1100101
101
10110110
100010
100101101
101000001
11100000
1111111111101011
1010001011
101010010
101101101
1000110010
10000000100
1111010001
1101110000
1011000111
10101000111
1111111010100010
110000111
1011000100
1100001011
111011001
100101000
111010001
101001111
1111010011
110000011
1111111101100111
1111111100011000
100110101
10000001
