1111111111000000
1100011
11100101
1000101
1111111110100110
101000110
1111111111110110
100001000
1111111101110000
1111111101101100
1111111100011111
1111111011100101
1011110
1011
1111111110000001
1111111101000001
100100111
100001
111010
1111111111101010
1111111011110001
101000000
1111111100111110
10001110
1111111010110111
1111111011000011
100100
1111111100110001
1111111111110001
1111111110100101
11011100
11110000
11111000
11100100
1111111100111101
1111110100111101
1111111010001101
1111111111111010
11101000
1001110111
1010101001
11100010
1111111001000010
1111110110100110
1001111
101001100
111000
1111111011100000
100011110
11010110
1111111000010111
1111111000000001
100000000
1111111111010000
10111000
1111111111101100
11101011
1111111101010110
1111111101011011
1100110001
1010
101011011
1111111101100000
1100011
10000010111
10001000101
111111111
10000001011
1010101111
1111111110001010
11010001
1111111000000110
1111110111110000
101001
10
1111111011101010
1111011
1101010111
1001010100
1011101101
1100100010
100001011
11011100
100110110
11100001
10001001
1111110110011010
1111111101111100
1111111001001100
1111111011011110
1111110101110110
1111111000100011
1111111100111111
101010000
10101010
111111000
1111111111011010
1011101
100110000
1111111111001000
110101
10010000
1111111111101110
1111111010011001
1111110111100101
1110101
111101
1000000110
1000000011
10101001
1001111101
1111111111101110
1111111111011010
1111111110111100
1111110110011111
1111111011000010
1111111101100111
1111111100101011
1111110111111110
111101101
10101111
10100101
11101
1111111100011100
101100101
1111111110110111
110101101
1111111010101110
1111111010101100
1111111111110011
111001
1010
10111000
1111111100001000
1111111100000110
111001100
1000000101
1000011
1010010100
100001010
1111111111110001
1111111101101100
1111111100111111
1111111110001110
1111111100011011
1111110100010100
1111110100101010
1111110001011000
1111111001011010
1111110011101001
1111110101000111
101100110
111100010
1001000010
101010011
11100001
1010010001
1001001110
1100111
10100110
10001110
1100100
1111111011001000
1111111011010111
101110111
1111111100
100000110
1001001110
1111111101101010
1111110101010100
11100
1111110101110001
1111111011111100
1111101010010110
1111101001011110
1111101101101000
1111110000010000
1111101111101001
1111110011100110
1111110111110000
1111111011000001
1111111101101011
1111010
110011100
101101000
1111111111101111
1111111110000011
11010010
10010111
1111111110100010
1111111100110111
1100001
1111111011010110
101010111
1111111011000000
1011011
1111111101101111
1111110101101011
1111111101111110
1111110110010110
1111110011100001
1111101010110100
1111110011011001
1111101011010111
1111110110100101
1111110101010110
1111110110010010
1111111000000111
1111110100101111
1111111111000001
1111111010101001
110010100
100110001
100001000
1111111100000110
1111111111100101
1111111000101111
1111111110100001
10110011
1111111011000110
100011111
100111010
1111111010110101
1111111110100011
11100100
1111111110101000
11100110
1111101111000110
1111101101000111
1111101110111100
1111111001000110
1111110001000011
1111111001011110
101101
1111111001011111
1111110101110010
1111110011010001
1001010
1111111010011100
11100010
11111001
1111111011110100
1111111100110110
1111111101001001
1111111010000110
1111111110000010
1111111110010110
1111111111101001
1111111100010110
1111110110101001
1111110111010111
10000101
1111111000100011
1111111001010111
1111111000010010
1111101111110001
1111110010101101
1111110011101100
1111111010001110
1111111110001110
1101011
1010
100011011
1111111001110001
1111110110011110
1111111011010110
1111111110000101
1111111100100101
1111111011000110
1111110111011001
1111111101101010
1011001
10000011
1111111100001110
1111110100100010
11001101
1111111001100001
1111100110010001
1111101100000001
1111110101010101
1111111011111101
1111110110101000
1111110010000000
1111111000111100
1111111100000111
1101011
111101001
101011
10010001
101001101
111010101
1111111101101101
1111111111110101
1111101111011000
1111111000010011
1111110010111111
1111110011000111
1111110010000101
1111111100000001
1111110111010010
1111111011000110
1111111110011111
1111111101100100
1000110111
1111111000001101
1111100111110100
1111101010010001
1111110010010010
1111111000011011
1111110110000000
1111101111101001
1111110001011100
1111110100000001
11010000
110100010
110011101
1111101010
1111101110
1010010001
1111111001110100
1111110010110011
1111100110011110
1111101001100110
1111100101111011
1111101011011001
1111110110000111
1111110101001110
1111111100111110
10100010
101101011
10000011
100100110
10111101
1111101010101001
1111110100000101
1111110010000010
1111111111001101
1111110011110100
1111101110101111
1111111010010010
1111111000000101
100111011
1101110000
1100111010
1011111000
1001000111
1001111111
1001110111
1111110100011100
1111110100011111
1111101000011101
1111110010011011
1111110100000000
1111111100010111
1111111011000100
11000010
10001010
1000011001
10001110001
11011111101
11100011010
1111111101000101
1111110111001110
1111111101011001
1111111110111101
1111111010101000
1111110110010011
1111111011100111
1111111010101110
101010111
110001011
10001001011
1111011100
1110000010
11011001011
10101110111
1111011101
1111111011111011
1111111001100100
1111111110100111
10001
1111111101011001
11011111
111111000
111001100
100000000
1101100001
1101110101
11111100
100010111
10101100
11110011
1111111111100001
1111111101101101
1111110111011010
1111111110010001
1111111110011001
101101101
1110100001
10100001110
1010110000
10011001111
11010011010
11110010110
11000111001
111010001
1110010
1111111101101111
100100000
11001010
1111111100111000
1111111001110011
10110000
101011001
101100101
11011
1111111101101011
1011101011
1100111000
1010101110
1111111101111000
1111110110100111
1111111000011010
1111111000001100
1111111101000000
11100001
10100001
1110000000
1111101101
1111001001
10100111010
11001001111
10010101011
10001011
1111111000101001
10110110
1100100
1001110
1111111111101110
1111111000101011
1111111011011010
1111110111011111
1111111110000111
1111111010101010
1111111101000111
11101010110
110100001
1011011000
11001101
1111111011101011
1111111000110001
1111111100011110
1111111010000001
11011
100100010
101111000
1000101010
1101011110
10101000000
10110000001
1011010110
1111111000111110
1111111000010010
100110010
1011100110
100101110
1111111110001011
1111110110101000
1111111001101100
1111111000110010
11001010
1111111010110111
1111111000111101
100101101100
1011100000
1011010011
1111111011010011
1111110011010000
10110011
1111101111110101
1111110011000100
11010100
1001101111
1010101011
10000100001
1100101110
10001111111
1111110010
1101111
1111111010111111
1111110111010110
10001001
1001100010
11011000
1111111101100111
1110
110001
1111110110111000
1111111111000110
1111111011110011
1111110110101111
10111000010
110100
1001010111
1111110111011011
1111110101111100
1111111000110011
1111101111101100
1111110110010101
1100111
110101111
10010110011
1000100101
1000111101
10011000110
1111
1100
1111110100110111
1111111011001111
110100110
1111111111111000
1111111110110111
1111111001100000
1111111101010000
100111101
1111111111101100
1111111100001101
10101010
111010010
10000101001
1111111010000010
10010011
1111111100000100
1111111100011010
1111110111100001
1111111000011111
1111110110101001
110000001
110010010
1101001110
111011111
1000011001
110010010
1111111000000010
1111111010000001
1111110111011111
1111111001010110
1010
1110011
1111111101011000
10100000
101101000
100100000
111000110
10001
10111010
101010001
1000100111
1111111101010011
1111111111110110
10011101
10
11110000
1111111001010011
100011010
1011010010
1111111111011011
100111010
10
1111111001111111
1111111111010100
1111110010101100
1111111001101000
1111111110001111
1111111000001111
1111111101101000
1100001
1111111111000011
1111111000011110
101001100
101010011
101010011
101000110
101011000
10010100
1100101011
1111111101000011
1111111000011010
1111111100111001
10000001
100100100
1111111111010011
11010010
101001000
10010110
1111111110000111
1111111101000100
10001000
1101100
1111111110100000
1111110111110110
1111111110001001
1111111011101110
1111111010010100
1111111101101010
1111111011100010
1111111011000001
1111111000011110
101110001
1101000011
1000000001
1011011010
10101010
110011011
100011010
1111111101101011
111011
1111111110110000
1111111111110001
1111111011000111
1111111101110101
1111110110101010
1111111110000110
1111111101101111
1011011
10010110
1000001101
100100110
11010
110110000
1111111100001100
1111110111010110
1111110101110111
1111110101111011
1111110110011110
1111111100100011
1010111110
1101110011
10011000001
10110101100
1110000110
1010111000
1111111010110101
1111111100110111
11010000
1111111101011000
1111111110011011
1111110111111001
1111110010011011
1111101110110011
1111110100010111
1111110010100101
11101101
10010110
1111111110011010
10110111
110001110
1111111111000001
1111111010110101
1111111011110011
1111111101101110
1111110101101100
10100000
111000010
10101111001
11101110000
11000100111
11000100001
10011101010
1001101001
1111111011000111
1111111101011100
100111100
1111111011010101
1111110100011010
1111110011010011
1111101010111011
1111101100101011
1111101111111001
1111110011110000
1111111011111010
1111111010010100
1111111100001000
1111111001000101
1111110111100111
1111111001000100
1111110100110001
1111110110110011
11001000
10001010
111001010
1100100110
10110111100
10010111110
10001010011
11011110011
10001111100
1110111011
1111110111111111
11011100
1111111100010010
1111111111101010
10100011
1111110101001011
1111110101011001
1111111000110010
1111111101100101
1111110111110000
1111101111110011
1111101101011101
1111101011111101
1111101100001101
1111101100000111
1111101111111011
1111111001110010
1111110010101011
1111111111010001
1111111000110000
11111111
1111111111011001
1111011011
1010010000
1011011
101001101
1111111101011110
100110010
1011001
100101110
1111111101100000
1111111100100001
11000011
1111010
1100001011
1001010101
111100000
1011001001
10001111
111100
1111111100001110
101001
1000010010
1111111110100011
1111111100110101
1111111000001110
1111111110001011
1111110110001101
1111111111011011
1111110111101100
1000011101
101101111
1111111110101000
1111111101100110
11000100
1011110
100101111
1111111111100010
1111111110011110
1111111011101101
11110
1111111100001010
1111111110011011
1111110101000000
1111111110111011
110101111
1011100
10010101
1011
1111111111101000
100111001
1111111000111001
1011111
1111111001101001
1111111000001100
1111110001111010
1111111011101010
1101010
1111111100000001
1010011
1111111101000011
1111111011110100
1111111110000101
1111111100100010
101000
10011010
