1111111110101100
1111111100000001
1111111011101101
11101011
1101010
100011110
1111111111101100
1111111101001101
101000111
10110
1111111100011110
1111010
10000000
11010100
1111111101110111
1111111111111101
1111111111101000
100000100
11011011
11010111
1111111101101110
1111111101001110
1111111101110000
11110110
1111111110011111
100111110
1111111100101000
101010
1111111011000000
11010
10000101
1111111011011001
101001000
100001100
1100001010
1000001110
1001001110
1110110010
11101100
1100000001
1001001011
1001000111
10111101
1101101100
1110000000
1000101111
111110111
110100101
11001100
1001000000
11001101
10000101
100000101
101001
11101100
1111111011011110
1111111100111111
1111111101011100
1111111110010100
1100000010
110001100
101011011
1001100110
10000011110
10101001100
10001011000
10011010000
10100000011
11010111010
1111011000
10010110011
10011010101
1110000100
10010011
101110101
1011000011
1010010110
110010000
1000000001
1110111111
1011011000
1111111111100000
1111111110001011
1111111100001010
100000000
0
1111111111001011
101011000
1011011010
1100010010
1101110111
1001000110
11001111111
11100110000
1111111111
1101111001
11010011101
100001100100
11111000010
10011010010
1111111011
101011111
1011111100
1111111011110010
1111111001110010
1111110101011101
1111110101101101
1111111110101010
1010111000
10000101
1111111111000110
11000010
100111011
1111111110101110
100010011
1111111110101001
11010
1111111111110100
111101000
1100100010
110111110
1011100110
10001100101
110111011
1110001
1010100010
1011011010
10001100110
11001100
1111111100101010
1111111111110010
1111101111111110
1111101101111001
1111101011100001
1111101110000001
1111110101000101
1111111011100101
10110000
1001000010
11001101
11011101
1001111
11101100
1111111101010011
1001011
10110001
1001011001
1111111010111011
1111111011100011
1111110110000010
1111111011110111
1111001
10101000
1101100011
1111011011
10001001000
1110111100
10001011
1111111010011010
1111111010001101
1111111100100110
1111111010010010
1111110010101110
1111101111100101
1111110111011000
1110110
1011110000
1110010
10101010
101111011
1111111011111000
1111111001111011
1111111111011110
1111111011110111
1111111000000100
1111111100100011
1111110111010010
1111110101110101
110010011
1100001
111100100
10100110100
10111011100
10101101110
10001110101
100110001
1111111111110101
1111111011110001
10100001
1111111011110100
1111110001101110
1111110001010100
1111110100010101
1111111110110000
1111111101100100
1010010
1111111101101111
1111110111011101
1111101100011101
1111101111110010
1111111010110001
1111110010100000
1111111001110111
1111111010001111
1111111010001100
1111111110000011
1111111010001010
1111111111010000
1010001110
10000101000
11011111101
11100110001
10000000011
1111111110011000
1111111010011110
1111111001111100
1111111111000000
1111111000001100
1111111000101000
1111110101000101
1111111110101110
100101110
1111111001111011
101110111
10001001
1111110110000111
1111101111000000
1111101111010101
1111110111100100
1111110110000010
1111110101110001
1111111010100111
1111111111000000
1111110101101001
1111111100011110
1111111110010111
11001
1000101111
10111111111
10111001000
1000100010
1111111010010111
1111110110000001
1111111110011001
1001111
11010
1111111110001011
1111111000110111
111101
1111111110000101
1100110110
1001000101
1111111001100000
1111110011101101
1111111001000100
1111110011100010
1111110101110111
1111111001001011
1111111001101000
1111111011010000
1101000
1111111011011101
1111110111001111
1111111001011010
1111111010100100
100101011
11010000110
10100001010
1111111110100111
1111111100010011
1111110111100011
1111111010101101
1111111000001010
1111111000000101
1111111101100110
1111111101011010
101110010
1010011110
10000000011
0
1111111011101100
1111110101010101
1111110010111101
1111111000101110
1111111011010001
1111111100111001
100111110
10101001
1000000
1111110110001001
1111110100010011
1111111001010000
1111110111001011
1100100100
100101101111
10000010000
1111110110110101
1111110100111110
1111111001100011
1001
1111111001011110
1111111000100111
1111111111001001
10010011011
1100111111
1100111111
1101011111
1111111110000001
1111111010011010
1111110111110000
1111110011000000
1111110011011111
1111111110110000
1111111101011111
11011011
1011100
1111111110010010
1111111010000010
1111110011100111
1111101111010110
1111111111010111
10101011000
101000111001
1010011111
1111111000111111
1111110101011000
1111111100000101
11101100
111110
1111111111101011
0
1111110100
11110011010
10110010010
1010101100
100010111
1111111010010011
1111110001101010
1111110000110100
1111110101110111
1111111110101111
10111000
101001001
1111111000000110
1111111000000110
1111110111100100
1111110100011111
1111101011101011
1111111000110010
11101101110
100000011101
1000100011
1111110001111001
1111111100101010
1111111110001001
1101011
1111111101110110
1111111111101100
10000
10110100011
10110101101
10010111111
1000
111110
1111111101001100
1111111000101010
1111110101110010
100101010
1111111110101001
1111110101010011
1111110011101111
1111111010101011
1111110110011101
1111110110100001
1111111010001011
1111111000010101
1001001000
100001010000
11110001101
1000110010
1111111011001110
1111110100110110
1111111010101111
110100
1111110110001010
1111111101001101
1111111110101100
10010100011
10000110111
1011001111
1100101101
101011110
1111110111111100
1111111000001110
1111111000010111
11110010
1111111001110100
1111110011100110
1111111101100011
1111111010010011
1111110101110100
1111111100110101
1111111100101011
1100100
1010110100
10111000000
10101010001
101110101
1111111001001001
1111111000111111
1111110010011000
1111110000101001
1111111100110000
1111110110101100
1111111000011100
100101101
1101001011
1101100100
1010011100
110010111
1111110110101101
1001101
1111110110110111
1111110110110110
1111111101000001
1111111110011110
1111110111111011
1111111001110000
1111111110111000
1111111111101110
110001011
1000110011
10010101100
10110001100
1101001011
10111
1111111111011011
1111110101110100
1111111011100101
1111111010111100
1011111
1111111100110001
1111110111110111
1000000000
11001110011
10101010111
110101001
1111111101100010
1111111111010101
1111111110001010
1111111101010000
1111111011010100
101001111
1111111100101100
1111110101001010
1111110111001000
1111110011101110
1010100
1010010101
10101100011
10011000111
1100011111
10001110
1111111100011010
1111111100110110
1111111000101010
1111110110000000
1111111000101101
1111110100000110
1111111011011110
1101001
1000100010
10001010011
10011000100
111100110
110110111
1111111011001111
100110
1111111000111001
1101000
1111110111001110
1111110111011101
1111110100100001
1111110010110111
100110
11110100
10011000000
11001100011
11100010000
1110001101
1111001
1111111111111100
1111111101110010
1111111101001011
1111110111111101
1111111110100011
1111111100110000
1111111010000111
101010111
1111000100
10001001011
10000011111
1010000100
100101001
101001
1100111
1111110110101011
1111111111000000
1111111001110101
1111111100100010
111001001
1
10111001
10000001010
10110000100
11110110100
10010110100
110000100
1111110110101111
1111111010100111
11111
1001101
110001010
111000000
1101010
1011001
10001111001
10101100110
10001010100
1101101100
10001100
1111111010010001
1111111111111111
1111110101100101
1111111101101100
1111111100001110
1111111111100111
1111111101101000
111111111
1001000001
10000011000
10100101100
11011000010
11101010100
10111001101
1111111111111110
1111111010111100
111100
11111000
10011001
10000
1111111110001111
101111100
1101110100
10110010000
10101111001
1111010100
1111110101
101101
1110001
1001101
10010010
1111111010001110
111111011
1100001110
1111010001
10101000111
10110010001
1110100011
11000000100
10011111001
1110101000
111110000
1000000110
1111111100110111
101101000
11111101
1010110
1011101
10001
1011010001
11100010
1011111100
1110000110
111111110
10001100011
1000000
1000100
1111111111111101
100001
1110111
1110101111
10000011111
11010011000
11101100111
100000011100
1110110000
1010011010
1100001010
101101000
110111110
101100111
1111111110001000
111010
10110101
11001101
10011001
1111111101111101
100101010
1111111111110110
10101100
101101100
1111111110101110
110010010
1001010010
1111111110001010
1111111101101011
10010100
111100000
111111101
1101000000
10011100010
10001110011
1110111100
10000101110
1111111111
1001001111
110100110
1111111110011100
100001111
101000010
1111111100000001
1111110
1111111101101111
1111111100110011
1111111101110100
1111111011111100
1111111010000110
10000101
10101101
1111111001000100
100001100
1111111100001111
1111111110111001
1111111110000010
1111111101101111
1001010110
1010100110
100001011
1001001001
10111
110010001
1001000010
111111000
1000011101
101001011
111001101
1111111100010000
11001110
100011
1111111011111010
1111111100000001
1111111010101101
1111111100101010
111101000
1111111111100001
1001011011
10001000001
1010111011
1111111100101000
1111110110110011
11010100
10111010
1111111101101110
1111111110000110
1111111010111110
1111111111101001
1111111110001110
1111111010111101
1111100
10101011
1111111111111100
101010001
10000000
1111111101110101
100000010
1111111010001000
1111111111101110
1111111100101111
1110010
11010001
101011000
11110010
10000100
1010000100
10000011101
10001101000
101111000
100110011
1111111100101000
1111111110000111
1111111111011101
111100001
1111110111000101
1111111010011111
100000011
1000101001
111001101
110001011
101010011
10101100
11100000
1110011
1111111100111011
100111001
1111111100001100
1111111110001100
1000101000
1011011110
1110010110
1010100100
100110001
10001010
111101001
1010100101
10010010
10011101
100011111
1111111010110111
1111111110100111
1111111111010110
1111111110111110
1010100101
100010101
1100101100
10011101
1010000
1011000100
1100011011
1100000101
1011010000
101101011
1110000010
11010100
111111010
1100010011
1010001
1001111
100101000
101100000
1111111100010001
110001111
1000010101
1111111100100100
1000111
1100001
100000111
101001
1111111110001111
100111100
1111111111000011
1111111011101110
110000100
110010000
1111111111010010
1111111101001001
1111111111100010
10010110
10111001
1111111010000000
1100000100
11001010
1111111011101011
1111111100101101
1111111111001100
1111111110111000
1111111111011000
1111110100111100
1111110111110010
1111111001100110
1111111111011000
100000101
101011
1010
