1111111111101000
1111111101011110
1111111110100000
10001100
1111111111011110
1111111110001111
11010110
1111111110100000
1111111111001110
1111111111111101
100011010
1111111101011000
1111111011110100
10011101
1001
10111001
11110100
100100001
10000011
1111111011100001
1110110
11010010
11110011
100001
111000
1111111111001101
1111111100010100
1111111110110010
1111111111100110
1111111011111110
1111111110001010
11100110
1111111100001011
1111111100100100
1111111100011110
1111111101010000
1111111010111000
1011111
1111111111000001
1111111011010001
1111111001110010
1111111110001100
101001
1011
10101101
1011001
1111111110001000
1111111010010110
10100101
1111111111011110
1111111100111010
11101011
100010000
110
1111111100001101
100011001
10100000
1011100
11111111
1111111011010100
1111111101010100
10010010
1111111101110010
1101101
1111111110001000
111001
1111111000101110
1111110111101111
1111111100110110
1000011
1111111000011010
1111111101101010
1111111110101110
1111111110000110
1111111100101111
1111111100001000
111000
1111111010111010
1111111000111101
1101010
10101100
10111010
1111101
1111111110111111
1111111100110001
1111111110111000
111111100
100100111
1111111110101001
1111110100110110
1111111010011001
1111111001101010
1111111000011101
10111110
1111111111100100
1111110110100011
1111111100100100
100111101
1010001
1100011001
10111110
100100000
101100101
1000111001
11101010
10010101
1111111110101100
1111111101011110
1111111001101111
1000010010
1111111111001110
1111111111100101
1111111110100110
1111111000100010
11011
1111111010110100
1111111011001001
1111110011100001
1111111101110100
1111111110010111
1111111011011111
1110111
1111111110111101
1
110010010
1111111111001000
110011101
1001
10011010
110111110
1010
110001111
1111111111000101
1011011
10000101
1001110011
10000000
101110111
101110
1111111101001011
100111011
10001001
110100111
1111111001100011
1111110101010000
1111110011000100
1111111010111000
10010
1111111111001101
1000010000
111100110
1100110110
1011100011
1000111010
1011010
11010011
1111111110110000
1111111011100000
111000101
11001010
101011101
111101111
1001000000
1100001000
110010111
110010011
1111111000000110
1111111010111100
11110101
1111111010100001
1111111100101010
1111111001000011
1111111100110101
1111111010111111
1111111100110100
1111110
101001111
1101001
111111100
1001001011
110000100
1111110001
1111010001
10110000
10000
100000001
111110111
11110110
11111000
101011000
11101110
100010101
11101
100000
11100011
1010
11110000
1111111001101110
10011000
1111111011111010
1111111011000000
1110
1011001
11000111
11011
10110000
110011101
1100100000
1100011000
10001101000
10001110001
100000101
101110001
10110010
1001101000
1000010011
101000111
1000110000
110000100
101001101
10110001
11011101
1111111110100111
1111111100100011
111001110
1111111010110100
1111110111101110
1111111100101101
1111110111111101
1111111111001111
1010100
1111111001010101
110111101
111100110
111010110
1110010101
100110111
1000000110
1000110100
11011011
11110111
1011100
1111111010001011
11111000
10111100
11000101
1111111101110011
1100000110
100111010
1101110
10010001
1111111011001001
1111110111010001
1111111011010001
1111110
1111110100101101
1111111001000011
1111111111011011
1111111011010110
10010100
100000011
101001100
1010000111
1101001110
110110101
1110011
1111111001000011
1111110100101100
1111110010001001
1111111000001001
1111111111101100
1111111010001110
1111110011101001
1111110110111000
1111111100101100
1111111101100011
1110010000
10000010011
10110110
10111011
1111111100100011
1111111111100110
1111111101011010
1111110100010000
1111111011111010
110010
10001111
1111111111110000
1101100110
1101101001
100110110
1111111110001110
1111111011010000
1111110101011100
1111110101110010
1111110101110110
1111101000100100
1111110110101000
1111110110111010
1111101111010001
1111101111110111
1111110011000011
1111111001101111
1111111010100010
10100100
111011100
1001100101
101010011
1111111000110111
1111111111111011
1111111001011001
1111101010001001
1111101
1111111111001111
11100001
100111001
110100000
1111111010100110
1111110111011100
1111111001000110
1111110001011100
1111101110100011
1111110001010111
1111110100001011
1111110010100100
1111110011101001
1111111000000001
1111110011111001
1111110011011111
1111110101011100
1111110111111001
1111111111000111
111010101
1001100
1011011101
100000101
1111111110111000
1111111010101000
1111111010001011
1111111111000010
1000001110
1111111100011001
110
10001001
1111111001010100
1111110101100011
1111110101100111
1111110000101000
1111101101100000
1111101110010010
1111111001001100
1111110001111011
1111101110111111
1111110101001100
1111111111010100
1111111100110111
1111111110100010
1111111110110110
1111110101110110
1111110011100010
1111110011011011
1111110111110100
101000011
11000
1000101000
1111110110010001
1111110101000011
1001
110100000
1000100
1111111101011011
1111111100011110
1111111010000001
1111110110001101
1111110101111110
1111101010011110
1111101011111000
1111111010011000
1111111001011110
1111110000011011
1111101011011001
1111111000011010
1111110010001110
1111111000101010
1000110
1111111101101101
1111110111000100
1111110001111011
1111111000000101
1111110011001111
1001001100
11101
110011001
1111110011110011
1111111011001110
11001011
1111111010100111
1111110110110000
1111110100010101
1111110110111101
1111111011111100
1111110010001011
1111110111100101
1111100110001101
1111101101011101
1111111001010000
1111111011100001
1111110011101100
1111110101000110
1111101011101011
1111101011101000
1111110101000110
1111110111111101
1111111010110000
1111111100001011
1111110100011010
1111110101111000
1111110111100100
1111001101
1010000010
111001111
1111111101100010
1111101101110001
1111111011100100
1111111111000011
1111110111101011
1111111000110010
1111110011100111
1111110111000010
1111110111101011
1111110110011000
1111101000100110
1111110011110010
1111111101000010
1111110011010001
1111110001001111
1111101111010101
1111100101110011
1111101110111011
1111110010011010
1111110101010010
1111110110110000
1111110001010000
1111110100100011
1010001
1111111100000010
1011101110
111100011
1111111010010010
1111111101100110
1111110101000111
1000101
1111111001000000
1111111001000110
1111101110111011
1111101011000101
1111110101011101
1111110100011110
1111110111101000
1111110001101101
1111111001011011
1111111000011000
1111111000000000
1111110100110010
1111101001101000
1111101001011011
1111100111110111
1111110101101111
1111111010101010
1111111001011110
1111111000001001
1111111101010111
1111111001011011
101010110
1100110100
101100011
100100010
1111111011111101
1111111000100001
100000101
1111111010011011
10011001
1111111100001011
1111110110111001
1111110011000011
1111110001110001
1111111011001101
1111111000010111
1111110111011110
1111111110000001
100100
1111110001011110
1111101100101101
1111110001101000
1111110100110101
1111110110110100
1111111000001111
110011
1111111000011001
1111111100111111
1111111110101001
1101110001
111001100
111100101
1111111101001110
1111111010110110
1111110010010000
1111110101100110
1111111101000010
1111111000010011
1111111001010110
1111111011111011
1111111010011110
1111111101000001
1111111001101100
1111111010100001
1111110101000101
1111111001110100
1111111100010010
1111110000101101
1111110001110100
1111111011001111
1111111001011001
1111111111101111
1111111110010111
101101
101110101
100111
1010001011
1000011010
101111000
110111111
100000010
11110100
1011
1111111011011010
10011101
1111111010011001
11000010
10010110
10
1100
1111111010111101
1101101
100110111
1111111111011000
1111111011101010
10110001
111011000
1000111111
1001100010
1000100011
1000000101
1111111110000001
101011100
1111111101111110
1010001010
10001001100
1100010000
10110110
1011
1111111101100101
100100100
1111111101100101
1001111001
1100110011
1001001
101010000
11111101
101110110
10010100
1010001111
1111110100
100111000
10100101
111100011
10000101110
10001100001
1000010110
111100111
111011110
111001
1101110000
1001110110
1110111
10100100101
10000110010
100110101
1111111101111111
11011101
10100
110111000
10001100111
1100110100
1110010001
1001001111
1101110011
1000110110
1001110110
1111100111
101011100
101110010
1100010010
1111001101
1101110101
1010111011
1101110101
1010111010
111011111
1001010100
110101111
10010100101
1100101001
10100100100
1011010000
100110011
100000000
10110001
1111111101000000
1001100011
1100100111
1110100100
1001100111
111101111
1110011110
10001100001
1100011111
100010110
11110010
100100011
10011101
1010010100
1000001000
1011111111
1110101000
1010010100
1000000001
1011000101
1101110011
10010100111
1100100001
10001110110
1111111011011101
1
10001010
10110101
1111111111011111
1111111000111001
11010100
100001001
1000011011
1111111110100110
110111100
1000110101
11000111
101111111
111001001
11000101
1010110
10111111
1011101101
111011011
1111111110101001
10000011
1011010010
111101010
1110000001
10001111101
110000101
1001011101
1001100010
11101111
11001001
1101010
1111110101011110
1111110011100100
1111101101000100
1111111001100000
1111111001110010
1111111011100101
1111111011100101
10101010
1111111011000101
1111111110100000
11100110
1110110
110100011
1111111111101110
100000100
1001101111
1111011000
11010100
101101101
1010111101
1100111011
1011101110
11000001011
1111010000
101110101
101000000
1111111111001100
1111111101011001
11010010
1001111
1111110111001000
1111101110011010
1111111000101110
1111101110011001
1111110001100111
1111101101011111
1111101100110000
1111110010010011
1111110110001110
1111111010100010
1111111001011000
1110
1111111011000000
1111111101101110
10001111
1111111111000000
1111111101011100
10000111
1011011010
1101000010
1001110010
110000001
1111111110111100
100111011
11111
1111111101111001
100101101
1111111100101001
100001011
1001000
1111110110001000
1111111001001110
1111101110000101
1111110010010001
1111110000111111
1111110100011001
1111110100010000
1111111001010001
1111110010110010
1111111001011001
1111101110011111
1111101110100011
1111110101110010
1111111010011110
10011111
1100101
101101
1110011
110010101
1111111111111011
1111111110000010
101010
1111111111001000
1110100
1111111111110100
1111111111101001
1111111100010001
1111111100110010
1111111011111000
1111111110001001
1111111010000111
1111111011001101
1111111010011011
100100011
1111111111000010
1111110111011101
1111111110101010
1111111000100111
1111110101001100
1111111000011101
1111110011101100
1111110101001110
1111111010111011
1111111111011010
1000101
1111110101111001
1110010
100010000
1111101
1111111011011010
