1111111101011101
100100101
10010001
111001
1
10011100
1111111100101000
100100101
100
1101001
1111111111001000
10101100
1111111110101011
1111111111111001
1111111111111010
1111111011000010
1111111111101000
1111111011111100
1111111011001011
1111111111001011
100101011
1111111100011001
1111111101110001
1111111011111100
1000010
0
1111111111111111
10011110
1111111111101101
1111111110101001
11110011
100000001
1111111100000000
1111111111011000
1111111000011011
1111111011100010
1111111111110010
1111111010011110
1111110110110011
100111001
1101100
1111111110001011
10111000
1000111010
110000101
10101110
110001
1111111110011001
1101001
1111111111001111
1111110100101011
1111111100011001
1111111101110111
111011
1111111011101000
10111111
1111111110100110
1111111111011110
1111111111011001
111111110
10011
1111111010010011
1111110010001010
1111111010101000
1111101101110001
1111101010011010
1111101000101010
1111110010100001
1111110000110000
1111111011110001
1111110101011011
1111111010100011
1111111101101100
1111111001101110
1111110110101000
1111111101000111
1111111111010010
1111111011010010
1111111100010111
1111111110011101
10100000
111011
1101011
10010100
1111111110011101
1111111100000101
10101110
100110110
1111110110001110
1111111001011000
1111110110001100
1111110111101100
1111111000010000
1111101001110001
1111110100011110
1111110111101010
1111110111101100
1111110111100001
1111110111010001
110000000
101101000
1010
11011110
1111111110110001
101100
1111111001111110
1111110100110100
1111111110010110
1111111111100111
100110100
1111110101111010
1010111
1111111011010111
100011000
1101010100
111101011
10100
1111111101011010
1111110111001001
1111111010010011
1111110110100100
1111110111110101
1111110010110100
1111111011101100
1111111010000101
100000
10010100
11100000
101010010
1111111100010100
110100000
1111111110101000
1111111101011110
111001
1101
1111111000101010
1111110111100100
1111111100011011
101001111
1111111001100011
1011100
1111111111010011
1111111110100110
11101111
1111111000100010
101111100
100000010
1001010101
10010000
11101110
100101101
10000001001
100001000
111100010
101110000
1010001001
1001011
101010101
1111111110111111
1111111110000000
1111111111111011
1111111101011100
1111111101000011
1111110001111100
1111110111000000
1111111010100011
1111110101110101
1111111011000011
1111111010110101
1010011001
1111111110111011
1011010101
10111101
1001110110
10001000100
10001101001
1111001000
10010101101
10110001100
10101000111
1010011000
111101001
11110100
11000011
101111011
1111111110100100
11010
1111111011011011
1111111001000010
1010011
11010011
1111111010001110
1111110011110100
1111110011000110
1111101111101111
1111110010010011
10001000
1100101101
100101
1111101000
110100010
1110111000
10000110010
11000001110
10110111101
10100011101
10101110111
10000011100
1101100100
1011111
10100110
110001010
1001001
100110110
1011001
1111111110011111
1111111110000110
1111111011101110
1111111111101011
100110111
10110
1111110010010000
1111110100000011
1111110110011001
101000100
110011
100000001
1111101101
1110011010
10010101000
10010101101
11011111101
10110011110
10110100010
1101010000
11111001
100000010
1111111111000110
1111111011010111
1111111111111101
1010100001
11101010
10111110
100111
1111111001000101
1111111011011110
100001100
1100011011
111111
1111110011110010
101110
1111011
10100111
1101111
1010110011
10001100010
1000000111
10100010110
10010111000
11000010000
10100110000
111101000
110001111
1001010
1111111110011000
1111111101100000
1111111101111111
111110111
1001000001
1100100011
111111100
110111
1111111011010101
1111111111011001
1001011101
1110100001
101110001
1011101
11111010
111000011
1010000110
10110010
1011011100
1111010110
1111000
1001001011
110110101
1100001000
110100101
10000110
1111111010001101
1010001
11000
101100010
1111011011
10101100110
11000010101
11010001100
10100011110
1010001001
1010110101
1010101110
10001000000
1111100100
111110111
1111111011001101
1000111000
111110110
10100110
101101100
1100001110
1011001110
10111011
1111111100111011
10100001
11110111
1111111011011010
1111111100000111
1111111110000000
101101110
1010011010
1101001010
11101011100
11011111111
11100110001
10110001000
11010011000
1001101101
1100111011
1100011001
1110010111
10010000110
10010010001
100111110
10010101010
111010000
1111111100101101
1000001110
1001010100
1110111100
10000111
1111111101110010
1111111001100100
1111111110010001
1111111100100101
1111111010000110
100101
11010011
1001001010
100101011
1011001011
1101101010
1001011101
10001010001
10010000010
1100010010
111000000
1111001000
10010101000
10011001011
1100011100
1111111111100000
1001011010
1011100001
1111111010011001
11101110
1100000000
1011011110
11110111
1111111101111100
1111111100100111
1111111000100010
1111111100010111
1111110111110110
1111111001001100
1111111001100011
1111111000000000
1111110110011100
1111111011011011
1111111000100010
1111111011101001
1111111011111010
110110100
100100110
1011101111
1001010101
1001010001
10001110
110000100
1111111111110010
110101100
1111111100101000
100100
111100
1000000100
1111111101010111
1111111110001010
1111111100110010
1111110111101001
1111101111111110
1111101110100100
1111110001011110
1111110110001110
1111110111100000
1111110110010010
1111111000110100
1111111000011000
1111110110101010
1111110011101110
1111110111100011
1111111110001010
1001010010
100100001
101011001
1011000100
1000101011
100110110
1111111110000000
1111111011001111
1111111101100000
1111111010000001
111001111
110000
1111110110111111
1111111101001010
1111111010001001
1111101100101100
1111110100111101
1111110001111101
1111110000110110
1111111000100100
1111110010110000
1111110011011010
1111111011100000
1111111101011000
1111110101111110
1111101100100000
1111111000111101
1111111010000011
111101111
1000001000
1100001011
1011100010
11001100
111100001
1111110110111001
1111111001010000
1111110010110010
11101
111101011
111110110
1111111100111110
11011111
1111110110111001
1111110101010001
1111110100010000
1111110011110111
1111110000001011
1111110110010000
1111110011110111
1111110100001110
1111110111010100
1111111000101101
1111101111100101
1111110100110000
1111110010010110
1111111011011001
11
100100110
1111111001010101
1111111010010100
101101001
1111111010000011
1111101101101100
1111101001110001
1111111011100001
1111111011010101
110100000
11011
1111111101100001
10011100
1111110111011111
1111110000001111
1111110000101001
1111110011000111
1111110110010001
1111110010010001
1111110011001100
1111111011100111
1111111001010110
1111110100110010
1111101111110011
1111110111011001
1111111111010111
1111110110101001
1001000
1111111111111010
101
1100100
11101101
1001010000
1111101110001101
1111111010101001
100011100
111011110
110011011
101001100
1111111110011000
1111111000011000
1111111001100110
1111110001011010
1111101111111110
1111101111001100
1111110001010101
1111110110100110
1111111100000011
1111110111101000
1111111001111001
1111111000110110
1111111010100001
1111111001010101
1111111101010010
1111111111001110
1111111001101011
1111111111010100
1111111100001100
1001011
1111111000111101
1111110110000111
1111110010110110
101100110
1111110111001111
11000111
1010001010
100111111
11000101
1111111110101111
100010
1111111011001011
1111111010000110
1111111100011110
1111111100000011
100
1111111011110000
1000101
100110000
1111111100011111
1111111010110111
1111110010110100
1111111110110110
1111110111110111
1111110100001011
1111110111011100
1111111011010011
1111111101100011
1111110001001111
1111110100100010
1111110010011100
1111110011100100
1111111110001011
1111111111101010
1100010010
1111111111011101
110101
1111111001111111
1000000110
110011100
1000011000
1000111100
100110100
110100111
11011011
101011100
1000110110
11010
1111111110010000
1111111100001111
1111111010110111
1111111011001010
1111111001000110
1111110011101001
1111111101100110
1111110110000000
1111111100000101
1111110000001010
1111101111000011
1111110101000100
11000101
1111111111000011
11001000
11101101
10100111
1111111000011000
1001111
1111001011
10000100011
100111101
1101011100
1111100001
1011110001
1011011011
1000101101
101001111
1001101010
100111011
1111111010001000
1111111010101000
1111111011001010
1111110111011100
1111111001100010
1111110110011111
1111110100110101
1111101110000011
1111111000100110
111000
100001000
1111111101001110
10101000
1111111100101101
1111110111110000
1111111011101000
101111000
10110110101
10110100110
1010001000
1001111100
110101001
101010101
111101110
110010001
1000110001
111001100
111010111
1001100101
101111110
1001001
1111110110111000
1111111011101111
1111111000001010
1111110111100010
1111110010101100
1111110101101111
10
1111111100010101
1111111111000111
10000101
1100111
1111110100110001
1111111101111011
11000000
1101111110
10000100111
1010011010
1110101110
1110111011
1011111000
1101000110
111111110
1000001111
111011101
1101111101
1101110111
1000011110
100010100
1111111011010011
1111110111010000
1111101111010110
1111101111110011
1111110101011001
1111111111100100
1111111100111010
10111111
1111111101010001
10100101
101110010
1010100010
11010100
1000100110
100011001
110111000
1101101
101000001
100001100
1000100110
1000111111
10001101
1011100010
1000110100
101010010
101110011
100001100
11011001
1111110111101000
1111111000100010
1111110100010001
1111110010100100
1111110010110110
1111110100011110
1111111100110101
1111111011010000
11100010
10101001
1111111011011110
1011110
111100
1111111001110010
1111110111000001
1111111100000011
1111111101100010
1111111011100100
111111
1111111000101101
1111111011111111
1111111100100011
1111110111101011
10100
1111111110011001
100000010
10010
1111111111010010
1111110000011111
1111110101001101
1111110001010000
1111101001010110
1111110111000000
1111111111111011
1111111101110011
1101000
1111111110111010
1111111101111010
1111111011010100
1111111111111010
1111101111000001
1111110001011000
1111101111001011
1111110100111010
1111111011100101
1111111111111010
1111111000110101
1111110100010010
1111101101100101
1111110110100001
1111110011100111
1111111110100000
1111111001010110
1111111011011000
100101
101110101
1111101111011100
1111111001000000
1111101
1111111010101111
111011000
100001
1111111110011000
100101000
1111111101000000
1111001
101100
100001100
101011101
101011001
1111111001100101
1111111001011000
10110001
1000010
1111111011000000
1111111001101100
1111111001011110
100111010
1111111001001000
1111111100011110
1001011010
1010001101
1111111111001010
1111111111001100
1111111111011001
100100001
101011011
111000101
1111111011010100
1111111110100001
1111000
10001111
