1111111111100111
11110001
111000
1010100
11010000
1111111111110111
1111111011110001
100
100011011
11001011
11001101
100111110
1111111101011010
1111111101101111
1010011
1111111111010001
10001010
11110110
1111111110101001
1111111011100011
1111111101000100
1111111011011100
1111111101100110
1111111101011100
1111111111101111
100011000
1111111011011101
1111111100100011
11001011
100111110
1111111011010100
1111111100111110
1111111011110010
11110100
1111111011111110
1111111010010100
1111111010010011
1111110010100001
1111111001010101
1111111001001111
1111110010101010
1111110010100010
10110110
101110
1111111001110001
1111110110011001
1111110110000111
1111111010100100
1111111011011100
1111110111010111
1111111100101001
1111111011000111
1111111011110000
10100101
1111111011101111
100101001
111000
1110010
1111111110000001
1000101
1111110110001001
10111100
1111111010010000
1111111100011101
1111110111000101
1111111000100100
1111101110100100
1111110101110010
1111110010110110
1111111011110000
1111111011011011
111001100
101010101
11111
1111111111000110
1111110000111101
1111111001111000
1111110100110010
1111101111110111
1111110101010111
1111111100100000
1
11101010
1111111110001000
1111111010111011
1100111
100011000
1111111011000001
1111111010110011
1111111100100000
1111110010000110
1111110000101000
1111110000011011
1111110110110001
1111101100001110
1111101010101111
1111101100110010
1111110101100110
1111110011010110
1111111100101100
1111111010011110
1111110100000011
1111111010000101
1111101100010111
1111101101000011
1111110110000000
1111110100001100
10110111
1111111000000111
110100
1111110101101001
1100010
1111111111010011
10000001
1011101111
11110011
1111000
100110
1111111110010100
1111111000101010
1111111011111011
11010111
1111100
1111111110011110
11001111
1111111111110101
11010110
1111111011110101
101000111
1111111101010110
1111111111100010
1111111001011010
1111111011100010
1111110110010000
1111110001111111
1111101011001011
1111110100101110
1111111101000000
1001101100
1111111000001100
1111111011111110
11101001
101101010
101110011
10110000
110100011
10100011
110101
1111111110011000
1111111000101101
1111111000001110
110100011
1010101111
1111
1111111111000011
11101110
101011000
1111111100100100
1111110111010001
1111111100111111
1111111000111011
1111110111000100
1111110011001100
1111110000000111
1111111011110011
110101011
1111111100010101
1111110101011100
1111111110111101
1111110100110100
1111110100101000
1110010101
1111111110001101
1111110011011100
1111110111001011
1111111000111000
1111111100110111
100001
1111111011111010
10100100
100000000
11010000
1111111101111011
100100001
1011010000
111001110
111011111
1101010
1111111111101110
1111111111101101
1111110001100000
1111110110101100
1111110101111100
10011000
1111111101011001
1111111101001110
1111111010110100
1111110001100101
1111111111011100
10000011100
11
1111111010011100
1111111111000110
1111110011101100
1111111100000001
1000
1111111111100111
1111111110001111
1111111110000010
1111100
1111111101000110
1001000111
1001010110
10111
111011
10110101
110001001
11011
1111111011000111
1111111100110011
1111110110011111
10000001
101011100
1000110
1111111011000110
1111111010010110
1111111010010011
10001010100
1011101010
10010100
1000111010
110100011
111100001
11110111
1111111111001101
1111111111110111
1111111110011101
10000010
1001010
101101111
100111100
11
1001110010
1010101100
1111111100010111
1111111100111001
1111111001101100
1111110000100011
1111110101000000
1
1110110111
110001111
1111111000001111
1111111001001110
1111110010110101
1111000110
1010111110
1001100111
1111100001
10000110010
1001101101
1011010100
1110001101
1100101
110000011
1111111101101101
10
1010000101
100011101
1000111001
10001
110111001
1101101
1111111011111111
1111111100101011
1111110111101011
1111110100100011
1101011
1110001000
1111111010111010
1111111001111111
1111111011010110
1111111011011001
10100000011
1101101010
10100101011
11000101100
10011001001
1000110000
1000111010
100101010
1001111011
1111111110000010
1111111000100011
1111111100101001
1010010100
11000
100010000
1001000001
111011110
111011111
101110
1111111010110110
1111110011101100
1111110100010001
1111110100010001
1000
1001101100
1111111010101101
1111111100000101
1111111000101001
1111001110
10100011010
10110001000
10100001100
10100000001
111110100
101111110
1001011
1111111101001110
1111111001011011
1111110100110010
101100000
1101100011
111001010
1000011101
1001110000
1101011011
10000111000
10100000
1111111110000101
1111111001110010
1111101110010110
1111110101101011
1111111101011000
1001011011
1111111011010101
1111111010100001
1111111101010111
1001001101
10100110001
1101101111
100000001
100010111
1111111110001011
1111111101001100
1111110000101101
1111101001110011
1111101100100100
1111110001100000
111111111
1001111000
1110001100
1101110010
10001000111
10000110011
1110110110
110110100
11101000
100011111
1111110010101110
1111111010011101
1111111101100111
10000000111
101101100
1111111111110000
1111111011110100
1011001000
1110000111
1111111010011001
1111110110010000
1111111011000110
1111111010101101
1111110011011000
1111101000101110
1111101001000001
1111101110001100
10001010
10001100111
10101101010
1111011011
10000111111
10000101010
110100111
110100010
10011001
1111111001100110
1111110111110010
1111101101010100
100000
10001110010
1010000011
1111111111010111
111000
1111110111010100
1011100101
11111100
1111101010110101
1111101111110110
1111101011011010
1111101011010011
1111100110000110
1111110000100110
1111101101110110
1111111000111100
1001011111
1011000010
1110110000
1110010000
111011101
1010000110
1111111011110011
1111111011010110
1111110111010111
1111110000100101
1111101101011101
1111100101011001
1000101
11010011011
1001100001
1111110110011000
1111111001111110
1111101110100001
1100110
1111111110011000
1111101000110110
1111100100011101
1111100110011010
1111101010000110
1111110011001101
1111110001000001
1111111011011000
10100000
1101100010
10010010110
1101010001
1101011101
1100010
1111111000110110
1111110110110001
1111101011101111
1111101011111110
1111101011111010
1111100110011111
1111101000111001
1111110111011000
101111001
1001010110
111111100
1111111001110000
100111
1111111110110010
1111110100101011
1111100011010000
1111101001110101
1111110001010100
1111111000110001
1111111100011100
10101011
100100
1001111
1011001110
1111010110
1001100011
110100
1111111000011101
1111111001010111
1111110001110111
1111110001101000
1111101110110011
1111110001100110
1111101011101001
1111110100110000
1111111000110001
10001110110
1001011001
1111111101110111
1111111111110011
1001001110
1111111000011101
1111101101110110
1111100100011100
1111101001010001
1111111011000010
1111111111100001
1111111111110100
1111111011010111
1111111110010011
110000
1100011000
111010110
101101011
1111111100101000
1111110010101011
1111101111100110
1111101111000010
1111101100010011
1111101111100011
1111110001000101
1111110011101010
1111110100101000
1111111010011110
10000011101
110110011
100110000
1111111
1001010011
1111111000111101
1111101001110011
1111101001001011
1111110000110110
1111111011000111
1111111001100100
1111111110000010
1111111100110011
1111110110100001
1111110110101010
1111111100100101
100011111
1111111111001000
1111110110000000
1111111000100000
1111111010110001
1111110101011100
1111110100100101
1111110101100010
1111111010000010
1111110011011011
1111111001011100
110011
11001011
101110011
1111111111110000
1111110111101111
1111111010100111
1111111011111101
1111110000010111
1111110011000010
1111111100101111
1111111100011011
1111111011100010
1111111000001001
1111111100001000
1111110001011000
1111110101010101
1111111100101101
1111111100100110
1000111
10110010
10001100
1111111101000000
1111111100001111
1111110111111011
1111110010101111
1111111011111011
1111111010001000
1111111101100111
101011100
1111011101
1111111111010001
111001
1111111111000110
1111111000110101
1111111000111111
1111110110011001
1111101111101111
1111111100010010
11100011
1111111110010100
1111111100010101
1111111010111011
1111101111111000
1111110111110101
1111111100011111
1111111110001000
1111111011010110
1111110
11000101
10011000
1111111101001011
1111111101010100
1111111001110011
1111101
1111111111000111
1001100100
10000110
1001101100
1111111111101001
1111111100010010
1000100010
11000111
111100100
1111111011101000
1111111111011000
111110011
11010010
1111111101110011
1111111110110011
1111111001110101
1111111001011010
1111111000110010
1111111100011110
1101101
10111
10011
1111111101010011
1111111111010110
11011010
1111000
100010100
1111111000111000
1111111101000000
1111111100110111
1111111011101000
1111110100001000
1111111011100100
1111111100011110
10011001
1011001100
1
10000100
101011010
1110010111
1010101001
100111101
10011111
1000000
1111111010100111
1111111010000001
1111111110010111
1111111111101100
1010111
11111
1000001
101101111
11000111
1000001
101011000
101111000
1111111111000000
1111111010101110
10000011
1111110111000001
1101110
1111111110111000
1111111101011111
1111110110101111
1111101111011111
1111110001111011
1111111000010110
100000010
11110101
110011101
1111111110011001
1111111011010010
1111111010001010
1111111111001001
10000100
10101001
1111111111111110
1111001
111101100
1011000111
1010111110
1010000001
110100011
101110101
110110000
111001011
1111111001111110
1111111101101001
1011110
1111111100010101
1111111100100001
1111111111000001
1111110100000010
1111111001000000
1111111010110100
10111110
100000
1111111111100101
1111111111000110
1111111000110010
1111111111001000
1111111100010110
1111111100000111
1111111011110000
1111111011100000
1111110110111100
11100
101001
111101111
1000111011
1001001111
1000000001
1100011100
11010100
1110
1001100
1111111110001010
10100111
1111111101010010
101111011
1111110011000111
1111110011111010
1011000111
1001111110
1101111000
10001010101
100110110
111000111
1111111110011000
1011001
1111111010001101
11110100
100110
100100
11011001
10011111
101101110
1000001110
101000011
1111111100100011
1111111010010110
1111111100110000
1111111110100011
1111111011001011
1111111111011110
10011010
1111111111101000
1111111101110100
111000100
111000000
1101000000
1111010011
11000110100
11011000010
10101101111
1010111111
1111001
10000
1010101110
10010000100
1000110010
1000110111
1011101111
1001010100
101010011
1101111
1010011110
1111111111110010
111101100
11101011
1111111111100101
11011101
101000110
100110011
110110
1111111111100101
101000100
10101100
1111111010000101
1111111110110100
10000000
110100001
11101001
110110111
1111111111110110
10011110
1111111011010101
10011111000
1010001011
10100000
111011101
1010111101
110111010
1101111
101000010
1010010111
1111111111101100
1111111110111101
1111111011110010
101010
100101001
