1111111101001110
11110000
1111111010111110
1111111110000000
1111111100001111
1111111011111100
1111111111110010
1111111101100100
1111111110010010
10001111
100000010
1111111011111001
11000010
1111111011010111
1010011
1111111100001110
11100
1111111011011011
110011
100011
1111111011000001
11100110
10100110
1111111111011000
1111111101111110
1111111111101111
1111111101010011
100110011
1111111101110011
1111111110010010
1111111011000101
100000010
100011111
1111111111111001
1111111100110110
1111111000000111
1111111111110100
1000001101
1001110001
1011011101
1001000010
1000101000
11110101
110101000
100110001
1101100100
1011110100
1111111110010110
1100010
10000
1111110101011000
1111111001000010
10011101
11110110
1111111101000111
1111101
1111111101010101
1111111111111111
1111111011011010
110001100
101010010
110110010
110100
1111111111100101
1001000
1111110110110010
1111110111000001
1111111001011110
1
1100001110
1111001011
1100001111
100111110
1101011100
110
111100111
100100010
10100111
1111111111101011
1111110011001111
1111111000011001
1111111111010110
11011101
1111111011010011
1111111011101000
100111111
1111111100100101
110000110
110100000
1111111001101100
1111111010011011
1111110100010110
1111101110010101
1111110100000111
1111101101011101
1111110010011001
1111111010101011
1101101101
10000001001
1100101100
10000100010
1010111110
1001001011
1100111011
1000100011
1001001110
1000100001
1000010010
1001111010
1010100
11011111
100001000
11101101
1111111100111100
1111111011011011
1111111111111001
1000111000
1111111001001100
1111111000010100
1111111110100110
1111111010101111
1111110111111110
1111111101111000
1111111011111110
1111111111001111
1111111010111101
1111111110000011
101001011
1111111110000110
1000110
10010
101010011
110110111
1001000100
111111001
10100001010
1001101111
110100100
1111111110111000
111110
1001101
1111111111101010
1111111101011110
1111111001101010
1111111000110010
1111111111110000
111110101
100110
110001001
1011111101
1101011010
110111000
1011000011
101010110
10111110
10110101
1111111011101001
1111110110111001
1111111001100011
1111111001111110
1111111100010100
11100
11011110
10101011
11111
1111111100101001
11011
1111111110001110
1111111010111000
1111111101100001
10101101
1111110000011111
1111111100101000
11001101
11100100
101000
111110010
1010011011
101101001
111110111
1001111110
111011010
111010110
1111110101001001
1111111001100100
1111110100100011
1111111101001111
1111111101111100
1111111011111001
1111111000000000
1111111101100010
100100111
100
1010010101
110010110
1111111100111001
1111111110010010
1111110100100101
1111111010011011
1111110001101011
1111110010001010
1100110
101011000
110111001
101
101100111
100001110
1100011110
1111011100
1010100001
10100000
1111111011011010
1111111011011011
1111111110011101
1111111001001101
1111111100000111
11010110
1111111110100001
1111111110111110
1110000
1001000011
1000011001
101101100
1111111010001000
1001001000
1111111101001001
1111111111101100
1111101110100010
1111100111111111
1111111111110001
1111111100000001
1111111010101100
1010101
101001
11111101
1111010011
10010011000
100000010
1111111000011010
1111110100001111
1111110110110001
1111111100111000
100001
1111111001011010
10110101
1111111100001010
1111111010111011
1111111001001100
1000000101
1110010100
1111111110011101
1111111000111110
1111111101111101
1111111010001010
1111111001000011
1111101101101001
1111110000001000
1111110111010000
1111111100101011
11011001
11000100
100111111
1010000111
11001000000
10110110010
101101111
1111101100100111
1111101011101100
1111110000011011
1111111011000101
1111111001101001
1111110110010001
1111111001100110
1111111011000001
1111110001111101
1111111010001100
110101111
100100000
1111111011101110
11010100
1111110111101100
1111111001000101
1111110101001000
1111110010100101
1111111000110101
1111111010101101
111000
10110110
100101000
1100100000
1011111110
11010000101
1011110010
1111101100010100
1111011101100100
1111101100101100
1111111010001010
1111111111001000
1111111011010101
1111110110110100
1111111000111100
1111110100111001
1111110001000010
1111101011101111
1111111010001101
1000001011
1111111111010011
10010000
1111111101011010
1001010
1111110011111111
1111111011101100
1111111011000001
1111111111110110
111000110
110001001
1100000111
1100100011
10000111011
1011001110
1111111111111001
1111100111010101
1111011111010110
1111110010011100
10001010
1000010100
101000111
1111111011001001
1111110101010110
1111111011101001
1111110100110000
1111110010001100
1111110110011010
1111111001110110
1111111001001101
1111111100110001
1111111101011001
1111111010010010
1111111101000110
10000
101011101
100010011
1110101000
10010000100
1110011101
1010101000
1001000111
10100111
1111110100011000
1111100010100101
1111100110010001
1111111001010101
101011111
110000110
11000100
1111111110100110
1111111110110010
1111110111101010
11000101
1001000011
1111110100011010
1111110100110101
1111110101100100
1111111110010010
100111
11100100
1111111110101010
110010001
10111010111
10001010111
10100100101
10000101001
1000111001
11100110
10001110
1111111011101110
1111110011011000
1111100010010000
1111100101100100
1111110110100101
1111111000110100
110101010
11101010
110010010
101101011
111111000
10001100011
1110011111
1111111000101110
1111101110110101
1111101101111001
1111111100010010
110110100
1110
11110010
1110010000
11000011111
10101001010
10010000111
1101000110
10101111
1000100
1111111101111101
1111110110110000
1111110011000111
1111100101110111
1111100110111110
1111110110101010
11000001
111111110
10100001
111010
11101010
1000001000
1011001100
1111011101
100101100
1111110100100000
1111101100110000
1111110101011000
10100100
111101011
1111111101001101
1111111
1111110111
1110011011
101110011
1000000110
101000100
10000100
100010001
1111110110000001
1111110000111011
1111101010100000
1111100100000011
1111110011000111
1111111111000111
1011100101
10011011
1111111110100011
1111111111111000
10011010
100000100
110100100
1111111011101101
1111101111100111
1111110011001100
1111110100001011
1111111100011001
1111111110011010
1111110001001010
1111110010110111
1000000
100011011
10010101
111100100
11000001
1100111
1111111100000001
1111110110000110
1111101100110100
1111011110100011
1111100100000110
1111111010010011
1101111
1000110011
111110100
1111111111110010
1111111111110001
1000110
10101010
1111110111001110
1111110100110000
1111101101000101
1111101110101111
1111110100100011
1111111101000101
1111111100000110
1111111010000010
1111110001110010
10010000
110101000
10110
1111111011001110
101110011
1101000
11000000
1111111000111001
1111101001001010
1111011010100101
1111101100010111
1111111111110110
1100100000
1011101101
111010010
100001010
110001111
1111111110101110
1111111010001101
1111111000100110
1111110011111111
1111110110010110
1111101101110101
1111110011010000
1111111110000000
1111110110011000
1111110111011011
1111110101001000
1111111100111101
1111111100000010
1111111101011111
11111001
1111111100100110
100000001
1111111110111111
1111110111000110
1111100101110001
1111011010111110
1111111000010110
1110100001
10101101001
1001011001
10100011
1110000
110001011
110010101
1111111011000110
1111110011010111
1111110111001110
1111110110011000
1111110001101011
1111110101010100
1010111
1111110101011111
10101100
1001110
110011011
1111111010101010
1111111001011100
1111111010110101
1111111100011101
1111111110010100
1111111101111001
1111110011010101
1111100010011101
1111100000100001
1111111110001110
10000100100
11000001111
1010101100
11111101
111100011
110101100
1111111110010100
1111111100011111
1111110111010001
11001010
1111110100010011
1111110100101111
1111111000000000
1111111111100010
101001110
1000100001
101001101
100100111
100110001
1111110101000001
1111110111001100
1111110111111010
1111111010011100
1111110010110110
1111111000001111
1111101101011100
1111110011101011
1011111
10010101110
11001101010
10000101000
110011001
1000000101
11110010
1111111101001011
1111111110111111
1001111
101100101
100000101
1111111000100010
110011101
11100010
1111111110110100
1111101111001111
1111111100010001
100001101
111010011
1111111101100001
1111111001000110
1111111000001101
1111111101000100
1111110100001001
1111110110011110
1111110110010010
1111111111111011
1100001010
1101101100
10010111011
1011011100
1001011111
111101110
1000100011
100110111
1111111110001111
11111
1010110111
110110110
110100100
1110100
10001011
1111111100000111
1111101101010101
1111111000100010
1111111110011010
1111111110001110
1111110111011001
1111110100000010
1111111010001100
1111110111011101
1111110010010010
1111111000101110
1111111000010001
1111111111000010
1010011100
1010000100
1010000001
10001000011
1010111101
111000111
110110111
1000000011
11001111
10001100
10001110100
1111011001
1011001010
11111000
1111111100111111
11010101
1111111000001000
1111111110001011
1111110010100011
1111111000110011
1111110111101100
1111110110000100
1111101101101011
1111101101000001
1111110011010010
1111110001001110
1111111101111111
110001100
1000001011
1000010101
111111110
1011010001
101001101
100000111
1001100001
1000101
10101000
101101101
1101011000
111100011
101010100
100110111
10010000
1111111100011000
1101111
101100010
1111111010101100
1010101
1111111001111110
1111110110010111
1111110100001111
1111111110011011
1111110110111101
1111111100110001
100000001
1111000
10100110
11100111
11100010
1000011000
1000011111
110011111
1010110110
111100111
1101100111
1011101010
1011111
1111110111010110
1111111001100000
1111111101010001
1111111110001000
1111111101011000
1110011
10000110
0
1111111010010001
1111110110000101
1111101111110101
1111110000100100
1111110110000110
1111111010000010
10000000
1111111100110011
101101110
1111111001001110
1111111010000110
1111110110111100
10101100
111100
11000001
111100000
10101010111
10010101101
10110010010
111010000
1111111011100000
1111111010100101
1111111101101011
1111111100011001
1111111111111010
11001000
1111111110010010
1111111111100001
11001101
10011011
1111110111000000
1111111001001111
1111111011001101
1111111101011011
110100001
1100110111
10101
110100111
1110100010
100100100
100010110
101001011
110011001
1001101101
1110100010
1011010111
1000111000
101101011
10101000
11101011
11100110
1111111101110010
11101110
1111111111111011
10110110
1111111001010011
1111110011110101
10111101
1011101
1111110100101111
1111111000110000
11100110
1010000110
110110011
1000011
11010010
100110001
1111111100100101
1111111011100111
1111111111011011
1111111011101110
10101100
1111111110011110
1100101
1111111011011101
100
1111111101110011
111100
10111111
