11000101
1100001
1111111101101010
1111111100101010
10101010
1111111101001001
10001
1111111011010011
1111111101101011
1111111100011010
1111111100100100
1111111111100110
1001000111
101000111
1111111111101111
1001000
1111111110011111
1111111011100010
1001101
11001001
1101001
1010101
1111111011001100
100111101
10101101
1110111
111111
1111111011011001
10110
1111111101100110
10110111
110101
1101010
1111111100011100
1101111000
1000101100
1001110001
100011100
11010001
1111111111110000
101011110
10010000
1111111111111110
101101000
1011010000
1011110101
1111111101110011
11110101
10111101
101000
1100001000
110001011
1111111100110011
1111111111010010
1010011
1111111111100010
10111000
110
10011011
11100100
1111111100001111
1111111011101000
1000000100
101001000
1000111001
1100011000
10000101011
110111000
110101001
101000000
100111011
101110001
111011100
1010010101
1000101011
10000111
1111111001100101
1111110101101101
1111110111110111
1111111010110011
1111111111101111
1111111100111000
1111111100111111
101001000
1111111110000101
11010100
1111111001001011
1111111101010101
11011
11101101
100011000
1010101000
1101100000
10010100111
1111010010
1101110110
10001110101
10111101000
10110000110
10101111111
10010011010
111110101
1011000100
1111111110000000
1111111011011111
1111111110000101
1110100
1111111101010011
1111111101111111
1111111011011000
1111111010001000
1111111010110100
101110
10011010
1111110101000011
11011001
1111111000010100
1111111010010101
1111111100001110
1111111101000011
111111101
1000010001
1000001101
1100011000
1110000101
1011001011
10100101100
10000010110
10000001111
1111111100
1110101110
110110110
10110000
1101100
1111110111110101
1111110101111000
11000111
1010000110
111111101
1111110111111101
1111111101111101
1111111011110000
1111111100110101
1111110101011000
1111111100100111
1111111100011000
1111111100111101
1111111010000111
111000111
10110110
11010100
100101000
1101101
111000010
110001110
110100001
1001111111
1111110110
1000100000
1111101010
1100101011
10011100
10001101
1111111010010011
1111111010010010
1101101110
100101101
1111110101011000
1111111101100000
1100001100
111000
100010
1110011
1111111000010000
1111111101111111
100100110
1111111101110000
1111111110111010
10011010
100011
1000011010
101100100
111100110
111000011
100101001
100110111
110001111
10000001000
1000101100
1111111110001101
10101000
1111111101100110
1111111010110011
100110110
11100100
1111111110011110
101111
1100110011
110111011
1110
1111111011100000
100000100
1000011100
1001001001
1001110
1111111111000100
1011
1111111101000100
1111111011011010
1111111111110110
1111110111110010
10110
1011011101
10000010
1010100011
1011000111
11111000
10101011
1111
10111000
1111111110001011
1000001111
101101
101001
11110110
110011110
1111111101011000
1101111
1111111100111101
1111111100001010
1101111000
1011101110
110011100
11011011
1101101
11011010
1111111111110100
10101010
10111011
100100000
1000001001
11010111
1100001110
1101010000
1010111000
11101011
10101000
110100100
100100100
1111111110001000
100110001
111001101
100111011
101110000
1111111111100001
1000010101
111111111
110101001
1110010100
1000101101
101101111
11100111
110010110
110110011
101100010
1000010
110010000
11010000
1000001
110010111
11011
1001111001
1011111101
1101101110
111000100
111100100
10101110001
10111011000
10010010100
100010111
1001010011
110001111
1100111000
1010000100
1001011011
1011011110
10100011011
1000000111
1111111111110100
10011100
1101100111
110000010
1001001011
111011000
1111000011
1111111000101111
1111111110110010
111101
11110000
1101111
1000101000
1011011001
10001111000
11010010101
11101010000
1110010000
10100111100
101000010
1000000110
1011100010
1101110010
101101000
1011101110
1000000001
1011001001
1000001100
1110001
110110010
101001000
100010100
100000110
101100010
1111111000011010
1111111000010010
1111110100011001
1111110100111101
1111111111010010
1111111111010111
1111111110011111
110001111
10010101001
100000000110
100100000110
100000110111
10110111101
1011010110
110000011
110010111
1000011101
1000001101
1010111100
10011000101
11000001
1111110110111001
1111111101010001
1111111110010000
1111111101111000
1111111010100100
1111111001100111
1111101111010110
1111101110000011
1111101100111100
1111110001100111
1111110101011001
1111110101000110
1111110101011101
1111110111010101
1111111100110100
1101110110
10010000000
11100110001
11000010000
1111000010
1101010011
1111111001011110
100101001
111010110
1010110001
1010110100
1111111111110011
1000111
1111110100111010
1111111000111011
1111111111001011
1111111110100010
1111111011110010
1111110010100010
1111110000001010
1111110011001000
1111110100101110
1111110110101100
1111101111100100
1111101110110100
1111101100101001
1111110111110101
1111110111110100
1011011101
10011000000
10011001011
10011111110
10000110110
111100000
101011001
10110001
111000110
1100011100
1111111110000001
101111100
111010000
1111111111011101
1111111110100001
1111111111011000
1101111
1111110110001001
1111101111011100
1111110011110111
1111110010111001
1111110101000110
1111110000100111
1111110110100111
1111110011010111
1111101101011110
1111111111111000
1100011110
1101010101
11001001000
10111101011
10001000101
10001100011
100110110
11100001
1111111111000011
1111111101110010
111011000
1001001010
10101011010
1100011001
1000110001
1111101
10001011
1111110101110110
1111110010110110
1111110011101100
1111110110000100
1111111000000001
1111110110111100
1111110011011101
1111110100000000
1111111010010000
1111111000101100
101111001
10100111110
10000111000
11100011010
100001100111
10110111110
110111011
1010000001
1111111100011010
10111100
10101
10001011000
1111001000
11001100100
11011001001
1100100011
1010011
1111111010111111
1111111011010111
1111110010100001
1111110101101001
1111110111100011
1111110111100111
1111111000101100
1111111011011001
1111111001011110
1111111010101010
1010111100
10010000110
10011010101
10110011010
10110100100
11100010001
11001110100
10000100111
1000111111
10010101
1111111010000100
100011110
10011011000
10101011110
11011010010
100011000011
10111101111
1110010101
1011
1111110110110110
1111110111111111
1111110100101100
1111110110011001
1111110110001111
1111111101101010
1111111101010111
1001000
110001000
10000010011
11000001100
10001110110
10011001100
11100100101
100001011010
10100101100
1110111011
101110110
100010010
1111111001100011
1111111101101111
1001011111
10000110101
11101101101
100011001100
11100111010
10100010111
10010110000
111001000
1111111111101010
1111111101001001
1111110111000010
1111111000000000
1100
111101
110011111
1110000111
10001111100
10101111111
10011010111
11100111000
100000000000
11101000110
10101100011
1111111110010011
1111111101011011
1111111001111011
1010010111
1111111110111001
1111111011101101
111011001
10100001010
11011010110
10100111001
11100000100
11000100001
10000000000
11110010
10111
10
1000100
1111111111001110
1111111110111001
111000111
1111101110
10110001000
10110101001
10001010110
10100010110
11000011100
10110000110
1111010101
1111111100010001
1111111100101010
1111111110011100
100001110
1111111110101101
1001000
111011111
10000011000
111011011
10101010111
1111101100
10001011000
10000100010
1101111101
110100001
1000011011
10111
100110
101010011
110110000
1011100011
10010100000
10101110101
10100010110
1111111011
10110101100
1110010001
111000011
1111111110000000
10010111
1111111001111010
1111111011110001
1111110100001111
1111111011101110
110100011
1111111101100111
1011010111
1010111010
1110010
1000100000
110101
101100111
11101110
101101001
1100001011
100000011
101010111
1001000111
10010111
1111100110
10100010111
10001000111
1011011000
110000001
100100011
1000110000
1011000101
1101100
1111111101101101
1111111011000101
1111110100001111
1111111011111110
1111111110110011
1111111001001110
1111111011011110
10111100
1111111010110001
1111111111000011
1111111111110100
111111010
1001110100
1010010010
111001111
1000001000
1001111000
10010101
10000100
1001101011
110010000
1011100001
1101111100
111001011
100100111
10100110
1111111110000110
1111111110101111
1111111010110110
1111111100100110
10
1111111101010110
1000001
1111110110110100
1111110100010111
1111110110111011
1111111100000011
1111111011101011
1111111010011111
11101
101110
1011110111
1100100100
1000000001
11000011
1111111011011000
1111111010011011
11011
10000101
111001
110000101
10010110
1111111110100100
1111111000101101
1111110111010101
101001010
11110000
1011101
1111111110011001
1111111110010011
1111110110110010
1111110001100110
1111110110000011
1111110111000101
1111110111010110
1111111011010100
110100
1101101
1000000001
1001000010
110000010
1000100011
110100011
1101
1010111
1111111101011010
1111111000100000
1111111000110110
1101001
1111110111000011
110110110
1101110
1111111100011101
100110011
100101000
1111111101001011
1111111100101000
1000010001
1111111001110000
1111111000001100
1010000
10111
1101001
1111111110010101
101101000
1111111110011001
100001110
1011101
101000110
1011011001
100100010
11011100
11011
1000101011
1111111100000111
101100
101010011
1111111011111111
1010011
101100110
1001101
100110011
1111111101001110
1111111111011111
11011011
1110
1111110100000011
1111110101100000
1111110100111010
10111
11100110
100000110
1111111111100110
10011001
110001111
10111011
1111111011010011
1111111101000100
1111111000101110
1111111110100000
100000001
111000101
1111111011010101
1111111111010111
101101100
1111110110010111
1111111111001011
11100010
1111111111110001
1111111100101010
1111111011111101
1111111011100101
1111111101101101
11010
101110000
1001100010
11000001
1001001001
1010001001
101101101
1101110010
101010011
11111100
10110001011
1011010000
101100101
110011
1001001111
1111111110011010
111010100
110010001
11101010
10010101
1111111110101000
1111111100001101
100011000
1111111111011011
100110010
