1111111011101100
1110111
101001011
11101111
1111111100000001
110111
1111111101111000
10010000
1111111101010101
11010101
1111111110100001
1010110
11100100
101011110
1111111011111001
1111111011000110
1111111111100101
10100111
1111011
1111111010111101
1111111011010101
11000100
10110010
1011110
1111111101100111
11111011
101001100
11001000
1111111110001001
110011
10000010
1111111011100100
101011100
1000000
1111111110101000
1
101110110
11001111
1000010101
1111111100011010
1101011
1111001
1111111010011110
1111110100001111
1111111011111000
1111111111001000
110001000
1111111110011001
1111111111001010
110101100
1001100001
101111111
100010110
10101101
1111111110001011
1111111110001001
1111111101110110
11101
101111101
1111111001101100
1111111101100101
110111100
1010001000
110100
1110001000
1101111111
1110011001
10000100100
1100101010
1111111001110100
100110001
1111111010110101
1111111111110000
1100110100
1000111101
1110101111
110100111
1001110001
1100110011
1111111
1001101111
10111010
1110001
11010111
100000010
1111111101000001
1111111101010100
1111111001100000
110100110
1111111111010010
110101000
1001000100
1111111101101101
100001010
1000110000
10011100
1111111101100001
1111110111100111
1101111
101101001
1111111101011111
1111111100100001
1100111
1010011
101101100
10000100111
111101111
10111010
1011101011
1000111010
1001110011
100000001
1111111100101101
1111111100101100
1111111010111000
1111111110101011
1111111000001010
1111110111101001
1111110101111010
1111110010101011
1111110011101101
1111111001010110
1111110100000010
1111111010100100
1111110001111000
1111110110110100
1111110100101001
1111110110000110
1111111001110000
1111111100111000
1111110101010101
1111111100001001
1111111011010100
1001
110001111
1100110010
1001001000
101010011
1111110111101000
101010101
1111111011111111
101001
1111111100010111
1111111100100100
1111111110010001
1111111000101011
1111101110111010
1111111001011010
11101001
1111111101111010
1111111001100001
1111101111100110
1111110110001010
1111110010010011
1111110011011111
1111110110111001
1111111100101101
1111111011010011
1111110010011010
1111110100110110
1111111001100001
1111111100010110
10010010
1010111010
1000011100
101000000
110101101
1001010011
111101
1111110111010100
10101000
100001010
1111111101111100
101000000
1111111011100110
10010010
101100100
10100100
1111111110010011
1111110111001010
1111111000111101
1111110101111011
1111111001111010
1111110101011101
1111110100111011
1111110110010111
1111110110110100
1111110010110100
1111101111110110
1111110011011111
1111111001001111
1111111111100100
110100010
10010111
1001010100
101011000
110000000
10101
1100011
110010100
1111111011110010
101010100
100111100
1101000
110001100
101000000
10
1111111010001010
1111110110000100
1111110001011100
1111110110010100
1111111000010110
1111111100001110
1111111101111010
1111110010110001
1111110001111010
1111111100001101
1111110101111101
1111111100100010
1111111011101001
100100001
1111000000
111000011
1111111101001111
1111111000000111
101010100
1011100010
1111111000110000
1111111011111110
100100110
100001001
100
111110011
1100101
1011110
1111110110101011
1111111001001110
1111110101100000
1111111001011011
1111111001010101
1111111000011111
1111110100100001
1111111011001001
1111110110001111
1001000
101011
1010001
1111111101001111
111101111
1100001000
1111111101011100
1111111010001001
110000000
101001101
1111111111110110
1111110010011101
1111110110011101
1111111011111010
1111111100100001
1111111101001110
1111111100000110
1111111001000111
1111111110001010
1111111011000100
1000110
1111111100000011
1111111101010110
1111111001001100
1111111011010001
1111111001101001
1111111010000101
1111111101000010
1111111010101001
11011110
1111011
1111111110001110
1001001100
1110001011
1111111100101110
111011110
11110100
1000100011
10001101
1111111110111100
1111110100100010
1111111011101011
1111111000110011
1111111101000001
1111111011011010
1111111001110010
1111111000100000
1111110110110001
1111111111000010
111011100
1111111011011011
110110001
100011000
1111111101101101
1111110011000100
1111110110101011
1111111110101010
10101011
1111111101111100
1111111011000100
111010001
10100101110
1100100001
10000001
1010000000
1111
1010111001
1101010
1111111100000010
1111110111101111
1111111011111001
1111111000111001
1111111001000111
1111111010111100
1111110101101001
1111111100011001
100100001
1111111110100011
10010
110101110
10100001
1111111101001001
1111110011010010
1111110011000011
1111110010000110
1111111001100001
1111110010001010
1111111000111000
1111111111010010
10101011
1111110111101001
1111111011011101
100111101
1001111100
1010110101
11010100
1111110010011000
1111110010011101
1111110000110100
1111111110010101
1111111101111100
1111110010110111
100110100
1100110110
1101111101
111011101
100000011
111110111
1111111101010110
1111111000100111
1111110100111110
1111101110111000
1111101110110111
1111100111111111
1111101011111011
1111101010000010
1111110011110101
1111110
1111111110110101
101111000
1111111110100001
1011110000
1010111011
10011000
1111110001110011
1111111001101000
1111111101100110
101011
1111111000000000
1111111101101000
111111101
11001110011
10010110110
101011000
1111111100100010
101000001
110011011
100111110
1111111110010000
1111110110010000
1111110011010000
1111110001101101
1111110010011111
1111110010100001
10001110
110100011
1111111110000100
1111111000011101
11010010
1111111111111011
111110110
11000111
1111111000011101
1111111100010111
1111111100110000
1100010
11110011
100110101
1101011010
10110001111
1110110101
1111111110010111
1111111101001001
110000
1101100000
1111010111
111110010
1011101
1111111111100110
1111111110000101
1111111101111101
110000011
101010001
1000001111
1111111101101100
1111111111001101
1001101
1111111101100100
1111111110101000
1100101111
1111111111100110
1111111101100110
110010110
111011
11001111
111110101
10001000000
10010110101
1011100111
1111111101001111
1111111001011110
110110011
1010011010
10111110110
1010100010
10110000
1101111
11010
101100001
1010110100
11000010
1010111111
1000000100
1100
1111111101110011
1111110110101100
1111111101001111
1111111101011110
1111110110100100
100010100
1100011001
1001001100
111101
1111111110010000
100001101
110111010
11110110
1111110110010000
1110001
10000001111
1110110111
10111101100
10010000100
1111100011
101111011
1011011010
1101010011
1001101
1111111101110110
1111000011
1111110101
111001110
1111111011110101
1111110010010010
101001
1111110110101101
1111111100101010
1101100011
1100010101
1011010
1000011001
101100100
1111111111110011
1111111101110001
1111110110110110
1111111100010111
11100010
1111110000
1111111001
10101001100
10001000011
110001101
1001100100
1101111100
101110
1111111011001111
110010110
10101010110
1110110111
1111111010011000
1001101
1111110110101110
1111111110111000
1111111001000110
101000100
1011011011
1000101010
101000000
1111111111110010
1111111101000010
1111111100110100
1111110110100011
1111110111111100
10000010
1000000100
1000010010
1100110100
1011000101
1010110010
1011111
1111111010110100
10000110
1111111011100010
10110
111100111
100111111
101000110
1111111101010100
1111111111101010
1111111101000110
110111101
1111111110010001
10010100
1111111011000001
1111111110101010
10010000
1111111011011010
1111111101010001
1111110011111100
1111111100011101
1111111011000110
1111111111010000
1110100100
1010110110
11101000
1111111111101001
1111111100010001
1111110011111110
1111111100011001
1111111100010010
1111111100000111
1111111101011110
101011000
1111111111110110
1101001
1111111101000100
1001011
1111111001110011
10010110
1111110110111111
1111111011110101
1111110100110101
1111110010110001
1111110100010101
1111110001100110
1111111001111101
1111110011110110
1111111010000010
1111111011000001
11010
1111111111001011
1111111100100010
1111110111111101
1111110001110110
1111101111001011
1111101001100110
1111101000000001
1111101111001000
1111110010010011
1111111100111011
1111111111011010
1111111111111101
1000110001
11001
10011001
100010110
1111111011001110
1111110101011000
1111111000110101
1111101110000111
1111101100100000
1111110010000110
1111111001000010
1111110011111001
1111111010100000
111111
1100111
1111111111110000
1111110111100001
1111110111010011
1111110101010111
1111101111110101
1111100111000011
1111100101001001
1111100110010100
1111110011000011
1111111011111111
1111111100010000
10110110
1111111111001110
1111111101001111
1111111111101011
1111111101000100
1111111101011110
1111110110111111
1111110110010011
1111110111101011
1111100101101101
1111101010111000
1111110011010000
1111110111110001
1111111101100010
1010001
11000101
101100101
1111111101110100
1111110110001101
1111111010000011
1111110010001000
1111100111100001
1111011110011111
1111100111010111
1111100100101001
1111110010101111
1111110111101001
1111111001111001
1010001100
1000111101
10100101
10101000
1100000
11101101
1111111011111100
1111111111110001
1111111010110110
1111111011001101
1111110111100100
1111110100001100
1111111110110011
1111111101010001
1111001
1111111100110000
1111111010110011
1111111001100010
1111111000001000
1111110011101111
1111110100000000
1111101001101001
1111101010100000
1111101010010010
1111100101110001
1111101101100011
1111110101010100
1111111101011011
1111111111100011
1100110100
1101100
1111111011110000
10100010
111110
1111111111011010
1111111100100111
1111110100100111
1111111111000101
1110000
1111111111010111
1111111111010011
1110
100111110
100000100
1111111100101010
100101011
11010111
1111111000100101
1111111001010000
1111111010001010
1111110101101110
1111101110111111
1111110110111011
10100001
1101011
1111111010001111
100000100
1001111000
111101001
1111111011011000
101
100101101
1111111001011100
10101110
1111111100011101
1111110110000110
1111111000100010
1111110100101000
1111110100001010
1111111100100110
11000010
1001010110
111111000
100111001
10000110
1100111100
100100011
1111111011100011
1111111110011000
1111110101000101
1111110101010110
10110001
111100010
111011111
10101101
11010001
101000110
11010100
10001101
10010100
1111111100001011
1111111110001110
1111111001100100
1111110101010010
1111110100110101
1111110111101010
1111111011001101
1111111010000110
11001110
110101
10000111
1111111100111100
10000100
1001001001
1111111010011100
1111111000000100
1111110001110011
1111110111111110
1111110011111010
1111111001100001
100111001
1111111000111000
1111111100011000
10111111
1111111110000100
1111111101001101
10010
1111111100001111
1101010
1111111011101100
11011100
1010101111
10010010
1101001
1111111110011110
110001110
1001100000
1111111111111011
1100000
10000111101
1111111010011110
1111111101101111
11111110
101000000
1111111111001111
1111111110010110
1111111110101011
1010001001
11000101
11111101
101000000
101001
1111111100011111
111000
