1111111100100010
10110001
100001100
10110001
1111111111111100
1111111110001011
11001111
1000101
1101110
1111111110101100
1101000
1111111100001001
1111111010111100
1111111010110011
1111111010100100
1111111010011100
1111111111010111
100000100
1111111111100111
1111111111100111
1111111110000101
100100011
1111111111100100
1111111111010010
10010111
10000000
11110101
100000001
100010100
11111011
1111111111011101
1111111100001101
1111111011011010
1111111100111000
1111110110000001
1111111000010100
1111111100100110
1111110011001001
1111111000001111
1111110101101101
1111101111110011
1111110011110111
1111111111001000
1111101101110010
1111111000010010
1111110100101000
1111111000010111
1111111001100100
1111110011110111
1111110101011000
1111111000000111
1111110110100011
11010
1101000
1111001
10001010
11011010
1111111110000010
1111111011101010
1111110110011001
1111101111110001
1111111101011110
1111110001100100
1111110111101100
1111101101010100
1111100011110000
1111100111101001
1111100101011011
1111011001000001
1111100011100100
1111100111100101
1111100110010101
1111100110101101
1111110100110110
1111111001100000
1111111010100011
1111110010111100
1111101111111000
1111110111011011
1111110010110001
1111110011101110
1111110101110000
1111111110010001
1111111011011100
10100100
11110010
1111111100101000
1111110010111010
111111011
1111110100110011
1111101110010110
1111110101110100
1111101010000000
1111011111000000
1111011110010100
1111011101000010
1111100100101100
1111100010111000
1111101010101001
1111110010110100
1111101101010001
1111101101100001
1101001
1111111110100110
10011111
1011011111
1001101001
1111111100010110
1111110100101000
1111111101011110
1111111100101001
1100011
1111111110010000
1111111101111011
11010001
1111111000110011
1111110100010110
1111101110010110
1111111000000001
1111111011111000
1111101110000110
1111101111010001
1111110100010101
1111111101000100
1111111111010001
1111111011001111
1111111010000010
1111111100010010
1111111001111001
1111111101000011
1111111001011100
1111111001100100
1111111001101000
100010
10000111
1010111001
1011110110
1111011100
111000100
1111110111011001
1111111110001001
1111111101011111
1111111101101011
1111110001011110
1111101100101011
1111101110010010
1111110111010100
1111111100000011
1111111011111110
1111111101011100
1100001110
1100001100
1000000011
110000
1111111110010111
1111110110100001
1111110001101101
1111110101010111
1111110011000001
1111110011011111
1111110101100001
1111111110101110
1111111010000101
1111111110111010
11111101
1110101111
1001110
1111111101111110
1111111111010100
1111111010001101
101011000
1111110011000010
1111101101010101
1111111100011100
1111111001001001
1111111101011010
1101011
100110100
1001001111
1000111111
10111010
1111111110100010
1111110
1000100
1111111111111110
11111
100110010
1000011110
1111111001100111
1111111100110000
1000
11000110
10110010
1010000100
1100111111
1111111110110101
101010011
1111111011110011
100101000
1111110100011000
1111100101000101
1111110010010000
1111111000110000
1111110111100011
1111111111110011
1000001110
100010100
11010100
1010011
1111110011111001
1111110111001100
1111111011100000
100100101
110111010
111011000
111100001
101001010
101010111
10011100
1100010000
1001111010
10000101011
1110110110
1111111001000110
1111111110011110
1011000
1001010101
1111111110100011
1111100100110011
1111111000000101
1111111111100101
101001011
1000101001
1001010000
101110110
1111111110110010
1111110110011110
1111101101011000
1111110101101000
1111111010101000
1111111100111000
1000111111
1010010111
110100101
111011
10000111
10011011
1111100111
100000010100
100100001110
10011100011
10101110
101000010
10101111
1111111101010111
1111110111000010
1111101101001001
1111111001011100
100101101
1011001
1111001
1010111000
1011011010
10000000
1111111001011100
1111110001111111
1111110001111000
1111110100111001
101
1011101
1100001001
10110001
1111111111001101
1111111110011101
100010100
1010101001
100011100110
100011110000
11010110011
1000011110
1111111101111000
100010000
10010100
1111110010100110
11100001
1000001101
1011110010
110111000
1011100110
10100100011
10011001011
1100101100
100001
1111110000001111
1111101110101100
1111111010111001
1111111001100111
1111111011001101
1000010111
111100011
1111111110011010
1111111100110101
1010011000
1011110110
100000011010
11101110110
10101111101
10000010
1010100
1111111110000101
110100110
1111111010111010
11100110
1010001000
10110000100
11001001100
11011011010
11101111010
10100100000
10100011100
110010100
1111111100110001
1111111010111000
1111111011000111
1111111100111000
10101010
1010010011
1111111101100010
1111111110100111
1111111110111010
1011100
1001000001
10010100110
10010100101
10100101111
11001001
100100001
1110011
1100001110
1001111100
1101101110
10110100111
11000100111
11100010110
10111000000
10111011010
10100011011
10101101100
100111000
1111111111010101
1111111010000100
10001001
10100010
1111111111111001
101011010
1111011
11111111
1000100110
1111111100001100
1111111101011000
1111110010000001
11011111
10010001100
1111111111111011
11101
100100101
100110000
1011100011
10001000001
10000101011
1111010101
11100111010
10000001001
10000100111
10011000100
10001000011
101000100
1111111100011001
1111111100111110
1111111111101011
1111111101011000
111100
1011001
1000110010
1001111001
1111011
11101100
1111110110101000
1111101011011111
1111101110101000
1111110101110000
1111110101110100
110111
11010111
100001101
1111111110010001
110110000
1010001111
1011001110
1000000001
1011001111
110101101
10000111101
1101111011
1111111110110110
1111111100110011
1001101
1111111111100001
111111000
1000110001
1110000
11011111
101110001
1111111111010010
10110001
1111111011011111
1111110111001110
1111101110100100
1111101110110101
1111111001111001
1000111110
1111111101000111
1111101110011010
1111111111111100
1100110
1111110100110000
1111111100010011
1111111010100101
1111111100011001
1111111111010001
1111111110110010
10000000
1111111001011111
1111110110011001
1111110111111101
1111111010000010
1111111100011101
101000111
110001111
1111111111010011
1111110110100111
1111110111111010
1111110100110000
1111111000001100
1111110101100001
1111100111011001
1111101111100111
1111110110111010
1111111000111000
1111111100011000
1111110010010100
1111110111001101
1111110101001011
1111110111000100
1111110100001010
1111110011110000
1111111000100011
1111110000111101
1111111000110010
1111110111001111
1111110110011101
1111111101011010
1111111011010110
1111111011101011
100111101
110110010
1111111000011111
1111110001110111
1111110110101110
1111111010001101
1111110010010111
1111111011011011
1111110000010111
1111100011011100
1111101000110000
1111110101001000
101000001
1111111000011001
1111110011111011
1111110100011010
1111101110111010
1111111101101011
1111111100010101
1111110101001101
1111110111101000
1111111000110111
1111110011101001
1111111100100111
1111111001001101
10100101
1111111110001010
1010101
100110001
111101
1111110110101110
1111110101100100
1111111000111011
1111110111101101
1111110110110100
1111111100100010
1111111001110000
1111101101101001
1111110010100010
1111110011101110
1010101011
1111111101100000
1111111001101000
1111101111010010
1111110010110000
1111111110000101
1111111100001110
1111111100111000
1111111101100111
1111111000100011
11100111
1111111111001111
11010000
1100101000
100110010
1111111001111010
1111110111110010
1111110111011010
1111110011110000
1111110011111110
1111111001011110
1111110010000001
1111110001101011
1111111101110010
1111111110110000
1111100101000010
1111111111000011
1111111001000000
1111111000100101
1111111100000110
1111111110000011
1111100111110000
1111101001110011
1111110111001001
1111110110010001
1111110110010010
1111110111100110
1111110100011000
1111110110100101
1111111101010010
1111111111110011
100101111
101011
1111110100110011
1111101011011001
1111101100001101
1111110101000111
1111110110111010
1111111001101011
1111111010010110
1111110110001001
10000011
110001011
1111110100101101
1111110100101010
1111111110110100
1111111100010010
1111111011001011
1111110010100000
1111101101001001
1111100011011111
1111110100000110
1111101111011100
1111101111101001
1111110110011100
1111111101100101
1111110100001100
100
10000110
110001010
1111110111111110
1111110110010001
1111101111111000
1111111000111001
1111110000111010
1111110110001101
1111111000110001
1111111101111000
1111111101011101
1000111
110011010
1011000
1111110001110011
1111111111110100
1111111100001111
11000010
1111110010101111
1111110010000011
1111110000001100
1111110010101101
1111110111110101
1111110101101111
1111110111100000
1111111011001111
1111110100000111
1111111001110010
1111111011011110
1111111010010111
1111110110001001
1111110111000110
1111110010001101
1111111010010011
1111110001010100
1111110011010010
1111111110001111
110101110
111010111
101101001
111111010
1111111100111011
1111110010011110
1111111100111100
100001000
1111111010011100
1111110001000011
1111110101010110
1111111010011001
1111101010001010
1111101110010000
1111110101101000
1111111110000101
1111110101101010
1111110111110110
1111111101011111
1111111111110001
10101101
1111111001100001
1111111110010000
1111111001001001
1111111101100010
1111111000001100
1111111011011101
10101010
11011
110101101
1011111111
10011000001
1000100
1110111
1
100110
1111111110110111
1111110111110110
1111111010000011
1111111001000111
1111110010101000
1111110111011001
1111110101111101
1111111011111100
1111110011000001
1111111111111010
1111111011010011
10000100
110110101
100100
100101111
1000011
1111111111101110
1111110011001111
1111111101110001
100011101
1111111101101000
1011011100
1110101101
1110000100
11011100
1111111011010100
1111111111011011
10001111
1111111100001100
1111111100110001
1111110011010011
1111111000100000
1111111101001000
1111111100001011
1111111010000111
1111111000010101
111101
10101101
11001
1000111
10010011
100011001
1110
1111111100111010
1011100
100000001
1110010111
110111111
111000101
111111000
10000010010
1111111010100101
1111111001100110
1111111001001011
1011111
10101000
11001011
1111111010010001
11011011
111100111
101101100
1111111111110010
1100110
1111111000010101
1111111101100010
10000001
100001001
1111111111001111
1111111101010000
10010011
110010111
1010100100
1111001010
1011001010
110101101
1010010000
10010011010
10001001110
1010001010
111000110
1111111011101011
1111110111101101
1111111100101011
10001110
1111111011000110
11110011
111000100
1111111111001101
101110100
1001111001
11011010
1001011111
1010000101
1011000101
100101001
1110000111
1011010110
10000011010
1010011110
1010110001
11100010
111110001
110101100
1101111111
10110010001
1110010111
111111010
0
1111111111111010
10110
1111111101010101
1111111110100101
1111111011111001
1111111111110101
1111111011010100
1111111111011101
1101101
11111101
110011000
101110110
111111010
111101110
110111111
1110011111
10000001001
11000001001
10000000000
1001000111
1100011100
1001001100
111001000
1010110100
1011011110
1000010000
111110
100010011
1110100
1111111011100001
1111111011101011
