11001100
1111111100111110
1001111
101001001
1111111011110111
1111111101000011
1111111110000111
1111111011110110
11001100
1111111100101110
1111111010110111
100000001
10010010
1111111011000111
1001110
1111111110110110
11000100
10010000
10000101
100010111
100101
1010100
10001000
100111001
100101110
1100101
1111111110110111
1111111110110101
1111111011010111
11010001
1111111011000001
10000100
1111111110000000
100001110
111010
1111111110001011
1111111110011010
1111111110111001
1111111101101010
1111111101011101
1111111111011110
1111101
1011101101
1111111110100101
1111111001100001
1111111100101000
1010011100
1111111101001001
1111111100100110
101111000
1111111000111000
1111111101101000
1111111101001001
1111111111000110
1111111101111001
1111111101100011
1111111010111011
100011110
1101110
10010000
100101111
1111111110110110
111111010
1000
10001110
1111111100101101
1111111111001100
1111111010100101
101110101
1001000101
111010011
1111111111100101
1111111111111110
1111111100000101
1111111110101101
1001000011
10001011100
10001001100
1101111101
101011111
11110000
1111110111000111
1010
1111111100110111
1111111100001111
1111111111101000
10100100
10100111
11011011
11110100
111100110
1000001011
11110
1111111000101101
1111110110100100
1111110111111111
1111110110101110
1111110000010101
1111101110000010
1111101001110010
1111101000100001
1111101011011011
1111101111000000
1111110100100110
1111110111010010
10101000
1010010100
1111
110101000
1011011
10110101
101100
11011110
100100011
101101001
1111111110000111
1110010011
1000101101
1101100000
110110000
10110011
1111111110110010
1111111011110111
1111110011000100
1111111001001101
1111110001000001
1111101011111110
1111101010100101
1111100101110001
1111101001111101
1111101000010001
1111111011110101
110110101
1010001110
1000011100
1101010010
10110011
1111110011000110
1111111001010010
10110011
1111100
101001010
1111111011100111
1111110001001100
110000100
1111111110
10100111010
1100110111
101111111
1001001100
1111110111011001
1111111001110111
1111110101011101
1111101110101000
1111110110011100
1111111000100111
1111110100111101
1111101110110001
1111110110000011
1111101100111011
1111110101000000
1111110100001011
1111111101101110
1010000100
1011000100
1111111001010101
1111110110110010
1110110
1101111
1111111010011111
1111111110001000
1100111
1011010
1011100010
1001001110
1000101110
111011001
111110
11010011
1111111111111011
1111111001001111
1111111000101111
1111110110001100
1111110010000101
1111110001111101
1111110110011110
1111110101010010
1111110011011110
1111111100010011
1111111101110101
1011011
1100000
101011000
1111110111011010
101011010
1100110
100101011
1111111011111101
11010100
110001100
1000111
101110111
100011001
1101010100
100111
11000101
10011010
110
1111111011100111
1111110111110110
1111110110111001
1111110001001100
1111110001000011
1111111011100001
1111111011111010
11000011
10011
1111111011000011
1111111000100101
1111111101010101
1111110110101000
1111111001011011
1111001
1111111111111110
1111111101011100
1101101
10011001
1001110111
11010101
1111111111011110
1111111111000101
10101000
1111111011100000
10111011
1111111110111111
111001101
10101110
1111111101101010
1111111000001101
1111110111010111
1111110010010001
11011100
100000001
10100100
1111111111010011
1111111111011001
1111110111001100
1111111001011001
1111110001101001
1111111001100010
1111111101110111
1111111000101111
11111011
1010110101
110111
10000010
1111111111110010
1111111010000101
1111111100111000
1001011
1111111010010001
1100
1111111011101100
1111111110000001
100010
1101110
1111111000111110
11010001
11011101
11111001
11111110
111000
1100111
1000110
11001
1111110000111100
1111101100110000
1111101001010100
1111111000100110
101011110
1011010111
1000111101
1111111111011001
1111111101011101
100010111
1111111001000001
1111110111001111
10111010
1111111000011010
1111111011000100
1111111000000010
11101110
11100101
10011000
1111110110111110
111111010
1111100001
1011000011
1000010011
101001010
101111111
101100110
110010001
1111101000100110
1111100010001000
1111101111010101
1111110111111001
10001111
110011111
100001101
110000010
1111111111111110
1111111010100001
1111111111100111
1111111110011110
10001110
1100101
11111111
111101010
11010110
10010110
1111110100101101
10011101
1110111101
10011111111
1111011100
1110111010
111110110
100101001
1010101101
1000001101
1111111001101000
1111100101100111
1111100000000000
1111101011000011
10
110111100
1101100001
1101011001
1111111111101101
1111111101101011
110000001
110011010
1100110111
1000010101
1111111011110000
101000100
100111
1111110100010011
1111110011101010
1111111111000000
1100111110
1101011001
1111110101
1111101101
1000000001
1001001001
1110111101
111101110
1111111100010000
1111101000011100
1111101111110011
1111110110111110
1111111100100111
1111111111001101
1001011010
1001001001
1111110110011111
101001000
10101001
1001001111
110011001
1000000
1111111110000100
1111111111010001
1111110111100001
1111110011101100
1111110010111101
111000111
1101111101
1010000010
1011001001
1101100001
1010001100
10011000011
1111101100
1100110111
10110001
1111110111111000
1111101011011000
1111101001011000
1111111010011110
1111110110110100
111111000
1010100011
1111111100100111
10011001
110110000
1011101
111000100
111110010
10101101
1111111011111110
1111110000001101
1111111000101101
1111111101011000
1001111011
10000110000
1100111001
1010010101
1001111001
10110100111
10001100110
10001110011
1011011100
11001100
1111110000111100
1111110000111111
1111101100001111
1111111010100100
1111111110010010
1010101100
10011000011
1000101
1110010
111111100
10001100
111010010
1010011011
1000100001
1111111001010010
1111110110011000
1111110100001110
1111111011111100
10101110
111011010
111100000
1010101100
1110001110
1010011110
1111001101
10000001100
1000100100
1111111010011001
1111101100000010
1111101100010010
1111110101000010
1111111000011101
101010010
1111111011110101
1111111011110101
1111111001010001
1111111000011000
1111111111011101
110011100
10010011001
10100001000
111000010
10111
1111111000010011
1111111011011000
10100011
101110010
1001011101
111000100
100100110
1101101111
1100010100
10010010101
1000111101
101101100
1111101101010110
1111101011110000
1111100111110111
1111110101011000
1111110101111111
10010
11100
1111111011001011
1111110101111101
1111110111101101
1111111001111111
1111111001111010
100110111
10010111000
10000011001
111110111
11110000
101011110
1011000010
10011001111
1011000100
11011011
101101101
1010111110
1000110110
1000111110
1111111110011101
1111111100011101
1111110011110100
1111110001110010
1111111001100011
1111110111001101
1111111011110000
111100001
111000111
101111100
1111110100000111
1111110101001010
1111110101010010
1111110111100000
1111111011111100
1011100100
1110110000
1001010110
1001010101
10001000000
1110011001
1100101110
111001010
11111111
111100
1111010
110111000
1111111101111011
1111111001010101
1111110001000001
1111100100010100
1111101000111100
1111110001011101
111010011
1000010
1010110
0
1010100
1111111001100010
1111110100010110
1111110110110001
1111110011110011
1111111000011111
1111111100101100
1111110110110000
1111110101101011
1011110
1111111110100110
1111111010101110
11100100
110010001
1101
1111111101101101
1111110100001101
1111111010101000
1111110000111001
1111101100000010
1111100011110110
1111011111000100
1111100011111101
1111110010101000
1111110111100011
1000111
1111111101000001
1111111100001100
1111111111110011
1111110001101110
1111101100001010
1111100011100000
1111101111100011
1111101010100111
1111101111011001
1111101011001111
1111110000111011
1111110001100111
1111110011011000
1111110110000001
1111111011101011
1111110111110000
1111111111010000
1111111011110111
1111110001001001
1111110010010010
1111100111111111
1111100001101001
1111100000100010
1111100011101111
1111101100000010
1111101110110010
1111111111110110
101101001
1111111110111100
1111111011010110
1111111001001110
1111101000101111
1111101010001101
1111101111101000
1111101010000000
1111110001101001
1111110001001010
1111110010000110
1111101111110000
1111101001000011
1111101100001000
1111101001000011
1111110110101010
1111110011111111
1111110110001110
1111110011101000
1111110011010010
1111110101011100
1111101100001011
1111101101100100
1111101000011011
1111100101010010
1111110010101010
1111111100010101
1111111011000011
1111111111000101
1111111111001010
1001111
1111110011110101
1111101101000010
1111111000011010
10001100
1111111100101100
1111111011110101
1111110100101011
1111111010110100
1111110001110000
1111101011000010
1111101011011010
1111100111010001
1111101010010101
1111110011001010
1111110011111011
1111110001100110
1111110100110101
1111111101001110
1111110000100001
1111110101001111
1111101100001101
1111110010101111
1111111001001111
11010
1100111001
1111111110000000
1111111111010101
11101000
1111110111101011
1111110100011001
100011001
1100011010
110111000
110001011
1111111101100001
1111111101110011
110
1111111001000100
1111110010001101
1111110010001011
1111101101010111
1111110010111000
1111101111010101
1111110110000110
1111110111101111
1111110110110111
1111110111010100
1111110101010011
1111110010100101
1111110101010000
1111110101100111
101000000
111110000
1111111101101110
100010000
100100001
100010
10110
110110111
10001100011
1011011010
110111100
1111111110110011
1101100
111110
1111111110111010
1111110111100010
1111110010110111
1111110001111101
1111110111100011
1111101111010110
1111110100000011
1111110101110001
1111111001000000
1010011
1111111111000000
10111110
1111110101010011
1111110011010010
1111111100001010
1111111111100111
1111111111111001
100011001
1111111011111010
1111110100101000
101110011
1011111010
1110100000
1111111101001100
10001011
110110100
1000011001
1111111001111111
1111111110011000
1100010
1111111100100110
1111111101110110
1111110110011011
1111110100010110
1111110110110001
1111111010100001
1111111101100111
10100
101111
110010
111111
1111110010100010
1111111101101100
1111111011110011
11100100
11100110
1011
1111111101100111
1111111001100000
1111111001001111
101000101
1000110000
10100001
110000100
101011100
1010000010
1111111101100001
1111110111001000
1111111000000111
110110110
1011001001
1000101011
1100100
111000001
10000111001
11110
1001011111
100101000
10101100
1111111000111000
10100111
10000101
110101
1111111101011000
1111111110000101
1111111111001001
10000001
1111111110111101
100101001
1111111111010011
1111111011101010
10111010
11010
1111111110000001
1110000
11000010
1001001011
10100010
100111101
11000010
1001111101
1011101111
1100110000
101110010
1100000001
110001010
11110111
1111111101010011
1111111110011100
110010
10100010
