1111111011001001
100000111
100000110
1111111101110111
11010111
10010
100001100
100100101
1111111111110010
10111
1000
111001
1111111101001100
1111111101110000
10111001
100111011
11101101
1111111100111100
101000
1111011
11011110
110
1111111111110000
1101111
1111111110101011
1111111100001000
11
100000010
111
1111111110001000
1111111110111010
11011
10000100
11100
1111111010010101
1111110101000111
1111110111010001
1111110000100100
1111110111011101
1111110101101110
1111101011011100
1111101101011111
100000
1111111110000010
1111111100011100
1111101110011011
1111110000000100
1111110110000101
1111110111000011
1111110101111001
1111110111010001
1111111011011101
1111111100001110
10101101
1111111110010011
100000110
1111111100101100
11010001
1111111100011111
1111110101010101
1111101111110110
10
1111110001010111
1111110110010000
1111110011101011
1111111101111011
1111110000011110
1111110110011110
1111111010110010
1111111001010111
1111110111101010
1111111110101011
1111111010011001
1111111000101101
1111110111010001
1111110011011011
1111110101111101
1111101111011010
1111110010011110
1111110010100110
1110111
100110000
1111111111011000
1111111110010001
1111111110101010
11111010
1011011
1111111010110011
1111111100100101
1111111101011001
1111110101010001
1111111111010000
1111111100010001
1111111111111111
1111111111000011
1111111011100101
1111111100111010
1111111011100010
1111111010111111
1111111010000011
1111111101001011
1111110111000100
1111111001010001
1111111010000011
1111111000111000
1111111100110011
1111111010000110
1111111010111100
1111111101010111
10100111
1111111111000001
1111111100101100
1111111111111000
1111111111011011
110010011
1111111001110101
1111110101101100
111001
1111111110111000
101010001
1111111010001000
1111111011111101
1111111101011010
10100101
111000011
101001111
101110011
1111111111010010
1000100
11101
1111111011000011
10111010
10000100
1111111011101111
1111111110010101
1000111110
10001011101
1110100000
1011101001
10001100
11111111
1111111111010011
110101
1000111010
1111111001111101
1111111110011111
1111111101000001
1100
100011100
1111111100011001
1111111001111011
10001011
1111100
1111111010101010
1100
1111111100001011
101001100
100010000
1111111110001000
1111111111011001
110101111
1010101000
10010111110
10001010110
10100101001
1110000010
110001110
111111010
101
1101110
1000100101
1000001110
110010111
1001100111
101000010
101101001
1111111110101111
1000011
1111111000010110
1111111010001001
1111111101001100
1111110111110011
1111110101001100
1111110111011111
1111111101010101
1111110101011010
1111111010011000
100110100
100011011
11100010
1100000001
10111000011
10000000100
10010010110
1100010001
111111011
1111111100011100
1000010100
1101101110
1100111000
1101110100
111111110
1000000110
1000101011
100100110
1111111111001010
1111111001010111
1111111101000010
1111110101100011
1111110001110010
1111110101110100
1111110101000010
1111111011011100
1111111100010000
1111111111010011
1001111101
100000101
100010011
1111101110
111101010
1010000011
10010001101
1001110011
1011000011
1111110100110011
110110001
1010111110
1011000110
1010101100
110010000
111110100
1000001111
1111111101101101
1101011
1111111100100000
1111111101011110
1111111010100111
1111110111011110
1111111010001100
1111111010000111
1111111010111110
11101110
100110101
1100111001
101111001
11111111
1010111101
1100111011
111101000
10011001101
10011001101
1100100101
1100001000
1000101010
1001111010
11111101
1001101111
1110010011
1111010
1011010
1111111111111000
1111111010110111
1111110101010100
1111111000111000
1111110111011010
1111110100110110
1111111111110010
10100010
1011100010
1000111010
101111101
1010011100
1100111111
11011100
111111110
110101000
1111111000101100
1110010101
10000000100
1111111111110010
11111000
10000011010
1100000111
110000001
100
110000110
1111111110110001
110000010
1111111110000010
1111111010000011
1111110100110010
1111110010111011
1111110011000000
1111111010110110
1011101
10000011100
1111010110
1001000010
110100
1000111100
11111100
1000111
11001011
1111110101111101
1111111000011111
1000000011
1011111111
11101010
1010011011
1111100
1011100001
1000001
1111111110100101
1111111100101110
1111111000100110
1111111010001110
1111110110001110
1111110010001011
1111101110001110
1111101111111100
1111111011001010
1111100
1010011110
1101010101
1111111100100001
1111110000101110
1111110111001010
1010001
1111111101001110
1111110010111101
1111111000011011
1111110010000000
1111111110001101
1011000110
10000011110
1101000
101110101
100011110
10001000
1111111000111001
1111101110011011
1111110000001000
1111101001110111
1111110101010100
1111101111010101
1111101110000001
1111101010100110
1111111100001001
1100001000
1011011100
1010001100
110000010
1111111000100000
1111101111101010
1111111010010001
110010000
1111111110010001
1111111010100010
1111110000100110
1111110001111111
100000000
1101010101
10001010100
10001011
101010
111100111
110111111
1111110010001111
1111101000000001
1111101001000101
1111100101001100
1111101000110110
1111110011100100
1111110100101011
1111111000111010
1100100000
1100111001
10101110010
1011010100
110100001
1111111010110111
1111111000011111
110111
1010010
1101111
1111111001111111
1111110110101100
1111110001110110
110000000
1111101000
11000001100
1100111111
1001100001
1111111011110001
11000001
1111111000110001
1111110010001111
1111101001000110
1111101011100111
1111101111000110
1111101110110110
1111111010101000
1111111110100100
110011110
10100101111
11000011101
10010001011
101111101
10000010
1001110
1111111100110101
1111111111011110
1111111000101100
1111111100110111
1111110110001000
1111110101101000
100100
1100101100
10111100111
111010110
110011000
1111111110001000
1111111111101010
1111111011110000
1111111101010101
1111110010100010
1111111011101111
1111110000010010
1111111001011100
10001100
11101101
101010111
1010100001
11000101001
10110100110
1010101111
10101111
11111010
10011111
1111111111001010
1111111010010100
1111111101011101
1111111010000100
1111111010101000
11010
1011101101
10001001100
110111110
1100111
1111111111001101
10000110
1100011011
110100011
1111111101010110
1101110
1111111011101001
1111111000011011
1111111110011100
111110
1111111100111000
1010100010
10110100010
10111110000
1100111000
1100101000
10000101
1111111111101101
100010011
1110100
1111000
1111111011010000
10101100
10010100
1011101110
10011100110
1010111010
100001000
1111110011001011
1010011111
100100010
1110100000
10100001
1000111000
1110010
1111111110001111
10000011
1100100
1111111111000000
1011011011
10101010000
1111111100
1010110010
110000101
1
1001011
1111111010111110
100011
1111111111111110
1111111101001111
1111111110001110
100110001
1111101010
1100001010
1111111010100110
1111111011100000
1111111110010001
111011101
101101001
1101001110
1011101111
1110000100
100101110
1111111101100111
11101010
1111110110100011
100101110
1011000110
1110111001
111000001
1001000110
110110
1111111111100011
101101001
1111110110010111
1111111101001101
1111111011100110
1111111111110100
100100011
1000101010
1000110001
1101011011
1011111101
1111111111110010
1111111111010110
1111111010100110
11111001
10001100
111000000
1000010100
100111110
1110000
1111111100011110
1111111111100011
1111111011000110
1111111110111001
100100011
101100110
10011011
1111111100101001
1110
1111111110001101
1111111010011010
1111111111000000
1111111100011110
110101101
111001101
1100010
1110110110
1011111101
11111111
100111000
1111110111111100
101010101
111001111
101010000
1111111101111011
111110001
1011001010
101011010
10010000
1010110001
1101100001
1101001
1111111011101011
1111111011101101
100001011
1111111100000100
1111111100111011
1111111111100011
1111111100100010
1111111101001111
100011101
1010011000
11011010
100010101
1111111110101101
1011100011
1111111100111000
100101110
1111111110110101
100111011
11010110
101001111
111000111
1100111011
110010111
1111011111
10001011011
1001100000
1000011011
1111111101000010
10101100
1111111111101001
1111111010111000
1111111111001011
1111111111011101
1111111011111110
1111111010000011
1111111111001011
1111111011100000
11101000
1001000100
1001101010
100111
1111111100111001
1100101
1111111110111100
100110011
10011001
110111101
1000110001
10100100011
10110001100
11000000001
10110010001
1100001001
1100110101
1100111
100000
1111111001000000
1111110101000110
1111111101011100
1111110111100011
1111111000000110
1111111101010100
1111111110101111
1111111001101110
1111111100101101
1011101001
11001101
111100110
1111111000101100
1111110101000000
1001111
1100000
110000
1111111011001001
101001
1101001101
1100010010
1011010110
10010010111
10010110110
1011011111
100000011
1111111111010100
1111111111011000
1111110111110010
1111111000110011
1111111101111100
110110111
1111111100110101
1111111101001001
1111111111000101
10011010
11111101
10101
10000
1111111101010011
1111111011001001
1110000
1111111101000010
1111111110001011
100001101
1111111100010011
1111110110101100
1111111010011011
1111111011010100
11000101
10011110
1111110111100100
1111110100111100
1111110101101111
1111111000011110
1111110101001111
1000011
11010101
1111111100010101
10010111
1111110110011110
1111111011100000
11101011
1111111110011111
1111111111111000
1111110111110010
1111111000110000
1001100110
1001010001
1000000001
1111111011111111
1111111011100001
1111111110010001
1111110100000011
1011100
1111111101001000
1111101101011000
1111111110101001
1111110010001011
1111110011001100
1111110001100011
1111101101010110
1111110111010010
1111101111011111
1111110100110101
1111111000110001
1100110
1111111110110000
1111110100011111
1111101110111011
1111101110011001
1111101111110110
1111101010111000
1111110101011111
1111111001100000
100000000
1111111110100001
1000101011
1111111111010011
1111111011000011
1111111101001110
10100001
1111111101101001
1111111010000100
1111110001100110
1111110011001001
1111101010011000
1111110001010111
1111100111101001
1111101010101100
1111101000110000
1111100010001010
1111011101100001
1111011000101110
1111011011010110
1111100010010101
1111101001000110
1111100111010101
1111101100010100
1111100111010000
1111100110011010
1111110111111001
1111111001111101
1111111000111001
110000101
1111111100011010
100000111
1111111101111110
1001010
11011101
1111111011101100
101010100
10000000100
1111111010010000
1111111111000011
1111111001110110
1111111011000010
1111110101110110
1111111100111111
1111110111001111
1111111110011000
1111110000101101
1111110010001001
101101010
1001101
1111111100111111
1111111101001000
1111111010010100
1111111100010111
10100000
1100100010
10001001
1001
1111111111000101
1111111111010101
