1111111101100000
10001110
1111111110111110
100010000
101001
1111111110001000
1111111110110110
1111111100011100
101000100
100101110
111010
1111110
1111111110000111
1111111111010101
100001010
1111111110100100
1111111011010100
1111111110011111
1111111111110000
1111111011101110
1111111110011111
10111101
1111111111011100
1111111101111011
1111111011110011
11100100
10010111
100111101
100010
1111111101011101
11110100
1111111010110101
1111111110011000
1111111111110101
11010010
1111111101001101
1111111010001110
1111110011100110
1111110111111110
1111110101010100
1111110000001011
1111110101010101
10111111
100
1000101110
1111111010101101
1111110010001011
1111110101000100
1111110100010000
1111110011001000
1111111110101101
1111111101000010
100011111
1111111100111001
1001000
11111000
1001001
1010110
1111111011101000
1111111011000110
1111111010000100
1111111010000101
1111110010001010
1111110110000111
1111110100011001
1111111000100010
1111110010010111
1111110011100000
1111111110100100
0
1111111101010101
110010001
1010110111
111110001
101001011
1111111010100110
1111111111001111
1111111001000011
1111101110100011
1111110100111011
1111111111000100
100101111
1111111100000100
1100
10110100
1010011
1111111110110110
1111111000100001
1111111111000010
11111110
1111111101001011
10011110
1111111111100010
1111111100000000
1111111001100100
1111111111001001
1001010
1111
1110101
1001001100
111111100
1001011100
1101100001
10001100
10000011
1111110111001111
1111111000000100
1111110110011101
1111110100000100
101100110
111111
1111111111001111
100100011
100001111
10111110
110010110
1111111010000000
1011101011
1000110000
1111111101101110
110000010
110001110
111001001
110100010
1101111
110110011
1001010010
11101010
1010010010
1000100000
1010101000
11000101
1111111011101001
1111111001110011
1111101100011010
1111101111100100
1111111011011001
10000010
100010100
1111111100011001
1111111110101001
1111111100110000
1111111111101001
1011111010
1111111111111100
100001110
100001100
1
11101
1111111111110010
1111111111101110
11
100100101
1111111100000001
10110011
11110
10011101
1110011
110001001
10001010
11001
1111111100001001
1111111000111101
1111110000001000
1111111000011110
1101011
111001
1111111100110010
10011110
110001000
11101
111111110
1111111101000000
1111111111000001
10001
1111111110000101
1111111000111000
10111110
1111111101111100
1111111111100111
110110
1111111111011011
1111111101111111
110001111
11011110
111110111
101011110
100011100
101110011
11100111
1111111100010011
1111111011111110
110101100
1011011100
110000011
1000010110
1111111111110100
1110010100
110111
1101111011
1111100
1111111010000100
1111110111011000
1111111000011011
1111111101010010
1111111000111110
1111111001111100
1111111001000111
1000010
1111111111010000
111111011
111100111
11001000
1111111101110011
1111111110111011
1111111100000110
110001111
1111111110100001
100000001
100000000
1111111110011011
100111111
1011011
111100101
1111111000000010
111011101
1111111000100000
1011001111
1000110111
1111111111010101
1111111011101000
1111111100010011
1111110101010000
1111110011110110
1111111101001000
1111111101010011
110101111
1000000110
1001110101
11010111
1110101
111000
1110010
100100101
11110011
1111111111110111
100111101
1001010111
10100100
1100110
1011011000
1001001000
1001011101
11010100
11010011
10001000110
10101110
11001
1111111101010000
1111111111000110
1111110101100010
1111110011000011
1111111010011111
100101001
1010001011
1010011101
10101101100
10111101000
101000101
1111111111111101
11111
1000111
11000100
100111001
1011100001
1111111101111110
100100100
11011001010
10101111000
1001110011
1101011
10000000
100100000
1000011111
10000100
11011011
1011001
1111111100001100
1111111000011010
1111101111001011
1111111001101111
11011011
1001011011
10111111001
11010111001
10100101001
111001010
1111110111000000
1111111011100110
101011001
100000100
1111111111011000
1111111110100010
1111111111010011
11011
1110111111
10011100101
1010111110
1111111111110100
101001010
1101101110
1010111001
101111000
1111111100101111
1111111010000110
1111110101001110
1111110101101010
1111110100001001
1111111000110101
1111111111110101
1111111111000001
11000101000
100010011001
10101010110
10111001
1111111010011111
1111100
11011001
1111111101000000
1111111101100111
1111111010100111
1111111110101100
1011000111
10110011000
1110010010
10101010
110010
1111000
1010010111
1000100011
10000101
11001001
1111110101000000
1111110110011101
1111111010011011
1111111001100110
1111111100010000
1111111000010011
11110000
10011100000
11101110010
1100001111
11110000
1111111100111111
1111111111011111
1101011
1111111110000100
1111111000111001
1111111000000011
1111111001101000
1111110101001101
111111111
11000101011
1111000011
10001000
1001010
110111100
1010000101
1111000
1111110110011111
1111110001000011
1111110110111100
1111111000011010
1111110111000011
1111110101111100
1111110110011101
111010001
10100110111
11110100011
1011001001
111001011
11000001
1111111010111101
0
1001100
1111110101110001
1111110010011001
1111101100011100
1111111010001011
11011111
10110010100
1101111100
1111110110010111
10001
1100010110
110010010
1111111001110001
1111110010101000
1111110101011010
1111111011101001
1111110101101110
1111110111010101
1111110100101110
1111110111110100
11101011
11011000100
10110001110
10110010100
1011100110
1011
1111111110101010
1111111001100011
1111110101001011
1111111001111010
1111110000110011
1111111000100111
1111111100000100
1000100001
10111011110
110010101
1000110
10110011
1111111111111000
11001101
1111111111010000
1111111001110111
10010011
1111111010100100
1111110101000000
1111110010111110
1111110101101101
1111110011000110
1111111110111101
10100111000
10101011010
10111000100
1001100001
10001111
1111111001101101
1111111110100100
1111111100110001
1111110111011011
1111111100010111
1111111101101101
1111111110101000
1010110011
1000001110
1001110000
1111111101101000
11011101
1000011011
1101100001
1001010001
100110100
1111111100000001
1111111011001011
1111110001101010
1111110101000101
1111110101100011
1111111000000101
1111100100
10010010101
1101110101
101110111
10001
11010
1111111011111100
1111110110001001
1111111000111101
1111111110001101
1111111111001011
100100001
111001
1001100011
1010011111
1100010011
11100001
11100111
1010011
1110111100
100001001
1100110
1111111111000111
1111111000000101
1111110100110001
1111110110000000
1111111000111001
110111
1100100111
10001101111
11101010
100010111
1110
1111110111110001
1111110100000011
1111111110010011
1111111010111000
1111111010110011
100101101
110111111
111100010
111001111
1010001111
10011110
1011001110
100010010
101000011
1101010111
10111001
1111111110110000
100111111
1111110111001100
1111111000011110
1111110111011001
1111111101000010
11000011
1100000
111111110
100111
1011100
1111110110100011
1000101
1111110110001111
1001
1111110111111010
1100001
11010111
100010010
110011101
1010101000
1011001111
1100100100
1111111011000101
11011010
10001100
1111111010011110
1111111011111100
100100101
1111111010011100
1111111100010001
1111111001101100
100101
1111111101101110
1111111011011101
1111111100010101
1000111101
1011000
1111111101000011
1111111100010111
10111000
1111111001100011
1111111111101001
1111111110101111
1111111101010100
1111111111101000
110111110
111101010
1000110011
110110110
111010111
1111111100000110
1111111110111100
1111111011010110
1111111010011110
1111111011000111
1000101
1000101100
1111111111011110
100100010
100110101
1100001
1111111001110000
1111111010111110
10010111
1111
1111111011011100
1111111110010010
1111111110110010
1111111101001101
11111010
111111101
1010100
1001000110
1001110101
1011010100
1100100001
1010011101
1111111110001110
1110111
1111111101000100
1101000
100001001
1010111
1
1001010010
10101100
100100101
1111111110001101
1111111001010100
1111111000101101
1111111000111101
1110001
1110010
1111111010111100
1111111001001110
1111111101011111
11110100
111110110
1111111010101010
1111111010001100
1111111011000111
111101100
1010101000
1001100000
1111111000011000
101000
1111111111010111
1111111111001011
111111101
111101001
1011101000
101010101
110111000
11111100
1110001
100000
10101110
1111111111101101
1111111111101101
1111111010011101
1111111011100000
1111111001001100
1111111000101111
10111
111011
11100010
1111111111111110
1111111010011001
1111111111010100
1001010101
1001011001
10001110
1111110001011111
1100100
111100
10100000
1010101
10000001100
10110011001
1100000100
111101101
1111111111111101
10011110
1001100
1100001
1111111110111111
1111111011001001
1111111110001001
1111110000010101
1111110011001101
1111111011101111
1111111110100100
1111111111111100
100001011
100110100
1111111011001110
100101001
101110110
111101111
1111111001010001
1111111011110001
1111111101011000
100110101
1111111100011111
1111111100101010
110101001
110100110
1111111011001001
100011001
1100110100
1001100001
10101110
111001010
1111111110110111
111110
1111111100111001
1111111011101001
1111111110101111
1111111111000110
110000111
110001111
1010101111
10000011
10101101
100000010
111011010
10100110111
101010110
11001000
1111111011000010
10011010
11001101
111010
1101
1111111111011100
110000001
1010100100
1100001110
10110101101
1011100111
1100011101
1111111000
1110010101
10000000001
1001110111
1001110100
1000001110
10001010100
10011100111
10001101101
10010100001
1011110100
110111001
101010111
10000000011
1111111111110001
110011111
1111111100111011
1111111111100011
1111111110010101
1111111110100010
1111111011110010
1111111101101001
110001001
10011
1111010110
10000010010
1111110110
1110001101
10001000011
1101110011
1011001101
10011011010
1011101111
1111111000
11100110100
11100000000
11000110010
10110000111
10100100100
10010111000
101010000
110111011
10000100
10001010
1111111110100000
1111111100101110
10000000
1111111101110010
11
1111111111001000
1011010000
111011010
1100010011
110001111
1101111101
1111111100
1010110011
11011100
10000100001
10111100010
1110100100
1110010011
1110011010
10000000001
1100001100
100011011
111111011
111110100
1001011010
1111111111100100
1111111100000100
1111111110111010
1111111010111111
