1111111011010111
1111111011011101
1111111110110011
1100111
1111111101001110
1111111100101101
1111111111110100
11100010
1111111101110000
1111111110001111
1111111100100001
1111
1111111110110010
101000111
1111111100111110
111000
1111111011101000
1111111010110111
1111111110011010
100110110
1100000
1111111110011000
100110010
1111111110110000
1111111101011010
11100001
1111111111110000
100001111
1111111011110111
1111111111111100
1111111011011010
1000010
10000010
1111111111011101
100000000
1011100001
1101110
1001010010
100011000
100000111
1110000100
101000111
111
1111111011101101
1111110100100100
1011111
1111110111
1010000010
110011110
1000110111
1011111011
10011000
1111111110011110
11110000
10110001
100110110
100100011
111101
110010110
101110000
1100000101
1010001000
1011010100
1111101111
10111111
1111111100111010
110001100
1000010101
110110010
111011110
1111111100111011
10111010
11101
1010111
1100010
110111100
1101000110
10010001110
1100111111
1101100100
1011011
1111111110010010
1111111110111000
1111010
1111111101010111
100101100
1010010011
111111111
1111111110000010
1001001011
101000011
100000011
10100110
1111111010100111
1111111110100101
1111110111001111
1111110110010011
1111110000111100
1111110011001001
1111110100001010
1111111001001000
1111111000011101
100011111
1010110111
110011001
110110110
100110010
1011001111
111000011
1111110101111011
1111111100001110
1111111011010011
1111111101100110
1111111101100111
11110100
1111111110111011
1010001
1001101100
1010001001
101100000
1111111111001001
1111111110100101
10011000
1111110101111001
1111110011001111
1111110111011001
1111110100001001
1111110000010100
1111110000010011
1111110101000011
1111111001000011
101011100
110011100
110010110
1011011101
1101110001
110
1111101110100101
1111111000010010
101100
100100010
11110
1001101111
1111111111011101
100001001
100010010
1111111111100110
1111111111110001
1111111100110101
1111111001110001
1111111011101001
1111110110111000
1111110110010110
1111110100111111
1111110000011111
1111110001110110
1111110000011001
1111110000011110
1111111001111111
1111111000000100
1111111101010111
110001000
1011001111
10001110101
1001010010
1111111000110101
1111111110001000
1111111111111111
10110100
1111110110001111
1111110111100001
1111111111111111
1001101011
1111111010110011
1111110111110100
1111110000000100
1111110010001001
1111111010101011
1111101101111100
1111111000110010
1111110011010101
1111110100101001
1111110010000001
1111110110001101
1111110101111110
1111111001001011
1111110111110111
1111111001001101
1111111001010010
1111111111101000
101011101
111111001
110111110
1111111101011111
1111111111000110
11010110
1111111101110011
1111110111010010
1111110101011111
1111110011000111
1111111010000011
1111111001111010
1111101111110001
1111101110101011
1111101011111011
1111110000010000
1111110010111100
1111110100110001
1111111001011101
1111110110111010
1111111101010001
1111111010101011
1111111000100110
1111111000100011
1111111011010110
1111111101101110
1111111011101101
10001000
10
1111111010110101
1111111100110110
1111111000010111
11101101
1111111011000001
11000001
1111111110110111
1111111001100011
1111111001000101
1111111100010000
1111111001111001
1111110011110100
1111101111101100
1111110010011011
1111110111000100
1111110011110001
1111110011100101
1111111000000010
1111111000111001
1111111101011011
1111111011000110
1111110011111110
1111111010111100
1111110110110001
1111101111111111
1111110011010100
1111110100110000
1111110110111011
1111101110001101
1111101010110010
1111111001001011
1111101110100001
1111110111111101
1111111010111000
1111111110110111
1111110010010001
1111110001001100
1111101111101100
1111101110001000
1111101101000101
1111110100001100
1111101111101011
1111110111101010
1111110111000011
1111111100010010
1111111000000100
11010101
10101
1111111101100111
1111111100111110
1111111000101101
1111110100001011
1111110101000101
1111110000000011
1111101100110100
1111110000101001
1111101100101001
1111100001111111
1111011010001110
1111101011001101
1111111100011110
1111111010110001
1001100
1111101101001010
1111101011110000
1111101000010111
1111100100101110
1111101000010100
1111110111001110
1111111110000011
1111111100001100
1111110110110100
1111111111000010
111011
1111111110000010
1111111110011011
1010010011
1111111110011111
1111110111001100
1111111100011111
1111111000001101
1111101101110010
1111101011100010
1111100110011011
1111011110011011
1111011001000101
1111100010110010
1111101000000010
111010
1111111111110101
1111110111001011
1111101010001000
1111101110101011
1111100111010101
1111100100101101
1111101110111100
1111111010010111
1111111111111110
1101101
101001111
110110110
1011100100
1000011100
1101101010
111011011
1010100111
100111110
1111111110001000
1111111100110011
1111111101101101
1111110011111100
1111100011011010
1111011011000001
1111010101010011
1111011010111110
1111101000100111
1111111100001111
1111101
1111110110000101
1111110100101011
1111101001000100
1111101011101000
1111101001001110
1111110010110111
1111111010010110
100100110
1000100000
1101011100
10000010010
10111010000
10100110101
1010000111
111011011
110001111
1010100000
111100011
1001000111
1111111111100011
1111111000010111
1111110001010001
1111110000110110
1111101011100001
1111100100111111
1111101110101110
1111111111100001
101001111
1111111111011110
1111110110111000
1111100111111111
1111110000010011
1111110001011000
1111111010111110
1111111101011111
101001111
1010101010
10001111100
10000110000
10000001110
1111010100
111011110
110001101
1101000101
1100001101
10000100110
100010010
11000
110001010
1111110110011100
1111110111100100
1111110111000010
1111101110000110
1111110011011111
1111110011001001
1111111011011001
1111111111000110
1111111101010011
1111111001100110
1111110011010111
1111101110011110
1111101101110110
1111110110101001
1000110110
1011101111
1101111001
1110000101
1101101010
1000011100
110000110
100000111
1000011110
1110011010
11011111
11101011
1000010
110011
1111111101001010
1111110010100001
1111110011000111
1111101111010111
1111101011100100
1111111101101001
1111111111010010
111001111
1111111110110000
1111110110100011
1111110010111010
1111101010111111
1111101000111001
1111110111111000
111001111
1011101011
1100101000
1110111111
1011001101
11000101
101001110
1000011110
10000101110
101001000
11010100
1111111011111101
1111111101100100
1111111111011000
1111110100000001
1111101100111101
1111101100000111
1111110011010110
1111110000001000
1111111011001111
1111111110111000
1111010
1111111110110100
1111101100101101
1111110000101101
1111100111110110
1111011101011001
1111110010000001
1010111001
1110100011
1111010101
10011100110
111110
101100101
1001110101
11011010
100000001
1111111101100001
1111111111101101
1111110110011101
1111111000011100
1111111010100101
1111101001110110
1111100111110001
1111101111000010
1111101001000011
1111101011101011
1111111001011011
1111111101100001
100000101
1111111001000101
1111101110111110
1111100111111010
1111011101101000
1111100011100000
1111101100110001
1111111101111001
1001100111
1111110010
1100101100
100110100
1001011111
1010100000
1001101
1111110111101101
1111111011001101
1111110101010111
1111110010001010
1111110110000001
1111111000110001
1111110011001011
1111101011111111
1111101110100001
1111101100000011
1111110100001100
1111110010111011
1111111011111101
1010110010
110001
1111110001110100
1111110000000010
1111100111000100
1111100111110010
1111101110001111
1111111000111101
100000100
110011111
110011111
1000100001
1010000001
10001111
1111111111100111
1111111011000010
1111110100100100
1111110110100101
1111110001110101
1111110100010010
1111110010010001
1111101110110010
1111101001010110
1111101001110000
1111111000010001
10111001
100100100
1001100010
1111111111010011
1111111011101011
100001
1111111001011111
1111101100001110
1111101100101111
1111110100011110
1111101110011111
1111111001000101
1111111111000010
11111010
1000011010
11001001
1110001
1111111110110100
1111111010110110
1111111010001111
1111111001011010
1111110000111100
1111101101011100
1111110110010111
1111101111111101
1111101011011000
1111101111100100
1111110110011000
1111111001000001
1001
101000
1000
1111111010000010
1111110111100110
1111111100011101
1111101110111101
1111110011001010
1111110001010110
1111101101010000
1111111000011101
1111111010111011
100000010
1000111011
110111100
101000100
1111111111110011
1110101
1111111111011001
1111111011100100
1111111001100011
1111101111001110
1111101101011111
1111110001111010
1111101101100001
1111110110010101
1111111010100011
110001101
100110011
1001101
1111111110000010
1000101
1111111001110111
1111101100111001
1111111100011000
1111110101110100
1111110010011100
1111110010110010
1111110100111010
1111111011111010
1111111011100001
1000111
1111111111010001
10101000
1111111110000001
1111111010100000
1111111000011111
10001010
1111110101110001
1111110001101100
1111110010101011
1111110111011011
1111110011000011
1111111111010111
1111111100110101
1111111110110000
1111111100010111
1111111111001000
1111111110101100
1010011
1111111000111101
1111111000101100
100110100
1111111000101000
1111110110111010
1111111000010111
1111111010110011
1111111011110000
1111101111100100
1111110010101111
1111110011111011
1111110110010000
1111111001110001
1111111101010101
11000100
110100
1111111001101111
1111110111011010
1111111010101000
1111110110011001
1111111000100100
1111110111011101
1111111001101000
100101011
1111111100001101
1111111111000101
11101011
10
1111111010100110
1111110111100111
111111011
101001110
1111010
1111111100100010
1111111100011010
1111111000111010
1111110011100100
1111111101100010
1111110010110101
1111110111010010
1111110010110100
1111110101110111
10110110
10010011
1010011001
1011110
110001
1111111101100110
1111111111000111
1111111000101001
1111111010111101
110100001
1111111110011010
1111111110011110
1111111100011111
1111111110011100
1111110111101011
1111111110010011
1011111111
100111111
100000101
10101
1111110111010011
1111111001111010
1111110011000100
1111101110011110
1111110101100010
1111110100011111
1111110101001010
1111111010100001
111000000
1011100100
110110001
1111111111111111
10010000
100110111
110001011
1111111110001010
100000111
100110001
1111111100110000
10000110
1111111010110100
11010101
1111111001001110
1111111110111000
1000001
1111111110110100
1111111100011011
110111101
10111100
1111111110010110
1111111101100011
1111111010111000
1111110111100111
1111111010110010
1111110110011010
1111111110111110
1111111011110101
1110
1111110111101100
1111111100001100
101101
1111111000110001
11101111
1111111010010011
1111111100011111
1111111100010000
100010100
1111111111010010
111000
1111111111001110
1111111101111000
1010110111
110010011
1100000000
111011111
1111111100101001
1111111100010101
1111111111011000
1111111101100110
1111111100011101
1111111011001010
11100011
100010111
100110001
111011010
1101011
1111110101011101
1111111110100001
1111111110010000
1111110001001111
1111111111100110
1111111100100010
1111111010000010
1111111110110110
1111111100101101
1111111110011111
1000111
1111111101000111
1111111100101000
1111111001000011
1111111001110100
1111111000100001
1111111100001111
1111111110010100
1111110110111010
1111110101110110
1111111111101110
1111111100101000
1111110001000101
1111111111101011
1111111011101101
1111111111100010
1111110101000011
1111111001100110
1111111011000110
11101
1111111101100110
1111110011110001
1111111110100010
1111111011000010
1111111111111111
111010
1111111111000100
