1100010
110101
1111111100000110
100101
11000010
101101
100011001
1111111100010111
1111111111010000
1111111011100001
1111111111111101
10101
101110111
0
1111111101110010
10011
1111111011011010
10101
110100
1111111101111000
101000
110001
1111111100011110
1111111111110100
100001110
100111111
10000111
100000
11010101
100001110
101001001
1111111011100100
10010001
1111111110000001
10101100
1101
100000011
1010111010
101101001
111010001
1011011000
1000101101
1111111101101000
1111111001011010
1111111011101101
11001011
1010001110
1011100011
11110111
100100100
100100000
111100011
1111111111100101
10000110
11110101
100111010
1111111110110000
11111
1111111110011100
1010111111
1000101111
1000010011
1001
1101110
1111111110010111
1111111001110101
101010011
100001101
1111111100001001
1111110111011101
1111111010101011
1111110110101111
1111110000011001
1111110110010001
1111111111100000
1111111111110010
10110000
1001011111
1110010110
110010000
1111111001001010
1111111001000001
1111111010110111
1111111011101101
11110011
1111111110110011
1111111000001110
101010
1111111110111111
1001100010
10101000
1111111110000001
11001110
1111111101001110
1111111010110111
101100110
11
1111111011101001
1111101
1111111010010101
1111111001001101
1111111111100111
101000101
11110010
111101001
1111001001
1110011001
10011110001
1101000000
11001001
1011000100
100100111
1111111101110001
1111111110000110
1111111001110111
10110101
11111111
1111111010011110
1111111010100001
1111111110011101
1111111110001111
1111111000100100
1111111100011001
1111110111001111
1111110100100011
1111110100111101
1111111110110110
1111111110010111
1111111101110110
11111
1100001
1111111100110110
1000110110
111011111
10010000100
1011101011
10000110010
1001100100
1110010101
111011000
1111111011110010
1111111111011000
1111110111001010
1111111110001011
1111111110111011
1111110010111011
1111111000111100
1111111111110010
10111111
1000100000
1111111101000011
1111111101011010
100011
1111111111100010
1111111111100000
1111111010010100
1111111100011110
111100000
100100101
1111111110010011
100101000
1101111
1111111110110010
1001011111
1011001001
10101101000
1011011010
100111100
1111111111000101
10111100
110010000
10111110
1111111111111010
111011110
1000001
1011000000
1000010011
1010000001
1111111110110000
1111111001001011
1111111101101010
100101111
11000100
10101011
10010010
1000000000
11011
1111111111010001
1111111101000111
11010
101001011
10000101001
1001000100
10100101110
1100101
10000010
11010110
101010110
1000100101
1110110000
1100101100
1110111000
10000001111
1101001110
1111110010
111100011
10001100
1111000
101001011
111100111
11000001
1011010000
110001100
100011110
11101100
101101111
1110
1111111110110100
1111111111111001
10000000001
10110001011
1111011001
1010101101
101111000
1001100111
1111111100110111
11101100
10010001110
1011110110
10000111101
10001110101
1100100001
1000011001
111111111
10110
10100001
101000011
111000111
1111111100010100
1111111100010111
111101
1111111110011011
11100000
110101000
111100010
100000
10100100
10010111
10011001011
1011000001
1001010
1111111101011111
110010011
111111101
100110100
101010100
1010111100
110100111
1101000001
1111111100
1101100111
101001010
1111111001110111
1111111010010110
101001011
101110101
1111111111110110
1111111011011001
1111111110001100
1111111100011000
1011011
1010011010
100001101
10111
1111111111111000
111010000
1000101111
10000110
1111111011111110
1111111101011000
1111010
110011101
11111
100000110
1110110100
1100011010
1101010101
10000011010
1001001000
100100001
110100110
1111111110000001
1111111111111001
10100101
1111111111111001
1111111001111011
1111111001000010
1101011
10110110
111100111
1001111
1111111111011001
100101110
1111111110010110
1111111110010011
1111110101100110
1111111000101010
1111111011101100
111010001
1000000101
110010110
111100110
1111010111
1101101001
10101011100
10011101101
10010000100
10111011010
10011001011
1000100110
1111011010
1011001011
1111111010000110
1111111010111001
1111111110101110
1000
10110010
110100100
10011011
1111111110110001
1111111111111001
1111111111000101
10111011
1111110100111011
100001010
10101011
1111111101111011
1111100
1101101
1011001
1011011001
10111001111
100001001101
10111111010
10110001001
10011010011
10010010111
1100101001
1111101010
110000101
1111111110111001
1111111100111110
101011001
1000011100
1010000000
1011000000
1001101010
10010000
11111001
1010001101
110000001
1111110100011011
1111101101110011
1111110011110001
1111111001000011
1011000111
11101101
1111100
1011111110
10111101001
100000001110
10111100000
10000000111
10000010000
10000100001
101010110
1111
1111110110001100
1111111100011101
1001100
1100010
111001110
1101100110
10000000101
110111011
1000010101
1011100111
1111011111
11000101
1111110110001011
1111100111000000
1111111001001011
1111111011001101
111001011
10111101
1111110101010100
10101110
1110011011
10001001
1111111110111001
1111011
1001011
10010001
1111111101010100
1111111010010010
1111111001010110
1111111011011101
110100
100100111
1101101011
10001000010
10010101010
1101100011
1010001111
1000011110
1000001011
11110011
1111111010000001
1111101100010100
1111110010111010
1111111100001111
100100110
10100000
1111110101011001
1111111010101110
1111110111001001
1111111010011101
1111110110101111
1111111100110100
1111110110111101
1111111100011101
1111111100011000
1111111001011110
1111110111100101
1111111000110010
1111111111011101
1111111110110010
10011101011
10011100000
11001011101
10010111011
1001101111
111100101
1111111111100111
1010
1111110100100101
1111101001101000
1111111001101100
11010011
1001101
10101010
1111110010110110
1111111000100100
1111110001001011
1111101100011101
1111111100111011
111111
1111110110101011
1111111010110110
10000
1111111001110001
1111110100100001
1111110010000100
10001101
100000101
1111110101
10001110110
10001001101
1101000111
1101101
1011100
1111111011001011
1111111000101101
1111101110011011
1111101011001010
1111111000111101
1111111110110010
10111001
100110110
1111110111011110
1111111010001101
1111101111000110
1111101000111011
1111111010010001
1111111010111110
1111111100100101
1111110100110101
1111111111000101
1111110111010111
1111110010101001
1111110000111000
10000000
1001001111
1111010100
10011000110
1011100011
1000111001
1111111110111000
1111111101101100
11101
1111111011110111
1111110010010110
1111110011110000
1111101101111100
11110110
1111111110111000
11101000
1111111001000011
1111111010110011
1111110100010001
1111110010100000
1111110001100000
1111110100001010
1111110011001100
1111111001100011
1111110110100010
1111110001110000
1111110101001111
1111110111101110
110000011
1100111000
111000001
100000
1100101
1111111111110011
1111111000110001
1111111000010001
1111111001111001
1111110101011001
1111110000010101
1111111000100100
1111110010111011
1111111110101011
101111010
1111111101111011
1111111001010100
1111111111110011
1111111111110110
1111111100011111
1111110100111101
1111110101001100
1111110011000011
1111111000010001
1111110011011000
1111110101110111
1111110101111100
1111111111010111
1101001110
1001
1111111101111001
1111110110111101
1111110100000010
1111111000010101
1111111110100101
1111111010101010
1111111100100000
1111111001110010
1111101000101101
1111110001100101
1111110110000110
1111111110100110
1000010001
1111111001000100
1111111001110100
1111110111010110
1111111100010110
1111110011110011
1111110110010000
1111110111101101
1111110101101011
1111111101000011
1111111011000001
1110111
111110100
1010111110
1110010111
1111111111000111
1111110110100111
1111110101111000
1111101010001110
1111110101000010
1111110101101000
1111111001011000
1111111001111101
1111101110100111
1111101110010100
1111110001100001
1111111001111000
10001100
1111101
1111111001111101
1111110110111111
1111110010110000
1111110010100000
1111110011000011
1111111101100001
10101001
1111111111001110
1111111111000000
111101110
1110000110
1110000100
10011001101
1000001001
11000
1111111101110110
1111101111011011
1111101011110001
1111101111101100
1111110001111111
1111111100000001
1111110101001010
1111110010000101
1111110011011100
1111111010100000
11111
1001101
111000
1111111111101001
1111110110010010
1111110110001001
1111110011101001
1111110110110101
10111000
1111111110110010
1111111011101010
1111110
1101010011
10011100010
10011011010
10010000001
1110100101
1001110100
1111111100000101
1111101111000010
1111101111111011
1111101100100011
1111110000101001
1111111011001001
1111111110000010
1111101110010011
110111
111100100
1111111111101000
0
1111111011000000
111000011
10100011
110011111
1111111100010010
1000100001
10000101001
1110001000
1001000000
1111100000
1001111011
110100111
111001001
1100010010
1000000010
111110111
100000010
1111110101000101
1111111000010110
1111110101100000
1111111000010000
1111101110111011
1111111011110110
1111111111001001
1111111100111111
1111111111110111
1111111101001101
100011110
1111111011100000
1010001
10011100100
10001010100
1111001110
1111010101
10111001110
10001111111
10110010010
11010001000
10011110001
1100011110
10011101110
10010000111
10000010101
10110001111
11101001
1111110101100111
1111111100010001
1111111010110100
1111110001000111
1111111010011000
10111001
1111110011111100
1111111000011001
1111111101101010
1111111100100010
100001000
1111111101011000
1111111100101000
1011100001
1010101100
10101010100
10101011001
10100000111
10000111011
10001000001
11001111010
10111000010
11000000010
10100010010
11010000001
10101100111
1001100001
1000
111010
110101110
1111111001101001
1111111010111010
1111110110111001
1111111011100000
1111110011000011
1111111000011101
1111110111110011
10010101
1100111
11011000
111001
10010010
1111
10011111
1000101011
1001110001
11000101
10111101
11001100
101110110
1010100011
1100011000
101001110
1001101001
110000000
10000100
100101110
1111111010110111
1111111000111000
1111111001110110
1111110110110111
1111111111111100
1111110101111101
101011101
1111111101001011
101001011
1111111110010101
1001011
100000100
1111111101101010
110011000
10110011
11010101
1111111011110100
11000101
1111111101110000
100111010
1111111011110111
1111111100110100
11001101
1111111001000000
110110001
1100100
111000001
100001111
1111111101110111
1111111011010111
1111111110000111
1111111101010011
1000001011
1111111110000001
10101100
1111111101010001
1010100
