10101111
100011101
1111111111000101
1101
1111111111001111
10111110
10010000
1111111101110010
1111111110001111
1111111011011000
10100011
1111111011011010
1111111110101110
1010001111
11111100
10000111
11001101
11001011
1011101
11010011
100101101
1111111110001101
1111011
1111111111111110
11011100
11010110
100110111
1111111101000100
100001100
110100
1111111110011110
1111111111000011
1010011
1111111011111011
1111011
100100001
10111001
1111111010101100
1011001
110110111
100
1111111111100100
11110110
10001111101
1100010011
1000001110
10110
1111111111000000
11010000
100010000
1000010111
100010011
110111
1111111100110100
11
100000101
101
1000100
101001001
1010000011
11000011
1111111010000011
1111110011001000
1111111000011000
1111111000000011
1111110111111111
1111111011011100
1111111011100101
10001111
110001000
1111111111011101
100010001
111011111
1111110010100110
1111110101100000
1111110101001101
1111111111010000
1111111000100000
1111111100001000
1111111001111101
10100111
10001110
11011001
1000101
1111010
10000011
1000101011
10011101
1111111111000001
1111111100111010
1010
1111111100101001
1001101000
1010000
1110010
111010111
1000100100
1010101010
1000000010
1000000000
101110000
101001111
11000
1111111100001010
1111111011110111
1111100110000110
1111101010100000
1111110011111111
1111110101110011
1111111111011111
1111111001001101
10000001
1111111110011010
101111111
1010100011
101101000
1111111111101000
1111111101001000
101101001
110110
100000011
101010101
11011010
1000100110
101110110
101001100
100100110
1010100100
101100
1111111011001001
11000000
1000100
1111110100000101
1111101010011000
1111101111001111
1111101001100001
1111101010001000
1111110000110010
1111111101101101
1111111001000110
1101100
10001111
101110100
1111111101111110
100101100
100101001
111110110
100010011
1000011
1111111111001110
11000010
111111
11101000
110010100
11100
10110111
1111111011110101
1111111100100111
1111111000110010
1111111010011011
1111111000000111
1111111100011100
1111110100111101
1111110001110000
1111101100011011
1111110000010011
1111111000010001
1111111100111011
1111111101111001
10010110
1111111001001100
1000100110
1011010
1110011
100010001
1111111001000010
1111111011011111
1111111001100011
1001101
1111111111100110
11000101
1010011011
10000001
1111111101100110
1111111110100000
1111111110011111
1111111101000100
1111111101110011
10110110
1010000
1010101
1111111010011100
1111101011000101
1111110010101001
1111110101111101
10010011
10101001
110100000
1111111100100101
10111110
1001011100
1111111001101101
1111111010101011
1111111110100001
1111110011101001
1111110110111001
1001110
1111111110010010
1110100
10100100
1111111011101011
1111111110011010
1111111110111100
110111
1000001010
10011111
1111111110111101
1010
100100100
111010110
1111111010011100
1111111011000100
1111101111101111
1111111101111111
1111111
111000011
1111111001111101
1100010110
1100000111
1111111100001100
1111111000011110
1111111011011101
1111110110110000
1111111010111111
10000000
1111111011001100
10011100
11100100
1000101011
1110011011
1001101001
10101110100
1010101110
1111001100
110000001
111001101
10010110110
1001010001
100000
1111110110100010
1111110111100001
10100110
101101100
10011111
11011
1100001001
10000001111
1111111111011010
1111111111111100
1111111001111111
1111110110101011
1111111010001101
1111111010111010
1111110110110101
100101010
10001111110
10010001110
10101000110
10010010100
11110000011
10110011011
10101111011
11001111010
11001001001
10101010010
10111111000
1011100000
1111111100110111
1111111000101001
1111111001100111
1000001010
10101110
1101110100
10011000100
1101000100
1111111100111011
1111110110110100
10010
1111110111111000
1111110100101000
1111111100000100
1111111010100101
1100100
10011101010
10101110111
1111001011
10101100100
10111001110
100000101110
11010100111
11111100011
10110111111
10111000000
10111101111
10000100011
1111110110000100
1111111011101001
11101010
11100110
1011110000
1110000101
1110101110
1000101000
1111110010101001
1111111010011001
1111111100111101
1111111101100110
1111110001101111
1111110100001001
1111111011001110
1111111101001011
1001111001
1110001101
1001000
1111111110000001
111111110
110111000
1010011000
10111110110
10101000110
10100010011
10101010110
11011010110
1100000
1111111111101011
111110110
1111111111110111
1001011010
1111111111
1000100110
1111111111010101
1111111101100010
1111111101100010
1111000
1111111110110111
10110110
1111111000000010
1111110101101100
1111110110100001
1000100000
1101011101
1111111001111100
1111110011000110
1111110101101111
1111110111111010
1111111010001100
1111111100101100
110001001
1100010011
1101100110
10110000000
1010110110
100111001
1101110011
1111111110111100
1111111110100010
1101111001
100100111
1111111111011101
1111111010011110
1011010
1111110111100100
1111001
1111111001101111
1111110010000110
1111101100111000
1111110100110101
1111
10010110
1111111100111001
1111110100000110
1111110101111001
1111110001100110
1111110010001110
1111110011101110
1111111001110111
1111111100000101
1011000000
111111010
11000111
1000001111
1000111000
1111111110110010
1000110010
1011011011
1111111110010101
1111110011111011
11001
1111111001111110
1111111110001000
1111111111001001
1111111011111010
1111111000011001
1111101111111100
1111111000010111
101010111
1001001001
1111111101010010
1111110000100001
1111101101111100
1111110110111100
1111110110000000
1111110101010100
1111111101100001
1111111110010000
1111111110111001
1000001111
1101111
10000100111
100001000
10001001
111101110
101101011
1111111000101101
1111111111000111
100001011
1000
1111111000101010
1111111000100001
1111111110010100
1111110111010110
1111110110100010
100110
1011011101
10001110
1111110101001111
1111101101111000
1111110000010100
1111111000000110
1111110100000100
1111111010110011
1111111111011011
1111111101110011
1111111111001001
1111111010011010
1111111000010011
1111110111011010
111110
11001010
1110110
1100010001
1010011
1011100
101110
1111111111001100
1111111111011101
0
100110
10101111
11100001
10011
1111111011110101
1111111001101001
1111101111101100
1111101011101110
1111110001011110
1111110010000001
1111110001010100
1111110000110110
1111110011110101
1111111111000111
1111111110110101
1111111001000001
1111110000000111
1111111100110110
1011001000
1010001
1000000111
1111111110100110
100
1111111010000101
1111111100110111
1111111000100010
1111111000110000
1111111010111110
1111111110111000
1101110111
100111001
11000
1111110101010001
1111110010110110
1111110010010110
1111110001111000
1111101100101100
1111101101111100
1111110110100000
1111110110010000
1111111000001001
1111111111010001
1111111111001111
101010001
1111110010111111
1111110100111101
1000001110
111011011
101101000
111101001
11111111
1111111001100100
1111110110110001
1111110111010011
1111111001101001
1111111111111001
110110001
1100111110
10101101
1111110101001110
1111101101001000
1111110001110000
1111111110000100
1111111101010101
1111111100100101
1111111011010101
1111111000101001
1111110101101011
1111111110101011
11101111
11110000
1111111001000110
1111111010011100
1111111010011111
1011111
11100111
101111011
1111111110101100
11000100
1111111100001010
1111110001101000
1111111011111001
100101111
1001100
1011110100
10110110111
111100001
1111111010111101
1111111011101010
1111111110000011
1111111000011111
1111110
11000110
1001001
1111111100010011
111111
10111000
101100100
1111111101110111
1111111111010010
1111
1111111111001011
100010101
1111111110101101
110101000
1111110101110001
10110100
1111110111011011
1111111100000001
1111111111101000
101100100
110111111
1100110000
1111000111
100100001
101000
1011
1111111111110011
1111111110000001
101010001
10000011
1110001100
101010011
101100001
1111111111000101
1111111000111011
1111111101001000
101101
1111111101010010
1111111111001111
1111111101100101
1111111100010000
1111111011100011
1101000010
11111100
1111111101110110
111110111
1001010100
11001101
101111001
100000111
1101001
1111111101111111
1111111100101000
100011000
10011101
10110100
110111010
11100000
1111010110
1000110101
100001011
1111111110010011
1111110100001111
1111101111001111
1111110111011101
10010000
1111111110111101
1111111101011010
1111111110101001
101000110
10000010010
1010010001
11010101
1100111111
1110010111
111110111
10011011
1101110
10001110
1111111101001011
100101111
11010011
100010000
111100001
1100001
1000011000
1000100100
100010101
1111111110110100
1111110010100011
1111110100100110
1111101100111010
1111110010011100
1111111111000100
100100001
1111111111000011
1111111011010100
10110011
1011101000
110000101
101000000
1111001
1101111100
1110010101
11011000
1111111101110001
1111111101001100
10110010
100011101
1000100101
111011000
101101111
1000101101
1010100111
11000011
1111111001111110
1111110001100010
1111100101011100
1111101010011100
1111110101111101
1111111000011000
11001
1100110
1111111101001100
10011110
10110011
1111111111010000
1011101110
10001100100
101100001
111011000
1111111111100001
100001111
101100101
111100111
1111111101100011
110101010
110101011
111011111
111000000
1111111101100000
1000111110
1111111000010101
1111101001111001
1111100101000110
1111100000001001
1111100111111000
1111101000111011
1111111001001001
1111111
1010111110
1001100
1111111100100110
1111111110000001
1111111101010001
1111111100110110
11000110
10111101
10011000
111000011
1101101101
111110101
11000011
100000001
11010
1111110111100000
1111111010001101
1111111001101100
10111000
11010011
1111111111001101
10001010
1111110000001111
1111101110000110
1111110101101010
1111110111111001
1111111010000101
1111111101110010
1111111111011110
1110011
100000011
10100100
1111111010110101
1111111110100011
1111110100001110
1111111001111001
1111110101110001
10000001
1111111111101101
100110000
100001010
1001101000
111100010
1111111110011110
10100
1111111111010010
1001110000
1111100110
10001110111
10110101101
11111011
1111111100011011
1000101010
11001101
1111111111011101
1111111111101000
1111111101011011
1111111110001000
1111111110000111
1111111110010010
1111111101001011
11111101
1101001
1011
1011010100
1010010100
10001000111
1011010011
1101011001
111001101
10011
1110010101
1110010111
1110001
1011110000
10101100001
1010010011
111101101
10000
1110010
110011100
101101101
1100100
10000111
1110101
1111111101010110
