101000100
110111
10001010
100101001
1111111011001010
1001100
1111111100110010
100101111
1111111101000101
11010110
11010110
100010101
1100101
10011100
1111111110111110
110001
1111111011100000
1111111011110000
1111111111101111
101001
100100
10110101
10100101
1111111011110111
110010
10000111
10100111
10110101
1111111110001110
11110100
1111111011011100
10110000
1111111111000111
111100
110100010
100001010
101010110
111100100
10001010
10010101
1111111101111101
1011
1111110111010100
1111110110101101
1111111010111100
1111111101100001
1000100011
110110011
111000111
10100100
10111000
111100010
1111111111000100
11100010
1111111110010101
111111
100110001
101
1111111101000000
1111110111001001
1111111110011010
1111111100001110
1111111100101110
10011001
111101110
110111011
1011010100
1110010000
0
1111110111110101
1111111011101111
1111111100111011
101111110
10000011110
1100110001
1000100100
1110000001
10011001101
1110000000
1011110100
1111111100110100
1111111001101000
100010111
1000000
1111111111110110
1111111010111100
1111110110111010
1111110111101001
10000100
11110110
111000100
1111100101
1111111011
11010000
1111110001
11001011100
10010011111
1010110001
10100110010
1101100001
10010101111
1111000001
1101100101
10100110111
11010101110
1101101000
111000111
1000010001
11010100
1111111111101011
111111011
10101100
11110
1111111011111001
1111111000011101
11111110
1010010111
10010000001
11000100100
11001100011
11011110101
1111100010
10011111011
11000010100
1110001111
1010011001
101000010
1100001111
101111010
101010001
1011001010
10001110
1111111110111110
1100011
1011101
11111010
1100001000
111001001
110001
111001100
1111111101010000
1111111011001011
1111111110110000
1101001
111000000
10011110111
11110101111
100000101101
100111010110
100001111010
10101010110
1111000100
11101100
1111111111110110
1111111101101001
100110011
101100010
1111111101110111
1111111101111110
1111111111110010
1111111011000011
1111110100111100
1111111101001111
101010100
1101001101
1100001111
110100100
1001011000
11000110
111110001
1010011
101010100
110001001
10101100111
11101001010
11100110001
101010100000
100011011000
11000000000
110110100
110010101
110011001
11100000
1111111010110101
1111111011100100
1111111001001000
1111111001100100
1111110010011010
1111110101101100
1111111011001011
1111111001110100
100010000
1011010111
1001100101
110010011
10011010
1111111110100000
10000011011
100011011
1111011001
1001001110
10110000011
100000010100
100000000000
100010011011
11101111100
1110111011
1000
110011
1111111011001011
11110000
1111110111110001
1111111110101100
1111111001110000
1111110100000001
1111111001011001
1111111010001010
1111110110010001
1111111110000000
1111110100101010
11100010
100111010
110101101
1000011010
1111111101100001
1000001011
1000110111
1101010101
1101101010
10000010101
11001101110
11110111110
100101101111
11000100001
1010000000
1111110111001000
1111111000110110
1111110001011001
1111110111101001
10010011
101111011
1111111011010001
111111
1111111111100010
111000101
1111111100000010
100110111
1111111010101001
100110000
1100100111
1111111001110000
1111111000001000
1001111100
1001100001
100000111
1011101111
1101110101
11111111010
100100110101
100110000001
11111000001
100110100
1111111001111001
1111101110000110
1111110001010000
1111101000011001
1111110011100101
1111110111111100
111010101
101101110
111000011
111001100
110011010
100100000
10010000
111100
100011110
10011010011
1111111101111000
1001110100
1011100100
101010001
1000011010
1110000010
10000010011
100001011000
100011011100
11001001111
110010000
1111111011010100
1111101111100010
1111101011100111
1111100100100010
1111110001110010
1111101001001001
1111110101001100
1110010
111001000
111010010
1000001111
1010100111
10110011
100100010
1111111001010111
101010101
10100001100
111100010
1111111101101011
101010000
111111010
110001010
10001100010
10101010110
11010100010
10010100110
1010111010
1111110111011110
1111110101011100
1111101111100101
1111110000101010
1111110001001101
1111110100100000
1111110100011001
1111110111010101
1111111110011110
11000000
1
100000110
10000
1111111001100110
1111110100000111
1111101101010101
1111110111001111
1001101101
1111111111011010
1111111000111001
110010111
111111100
1000110000
1100111101
1000010011
11110001
110001010
10001001
1111111100100001
1111111000100110
1111111100010100
101010000
11011100
1111110110110110
1111110010110010
1111111000010100
1111111001011000
1111111000010100
1111111010010000
10100010
1111110101110001
1111101111101110
1111101011111001
1111011111000110
1111101111000011
100011101
110000100
1111111111000001
1111111111011100
1000010010
111000110
1010101110
1111111011111001
111110100
1111111111011001
1111111001101100
1111111010010011
1111111111100010
1001111101
101011001
11011111
1111111011011100
1111110100110110
1111110110011101
1111110111101011
1111111111100111
111101011
1111111110111000
11010010
1111110101011100
1111101100000110
1111101111011101
1111111101001010
1000111
1111110011001100
1111110000000100
1111111110000110
1001011101
100101001
1011011100
1111111101100110
10110111
1111111000101111
1111110110011100
1111111101010011
1001101001
101001110
1010111001
1000001011
1111111100100000
1111110101000110
1111110101111100
1111110111111001
101101100
111001000
1001011001
111011000
1111111110111100
100101011
110111000
110100111
1111111011010111
1111100110110110
1111110010010001
110110110
111011111
101000011
1101101010
1111111011111000
1111111000111011
1111111011100110
1111111110110000
1111110111110100
101000111
110110111
1001110100
11011100
1111111101101101
1111111100000011
1010001
1111111011010100
11010101
1111111110
1111011111
1110000010
1111001100
1110110010
1010001000
1010110111
1001111
11101110
1111111011001110
1111111111110101
10101110
100011010
1101110110
101010110
1111111000010110
1111111010110001
1111111100110101
1111111010000111
1011001
1111111011010111
101010011
11100010
100110011
100010001
10110000
1000110111
10001110001
10011001000
11000011101
10001111000
1110000001
1011110111
10001111100
1010110001
101010000
1111110100110000
1111111001101001
111001
1001110010
1110110100
1010000011
1000101010
10111001
1100110
10000101
1111111101001111
1111110111001001
1111110010010110
1111111110011100
1111111111100000
10101101
1111111110001010
11000110
1100111101
1101011001
10000101111
1100111011
1110100101
1100001100
100110001
1011001110
111101101
1001011
1111111010000101
1111111011110001
1111111010110100
1000001111
110001000
10000100100
1111110001
1001111110
11001001
10101111
111110
1111110001110101
1111111001100011
1111111010011100
10110010
111110110
11100110
1101101111
10010010011
1011001110
1110001011
1010101011
1001110011
110110110
100010001
1001100000
1111111101100110
1111111101111001
1111111010110011
1111110101011011
1111110110111011
111111011
1111111100111000
10101100011
10000010111
1011101111
10100001
1000
1111111101101111
11110
1111111110011000
100011011
1001000101
101101101
1000000101
1000110000
100110110
100011111
1000110001
10101001
1010010110
1100101
101010111
10111110
1111111010011010
1111110111100110
1111111011111101
1111111011101001
1111
1111111111100101
11110010
1111000010
1111001110
100011110
1111111110000000
1101
100010000
111001000
1111111110000011
1000101011
111100100
1010000001
111001110
1001100001
11011001
1001100
1111111010001111
11001011
1001100010
100010101
100111011
10101000
1111110110011000
1111110011110001
1111111010001010
1111111100111011
1111111011001011
11111011
101011100
1111001101
1111111101001100
1111110101111011
1111110011111110
1111111101001101
1010110
111101
100101111
1000101110
110010101
1001101001
100110100
100100011
1111111101100101
10010100
1111111100010101
10010000
1101100
111011
1100101111
1000110111
1111110111011010
1111110110101011
10110100
1111111010101010
10101110
11111101
1101011101
1001101010
1111111011110100
1111110001101010
1111110001010111
1111111010101001
1111111101100110
1111111001001001
1111111111100001
1111111111101010
1101110
10110111
1111111101100110
1000110
10111111
1111111010011001
1111111101010000
101010001
1011001010
1110001001
111000100
1111110110111000
1111110110100111
1111111110100000
101100100
1111111110010010
1111111110111000
10100100
111100100
1111010001
111001000
1000101
1111111111011011
1111111100101010
1111111101111001
1111111110111011
1111111010001101
101011
1111110111111011
1111111100000001
1111111111000110
1111111110111101
1111111000010111
1111110110010111
1101010
1010111110
1111111100
110001000
1111111111010111
1111110110110101
1111111111110100
1111111110001000
1000001
101000
1111111110110000
1111001
10101011
1110000100
10000110101
1000110100
1100111000
1001010010
1000001000
1111111111001101
110000111
1101
1111111101000101
11010111
10100001
1111111110110000
10101011
101110001
1111111111010011
1111100
100111011
1101101
1000101
1111110100111111
10001100
10000010
1111111011011010
11001001
1111111011100001
10110100
1111111101010001
1010110101
1001011000
10001011001
10000010000
10010101111
1111001001
10000101011
1101100011
1101011101
10000101000
1110010111
101101010
10000011
10000101
1001001
1111111010110111
1111111110110100
1100
1111111110110001
101001000
1111111100100010
110000110
1111111110100111
10100011
1111111011011011
10110010
1111111101011110
10101111
1111111101100100
1111110001011110
1111111110000110
1111111011100111
1111111010111001
1111111001010110
1111111000101100
1111111000100011
1111111111011010
1111110111010111
1011
1111110101110011
1111111111100101
11001011
1111111100101000
1111111101110000
101110111
10
100001110
1000100110
1111111101011000
10011001
1010000
10000000
1000011
101100
1111111111100001
1111111110101101
11100
101100111
1001000001
1111111100110110
1001110
11011011
1111111100001101
1111111101111110
1111111000100111
1111111011100001
1101010111
1111111101001001
1111111001110001
100111000
1111111111000101
10000010
111001
110100111
111001110
1001111101
1000100
1111111101100011
11001011
1111111100001011
1111111110101000
