1111111111100010
11010
1111111100101010
10011101
1111111100011110
1111111110111001
1000100
10001110
1111111011000100
1111111110010110
11100101
100010101
101100100
10001001
1111111100100010
1111111111100001
1111111110001101
1111111100100111
1111111111001010
100110101
1111111110100110
100001011
11000000
1111111111111100
10101011
1111111100010001
1111111101101011
1111111011011010
1111111011110101
1010111
1111111110000101
11110010
1111111110111001
1011100
10110100
11001
101001010
111110110
110010111
11100011
1001100010
1011000101
10010
11000
1111111101100001
101
110110101
10001110
10001000
1001100001
1011001011
1001110010
1111111111110010
110011
1111111101000111
1111111101101011
1111111111110010
1110110
1011000
1111111111010011
111000111
1111111100010110
10111010
100000101
10100
1111111000011111
1010101
10000
11100110
100101100
110111100
1111111110111101
1111110101100010
1111111111011100
1111111111000100
1011111101
1101000110
1001101010
101111110
100100111
1111111101010100
1111111011011100
1111111110010110
1111111011110010
1111111110101111
100110
1111111000100000
1111111110100101
11110
1011001
1111111000101010
1111111111101101
1111111010111110
1111111010000100
11110111
1000010
110000110
100110100
1110110
100000110
100101101
11011010
111101100
100100000
1001111101
1011100111
1000001101
111110100
100011011
1111111101100011
1000011100
1111111011110100
11011001
1111111111100111
1111111001000010
1111111011111001
1001110011
1111110101100110
1111110011001111
101110
1111111110011001
10101110
1111111110110100
10010011
10101011
1101100
1010000
110001011
100101011
1011010000
111001011
111101001
101100110
1001010000
100010111
11010000
11101010
110101000
1001110100
1011000101
1100101
1111111100001011
1111111001011110
1111111000000101
1111111100101011
1111110110100100
1111111110010011
1111111010001110
1111111110110100
1111111100011111
1111111010110000
1111111100000111
1111111110000010
110000110
110001101
10101000
1111011
101110010
11110101
111110101
110011010
101
100110111
11011110
1001111011
1101001001
10111110
111111111
1100011
1111110110010000
1111110101101000
1111111001000101
1111111010001001
1111110111010011
1111110010000110
1111111101111111
1110
1111110111000000
1111110100000010
1111110101011100
1111111111010000
10100000
1111111110000100
1110001
1111111111011100
111010
1100111
1111111100110111
10010010
100010000
100100110
1001001001
1001001110
1011000100
101111000
101000111
1111111011101101
1111111000011010
1111110010011101
1111110011010010
1111111001000000
1111111100110100
1111110011101010
1111110101100000
1111111110100111
1111110010111101
1111110101100001
1111110011101001
1111111110011011
1111111011001011
11111000
100111001
101011010
1111111110111100
1111110101110010
1111111000110010
1111111001000110
1111111011101101
1111111001010011
100110110
1101101100
10011000110
101110
1000100000
11001110
1111111110000100
1111110110000111
1111111100000101
1111110101110100
1111111101011011
1111111100101110
1111111010000111
1111111010010101
1111111001010100
1111110011110100
1111110000111111
1111110111010010
1111110010101000
1111111001110100
1111110110100110
1111111110001101
1111111001001000
1111111010101001
1111110100101000
1111110110100110
1111110110101111
1111110010111100
1111111000100000
10000111100
10011010110
10011010
100100010
1111111101110101
1111110110000110
1111111100101100
1111111011000011
1111110110110100
1111110110111011
1111111011011000
1111111000010011
1111110111001010
1111111001000100
1111101111010011
1111110000110101
1111101110010000
1111110110001000
1111101101000010
1111101111100000
1111110101001110
1111111100101101
1111111011001001
101000101
11101
1111111110001111
1111111100000010
100110001
1110100011
1110101001
1111111100000000
1111111001101111
1111111010101100
1111111010001110
1111111001011011
100010110
1001111
1111111011110011
1111111001100010
1111110100111100
1111110011100101
1111110110101101
1111110100000000
1111110110001001
10000101
100010
1111111100111001
1111111011000011
1111111011011010
1111111010101110
100001000
1111111111001100
110111001
110111101
101001011
10001111101
1100010111
1111111000101011
1111110100010011
1111111001110001
1111110110001001
1111111011110101
1111111011101011
111100001
111110011
1100110
1111111101100111
1111111101011010
1111111011000000
1111111111110111
1010010010
1010110101
11101101000
100010000001
10110010101
101001110
1001011
11001101
11110111
110011100
1010011010
1001010101
1010010001
1011100000
11111101
1111110111100100
1111110111010010
11101000
1111111100110111
1111111011100011
1111111001101110
1001100001
1100110110
1010001011
10100001010
1011111101
1010110011
11011000101
11101110101
101000111010
101001000000
101100100011
10100101000
1100001110
111010011
1010010101
1000101010
1000101100
1010101110
1011110111
1110000101
10000111011
1111111011100011
1111101011000001
1111101001111100
1111110111110111
1111111100011001
1111111100010110
1111110100111101
1001000110
11011010110
100011110110
100100111110
101100011000
101011101010
100111011010
101111000010
100101010101
100101110110
10100010110
10000111
1011010001
1010010001
1000100010
10110101
10000101000
10000101000
110111110
1011100001
100000010
1111111100000110
1111101011111011
1111100001001111
1111110111100010
1111111000111001
101100000
1111111000101000
10001011010
11011100101
101100100001
110001010110
101011011010
110011110010
101011100001
10111101011
1100000110
1000000100
1111111100111000
1111111110110110
110100000
101110010
1000110100
1111111110011110
1010010
1100000001
100111001
1110111
111101101
11010000
1111111010010110
1111101000100000
1111111011010001
1111111001101111
10010001
1011100000
10001001110
11110011111
11111100110
100101010101
11111010101
11010000010
1000011110
10100011
1111111101010100
1111111001101011
1111101110111011
1111111011010000
1111111111101011
101001011
1111111110000011
11110111
100011110
1001000101
1111111111010000
11101011
10000011
1111111010001101
1111111101000111
1111101011001101
1111110001110110
1111111101111110
100000011
100110111
10000110010
11001100000
10001000011
1000011110
10001010
10100
1111111011000111
1111111001000101
1111110111010001
1111111001000100
1111110100011111
1111110100011000
11110111
1111111101110011
10111000
100100110
10111111
1111111101111100
1111111101001111
1111111001000001
1111110111101011
1111110110100101
1111101111010100
1111110001001000
1111110101111010
1111111111100111
100010111
1001010010
100111011
1100101100
111100100
11001011
10001
1111111001000001
1111110000010010
1111111100111100
1111111100010110
1111110110111100
1111110011111110
1111111010100011
1110010
101101100
101110111
100010
10010011
1111111110010100
1111111111011100
1111111111011011
1100101
1111110101111100
1111110100101001
1111110001011100
1111111011001100
111010
111001000
100011110
101101101
11100000
1111111011101101
1111111100000010
1111110111000111
1111111011111010
1111111110011001
11100111
1111111110100111
1111110111000101
1111111001000001
1111110100111111
1111111001110101
1110010
1111111010011101
1111111100011111
10000
1111111101101010
101000101
110101100
1111111111111010
1111110101011001
1111110100101110
1111110000011111
1111101111010001
101010010
11010110
1011001011
1111110110110101
1111110111001010
1001011
1111111111011000
1111110001011111
1111110100000100
1111110101101011
1111111101011101
111100
1111111100100011
1111110110111111
1111111111100001
1111111001111110
1111110111001101
1111111100110010
110010110
101101111
111101110
100101010
101001111
101110011
1111111001111000
1111101110000101
1111101110001111
1111110110111010
111100
100100111
1111111111001010
1111110100111001
1111111001001011
1111111001001110
1111110011100110
1111111010001001
1111110111010110
1111111101101101
1000101
1111111101111101
1111111011100010
11000010
1111111111001000
1111111100010000
1111111100001100
1111111110111100
110111110
100010
110010000
100110111
101000100
101010101
1111111011111111
1111110101111000
1111110010110111
11011111
1100100
1111111101100010
1011011
1111110101000001
1111110101010100
1111110011100011
1111111100101101
1111111111101011
11000000
1111111101010001
1010001
10101111
1111111100110110
100011000
1111111111010001
11011111
10010
1000100
1111111110100010
1111111001111110
10100010
110000111
1111111110110100
1111111111111001
1111111101001001
1111110110110001
110011110
10010011
10101
1111111101110111
1000000
1111110111010100
1111110001001101
1111101100111111
1111110000000000
1111110110011110
1111111100001011
101101
1111111110100011
11011001
10100001
101111000
1111111101010110
10100
100110
1111111110111010
10000001
1111111011011110
11001001
1111111100000010
1000011
10101111
1111111100011100
1111111011110101
101011100
1111111011110011
1111111011101010
101001
10010110
1000000011
1111111100100011
1111110100111100
1111110101101111
1111111000010011
1001010
1111111011011101
1111111110000011
100001110
1111111101110111
10101110
110010110
1111111110100011
1111111101111011
1111111101011001
1111111111101000
10001100
11111
11000101
1100000
101101101
11110011
11101010
11001
10100101
1111111011111001
11110101
1111111011010110
1100101000
1111111011010001
10010111
1111111111101111
1001010100
1111111101001100
1111111111010000
110110
110001000
10010110
1111111110100001
1111111110101000
10000111
1010010111
110011011
1000001111
1000111
1011010101
1011111
1100110101
111101110
1111101110111011
1111110001110101
1111111101010101
1111111101110011
1111111100110100
1101101
1000000110
1111111100111100
1111111111010001
110001
10101
100001
1111111101110110
1111110111101111
1111111101100111
1111111010100010
1111111001000010
1111111110100101
10110110
1111111110011100
100010011
1101100
1100100100
1011011011
1011011101
101001011
110010010
1101111001
101110111
1111111111110000
1111111110001110
100100100
10000100
1111111100111000
1111111111111111
1100101
11010000
1000101001
1000101100
1111110111001110
1111110111101110
1100100
1010010
1110011
101101110
100111100
1110000
1111111111001110
1010000101
11011011
101101
1111111100100011
1001011011
1100011110
110001100
100110001
1111101
1111111110100101
1111111111010100
11010010
1111111011000010
1111111100110000
1111111111111001
110
1111111000111000
1111110101100001
1111111001111111
1111111110111101
1111111010111101
1111111110101110
1111110011111101
1111111110101101
1111111010001001
1111110101001111
1111111010001110
1111111001011101
1111110011011101
1111111001111100
1111111110000011
1111111011100011
10110100
110000111
100000111
1111110110110001
10000010
100010010
1111111111001011
1111111111010101
