1111111111011011
1101000
1111101
1111111100011100
1111111100100011
1111111110010010
111000
10101100
1111111110000101
1111111100010111
10010111
100001011
1111111111110111
101000011
1111111111111100
11011100
100101111
100010100
1111111101110000
101001100
1011010
1111111110011001
1111111100111101
1111111111010111
1111111011110110
1111111010110110
1010000
101000010
1010011
11010
1111111011000111
1111111111010010
1111111101100111
1111111101111001
1110100100
1101000110
1011001100
1001011000
100101011
100010101
1000111101
1000101001
111000001
111110100
1110001111
110100111
1011010010
1101111000
1101011110
111011000
1100010110
1011010011
10111011
1111111011000101
1111111101110001
1111111110011010
10000010
1111111011011101
10010101
100001000
1100110011
1010000111
10000101000
1101100000
10001000110
10011010010
11100100110
11000110011
11111010010
10101000111
10001000000
10011111100
10011010111
10010100000
10101110010
10011101010
10101000111
10001110010
10000011010
1111011101
10001101111
101101100
1111111111100001
10111
1111111011010011
1000110
1111111111001010
111010010
10000010111
100010110
10010111110
1101001100
10000001101
1011100110
1101100111
1101101111
1110010010
1101010000
1011110001
110000101
100111110
1111111110100010
101001010
11010010
1000111010
1000110100
1001110111
10000110111
10001101000
1111
1001000100
100111000
1111111100101110
101010100
1111111110000110
100001000
101000000
10000110111
1010010101
11111001
1100001101
10100100
111001101
1101001000
1101001110
1110111
1010110000
100011101
10110100
1000010111
101101000
110100011
101100110
11101010
1111111011011010
111011
10110111
1000000
1001110100
110010010
100110111
1011111
10010101100
1110101101
1000010111
10010001
1111111011011001
10100111
1111111100010110
11110000
1111100
1111111110011000
1111111100110001
1111111010011110
11
1111111110110000
111111010
1001000001
10100001
110110000
101011000
1110001
1111111111010101
1101101
110110001
101000101
1001110000
1001000011
11001101
1011010100
1111111111001101
1111111101110011
1000010111
1111111001010100
1111110110100111
1111111110100110
1111111100101101
1100001
11001000
11100100
1111111111000100
1111111011010100
1011
101100
1001101
1111111010011110
10010001
1111111100101111
1111111111010010
1111110010111010
1111111001000010
1111111000100000
1010001010
10100010010
1000010011
110010110
1111111010001100
1001011101
1111111100001001
1111110110100101
1000011101
1111111000101000
1111111110100111
1111111000001110
1111111011111110
1111111110111011
1111111100110001
1111111110011001
11110110
1111111100110110
1111111100110110
1111111010111010
1111110111110001
1111110000000110
1111101100111110
1111101110001101
1111110101100010
1111101110110100
1111110010010111
1111101000011111
1111111101001001
110111001
100101001
1100001
1111110111101011
11100000
1111110111011110
1111110000100111
1111111011011011
1111111011001111
1111110110111110
1111111011111011
1111111101000111
1111110110101010
101110111
100101
10101000
1111111110010001
1111110001001100
1111110101010011
1111110011101011
1111101110011001
1111101101100001
1111101010101110
1111110000001001
1111101100001000
1111101110001101
1111101011010011
1111110111001100
1111111111111101
11010010
1111111110100110
1111110110100111
1111110100101110
1111110110011000
1111110100111010
1111111110010001
10010101
1111111010110101
1111110111000100
1111111111100010
1111111111011101
1111111010011101
10001011
1111111111010011
1111110101000111
1111110011001001
1111110111100111
1111110001111101
1111101111100001
1111101010101110
1111110000110101
1111101111010110
1111101111100001
1111111000100010
1111101100000100
1111111000110101
1110000000
1101001011
1111110110011100
1111111110110011
1111110110011111
1111110100011001
1111111011000011
10001111
11011
10
1111111000000101
1111111001001011
1111110110110100
1111111000101011
1111111111100100
1100100
1111111110110010
1111111101100011
1111110011001110
1111110100000101
1111110111010111
1111111001110101
1111111011011100
1111111011011110
1111111000101011
1111110011100101
1111111000010100
101001100
1101000000
1100110010
1111110000001100
1111111111001100
1111110110111100
1111110100010000
1111111110001101
1111111100010110
1111111010011110
1111111001110100
1111110111100011
1111110100001111
1111110101101101
1111111000000110
1111111101110001
1111111011011011
100100
1101000000
1111111101101001
100011010
1111111111000111
1001011
11000001
111010
1111110010100011
1111110001000000
1111111011001000
101001110
1111101010
111011100
1111110111001011
1111111001000100
1111110010011011
1111101011111011
1111111011111100
1111110001010001
1111110100101101
1111110001010110
1111110101111000
1111110110101111
1111111011111100
1111111110011001
1111
101001101
1100010001
10100101111
11010001
100000011
110100110
1111111110101110
1111111110111010
1111110110100001
1111111010010101
1111101111111111
1111110100000110
1111111010011111
101000111
1011101011
100101011
101011111
1111110001010001
1111110111011010
1111111000100101
1111101101011000
1111110000101110
1111101110101101
1111110101001010
1111111111001101
1111110111011100
1111111010101111
1111111100001110
111110100
10010101010
1011000011
1000110011
1111111110011111
1000
1111111101001010
1111110111001011
1111111101101010
1111111011001010
1111111000101110
1111111011101100
1111111110000010
100000100
10110110000
101001110
110010111
1111110101001011
1111111001000001
11001101
1111101100001100
1111101000010011
1111110111100011
1111110000100110
1111110111101101
10000101
1111111011100010
1111111001010010
1001111
1100101011
1100101000
1101010000
100010010
1111110101101110
1111111010110110
1111111110000001
110111
1111111010111110
10010
110011
11101011
1100101011
11010100101
1001000111
1000010
10100001
111100100
111111111
1111110011000011
1111111010001110
100011011
1111111011110001
1111111010101000
1111110011001101
1111110100101010
1111111000101110
111110010
10101011110
1101100100
110001100
11010010
1111111000100100
1111111110000111
110000
11100100
101110101
1111111100101010
1110000
101100000
10011011010
1001101101
101001100
1111111110110100
1111111111000110
1100000010
1101110001
100111000
101100
1111111110100010
1111110111100100
1111110110011001
1111110010101010
1111110010111000
1111110110101111
1010100
1111000001
1010010000
100111000
1111111101101110
100010110
1010101000
1100000100
11001
1000111001
1111111111010101
111111000
1101000101
11110110100
10111011000
1111111110000100
110111
100001101
1000101011
10001001110
11010010
100010101
100100101
100110100
1111111100010011
1111110000100011
1111110011001110
1111110110111000
1111111001001111
1111111100000010
1111111001100110
1111111100110110
10000010
1111111111100101
101010100
1111001101
10011100
111000110
11010110
1000101
1000111011
10011000000
1001100000
1111111001000111
1111111001010111
111011110
101011
11001000101
111111011
100001110
1010100010
10100000
101010100
10000
1111111000100011
1111110110110010
1111110101110111
1111111101001001
1111110110001101
1111111111000110
111011111
1100010101
10000110000
10000010101
1001011000
101111001
100101011
1101010001
1100010011
11011110101
100101000
1000111111
11001100
1111110100110001
1111111101100101
10100001100
1100000010
1000001110
110011111
100000011
111011000
1011110011
110101110
1111111110100011
1110110
101110000
111111
11000010
1101100101
1010111110
1000111001
1001110000
100001010
1010000101
1000001100
1001111110
100110110
10101111010
1011001011
1000011000
1111111111001110
1111111010111101
1111111101100101
10011110100
10000001000
1010001100
1010111010
10100111101
1101111111
10011011010
101100100
1001011
1010001
10001011
10011000
100111100
100100010
111010110
1101001100
1010100110
1101110011
1100100010
1000110001
10000111101
1001010001
1001011100
1100011111
101001001
1111111101110000
100111101
1011110100
10011111010
1101101101
10111010
101101010
1100111101
1111101011
111000111
1011001000
110110011
111001000
1101001
10110101
1111111011110001
110110
1001101000
10000111001
10101011111
110011001
101100100
1010011011
111110111
101100011
111010010
1111111101110101
1111111101001000
101000
11100011
1111000100
10001110101
1010001010
1110000
10000111
101101
10010001
1001011110
1111111110011111
10101100
1111111110101011
1111110011011111
1111111011011010
1111111111011110
1111111101011001
110011000
1001011101
1010001110
1111110010
100111001
10011110
1111111111110001
100100110
11100001
1111111011101000
1111111100110100
1111111011110011
1111111111011001
110101101
11010011001
1111011011
101001000
1111111010000101
1111110100101101
1111111001011101
1111111110011111
1111111111011000
1111111011110111
1111111000111011
1111110101001001
1111110000111100
1111110001100110
1111111001110001
1111111100100101
110011001
1001110010
1100001110
10011100
101000101
11101101
11001101
11111100
1010000100
1000101
100010000
1111001
11000
1011111010
1111111101001110
1111110100101111
1111111001001100
1111111001000101
1111110001001100
1111110111100111
1111110011011000
1111110001111011
1111110011101100
1111110110001101
1111110011100111
1111110110111100
1111101111001011
1111110010110010
1111110111000101
1111111000110010
1111111100110110
1001111
1111111101101001
1111111011110111
1010111100
1010101100
1100010
1111111110001000
10100001
100001101
11110110
1111111000011000
1111110100101000
1111111000011000
1111111001100100
1111111000001010
1111110000010011
1111110101100010
1111110100000111
1111110101101011
110011111
1111111111010000
1111111100001111
1111111001011111
1111111010101001
1111111000100000
1111110101111111
1010
1111110100110001
1111110110001101
1111111111001001
1111111110101001
110110000
111010110
1111111111010101
1100110
100011
1111111110001001
1111111110001000
1111111110010111
110101
1111111110011101
1111111010001010
1111110011011011
1111111011001101
1111110010011011
1111110011111000
1111111001010010
1111111111011100
1111111011101010
1111111011110100
1111111100101001
1001100
10111101
1111111000100111
1111110111101010
1000010
100011010
10010101
10110100
1110000
1111111011000000
110001
10
1111111111111100
1111111011100001
1111111100000111
100
11001101
1111111011111100
1111111011111011
1111111010010011
1111111111011110
1111111101100010
1111110101110001
1110100
1111111000001100
1111111111010100
11001100
1111111100101010
1111111100011110
1111111011110111
1111110000100110
1111110101000000
1111110110110100
1111110100010111
1111111110010010
1111111000010110
11101111
1111111100110101
101011
10101111
