1111111011111100
111010
1111111111100000
1111111111010110
1111111110101001
1111111011001101
1111111011000011
1110000
1111111011000000
10101111
1111111110000101
10111
1111111110010001
1010000
100110110
100100000
110101
1111111110101110
1111111101111110
10000100
1111111100101001
1011100
1111111100100111
1010
101111
1111111100110101
1111111110101100
1111111100110001
1111111010111001
1111111011100000
1111111111001100
1111111111110101
10100110
1111111011110101
1111111011100010
1111110001011111
1111111000010110
1111111000101111
1111111010101010
1111111011011111
1111110010111001
1111110011000100
1010011011
1010010001
101010101
1010110
110111
1111111111101001
1111111001110111
1111111011111100
1111111010010100
1111111101100110
1111111111001111
11010
101001011
10100011
11110001
11100101
1111111111100000
1111111110001100
1111110110100010
1111111001010010
1111111000111100
1111110100110000
1111110111001100
1111111111101010
1111111101011110
1111111000001111
1111111010101100
1111111100100100
1111111110000001
110010100
1000111110
1001010
110000011
11011000
1001011101
1111111111000101
1111111110010001
101100001
1111111111010100
1111111110101000
101101
100100000
1111111011011010
1111111110111001
110001100
1111111100100110
10011000
100110001
110011101
1100000011
1110000001
10001100000
1000010101
1000101010
1101100101
11000110
1111111111100101
1100110
1111111111010100
1111111011100110
1111111100000000
1111111100000000
1111111110111101
111000110
1111111011111000
1111111110101101
101001110
1111111010111101
1111111111111101
10101100
100001000
110001111
110100010
100100100
10110110
1011000000
1010010001
1101000110
110000011
1110000001
1111000100
1110010000
10001010101
1100100010
101110010
101111111
111000010
1111111011110010
10110011
1111111110110101
1101010
1000010
101000000
100010111
10001110
110100110
1111111010000111
1111110101111011
1111111110111101
100101110
111010101
1111111101101011
1111111011101001
1100001011
1000101001
111110001
1111111101010111
1000111110
111111110
101000100
100100010
11011100
10010011
100010110
1111111111101100
10000011
1110111
101111001
11000011
1111111110000011
110000111
1000111000
101110010
11101100
110000110
1111111000101011
1111111110100011
1000110110
10111
1111111101010110
10010100
100001011
111000110
101101100
111100010
111000101
1010010011
1010100000
1101
11101111
1111111110101011
1111111011001110
10111010
1111110
10001011
10010
1000001010
1111111111101000
1110101
1010110111
10000100000
1111110110
1101101011
101010111
111100
110000111
1111110011100011
1111111110101110
110110011
1111111111111111
11000110
11101100
1001100001
101000010
1111111110000100
100001011
11110001
11111101
110000111
10101
1111111111101111
1111111011101101
1111111100111001
1111111110001110
100001110
111111001
1000011001
1111111110101110
10011111
1111101111
10001001001
1111111110010111
1111111100100100
100001100
1111111100001110
10011111
1000001
1111111100110011
1111111110111100
1110111
10010101
1111111101001000
1100001
100110100
101110011
1011011001
1001000100
1111111100110100
1111111000001100
1111110101110010
1111110101110011
1111111111000110
1111111001100100
101100100
100000010
1111111010110110
11111111
110110100
1011001011
100001100
1111111011110110
1111111111101110
1111111111100111
111111000
101100010
100100010
110100100
1000110000
11010001
1101110
1101
1111111101110010
1111111101110111
100000111
111100110
101011111
1111111000000011
1111110001011011
1111101111110011
1111101010111001
1111101100110110
1111101111101110
1111111000011110
1111110001101100
1111111110001000
100001000
100101101
111010111
1111111011100001
1111111101100001
10001000
10001101100
1100010110
10000001
1101110
1111111101001011
11101001
1111111110110110
1111111000000100
1111111011000100
100
1001110101
1111110
1111111000101001
1111110101001110
1111101011110101
1111101001000100
1111101110001111
1111100101110000
1111101010001111
1111100000011111
1111100011000100
1111101101101101
1100000111
1100100100
1010010000
1111111110000110
1111111110010001
1000100011
10000011000
1000011001
1111111000111001
1111111001011111
1111111001010111
1111110111000010
1111110101000110
1111111011110100
1111111111011000
1111111110100001
111110100
11011010
1111111010001010
1111111100110010
1111111011000011
1111111110010000
1111110100100111
1111110001001111
1111101011111110
1111100001001101
1111011011011011
1111100011101111
1111111111001111
1110110010
110000001
10011000
1111111110110000
100111110
1100100010
11101110
1111110100110100
1111110011011001
1111111011001100
111010
1111111101000110
11111110
110011
1111111110000100
111110
101111111
1111111101101111
1111110111001110
1111111110110000
1100110
1111111101111010
1111111100100010
1111111000101000
1111100100100100
1111100011011111
1111011100011101
1111110101100010
10100011
100011001
10101001
111111
1111111110010100
1001110011
1111110110010010
1111110010100101
1111101110111011
1111111001000010
1010001
1111111110001111
1111111111010111
1111111100100001
1111111110110011
10101001
101001000
1111111010000110
1111111101110001
1111111110001101
11001101
100101110
1111111110001000
1111111010011111
1111110111001111
1111101111011010
1111100001101111
1111110010101100
111000110
1111111101000111
1000111100
111011111
10001010
1100110
1111110100100001
1111101011100110
1111101010110010
1111110101000100
1111111100000100
1111111000001001
1111111001010110
1111110000000100
1111111010111101
1111111111001001
111001101
1111111111001011
1111110110111010
1111111000101001
1111111100111000
1111111110001001
1001010
1111111100101000
1111111000110101
1111111011010110
1111111011000000
1111111000010101
1101000111
1111111101011100
110000000
110101010
1011101110
1111111110110000
1111110010010010
1111100011010100
1111100101100010
1111100111101110
1111101000010000
1111110110000000
1111101110111010
1111110100011011
1111111011101111
101101101
10101001
1111111100011101
1111111001110110
1111110001011000
1111111010101101
1111111111011010
1111111101011101
1101010
1111111100101011
1000110101
110001111
1111111010111110
111111011
10000000
1111111010100110
10001011
111100111
1101101
1111110001000100
1111100001000011
1111011111111011
1111010100000111
1111100000100001
1111100110100100
1111101011001011
1111101000011110
1111110011110111
110000100
1111111011010100
1111110001100000
1111101011010011
1111111001001100
1111111101101000
1000100110
1001100
1111000
11000110
1000010111
1110000100
101110110
1110011000
1111101
1111111010111101
1000101001
111100010
10000110110
1111111001110111
1111101000110111
1111100010000001
1111011110010101
1111011011011101
1111100001111111
1111011100101011
1111011101001010
1111100110100101
1111101111011101
1111110001110110
1111110001110000
1111110110010111
1111111100000010
11111000
1010111100
110100001
110101
10111000
110110010
1000010001
1111110111010010
11111011
1010011010
1111111110101100
1000000
1000111000
11101110110
1011000110
1111111111110101
1111110011011011
1111101101001101
1111110000111110
1111100000011111
1111011100000101
1111010111010011
1111100110000011
1111110010111110
1111111000100110
1111110111001000
1010110
1111111101111010
10111101
1001101100
100011110
1100011111
101111010
1010011110
1001000011
1111111110011111
1011000
1000100
11110
1111111100110100
1111111110110011
1111111010
1110111001
100000111
1001
1111111110111100
1111111101100000
1111111011111100
1111110111011000
1111110100100111
1111110010011111
101001001
1111111101010011
1000010100
1010110000
110010001
1011001100
1010100110
1010000100
1100000110
111010
1101111000
1100101111
11111000
10010001
11011101
1111111101110001
10100110
1111111010101110
10100010110
1110001010
1101010011
1100101100
1101011110
1011111100
1110010101
10000011
110011101
1111111101101101
111100000
100111101
1001111100
111100110
111011101
1010001111
1100110010
11011110
1010010010
1101001010
1001101010
1111111111010110
1111110110111000
101101000
1011
1111111101100011
1111111110011000
1011111
10010000000
1100010000
10000010101
1101101001
1111001111
1011100000
1100101010
110011101
1010001110
11011000
111011010
1010111000
1010100101
1010011
101111010
1000110001
1000100110
101010101
110111000
1010110100
101101
1111111101111110
1111111101001000
1111001
1111111110011111
1111111110010101
1111001
10000000
1111101111
1101011101
111100110
110100100
110101101
11000000
11111111
1000101001
101011
110001111
1100111
1000111
1111111101011101
10001111
110011000
100010001
1010110011
1001010111
1000011011
1010000110
100011010
1111110000101011
1111111001100001
110001100
1111111100100011
1010
1111111100000111
1100001000
10001000100
10011011111
1011000110
1001001000
11110001
101011101
1001101
111010101
110100001
1111111110001011
11011010
1111111001001000
110000101
1111111010101111
11100
1111111110111101
1111111111100000
110111000
1111111010011001
1111110110100110
1111111000011010
1111111110001000
1111111100011101
1110010100
100100100
1111111101111010
1111111011101011
1111111101001100
1111100101
1010111100
11110001
11011110
1000000001
1000001001
1010100000
1010000101
10101001
100100011
1011100
101000010
1111111110000100
1111111110011100
1111111111001111
1111110101100100
1111110011101101
1111110101100010
1111111100000111
10001000
1111111010101110
1111111101101110
1111111110111001
101011000
10000001
1000011
100110001
1001001111
1111111101101000
1111111110100100
101110010
10010000000
10010000101
10000100000
10111001001
1110010100
1000001010
1111100011
10101010100
110001101
111010011
110110011
10110011
1111111110111101
111010000
10010100
1000001011
1100101000
1000001011
1010011
10101110
10111
10001010
1111111111111101
10011010
1111111101011101
11111111
100000100
1111111111001100
10110011
11001000
1111111000101001
1111111100111010
1111111110010111
11111
1111111100110101
1111111100000101
1111111101000011
100110111
110100000
1111111101101101
1111111101111101
1011111
111000000
1011010001
1001000100
101100100
110010001
101010010
1111111100001010
10000100
11011111
1111111111111111
1111111110101111
1111111101101011
10110001
1000100111
101111111
101111011
101011011
1111111101101010
10001001
1111111110000110
11000100
1010110
101110
11101011
1111111111110100
1111111001011000
1111111100111111
1111111010010100
1111111010011111
1111111111110011
110100
110101001
1111111100111100
1111111110101010
1111111100110001
100101101
