11000101
1000000
10110
11111110
1001
1111111010111000
10101001
1111111011111010
1111111011011100
1011001
11111101
1111111110101011
1111111110101110
1111111011111110
1111111111100011
10011110
1111111100100100
1111111111011100
1111111110000011
11010000
11010101
1011100
1111111111101000
1111111110110011
1111111100001001
1111111011101110
1111111110000101
1111111101010001
1111111100000100
100111111
1111111111010001
1111111100010111
1111111011110111
1111111110000011
1111111011000010
1111111000110011
1111111011111010
1111110101111000
1111111010110000
11110010
1111111111000001
1111110111111010
1111111111111110
1011111
1011010011
111101
1111110101010010
1111110011100101
1111111001011011
1111110111001110
1111110111011111
1111111011101111
100010100
1001110
1100001
1111001
1111111111001010
1111111110001111
1111111010101011
101100000
1111111111110101
1111111101100010
1111111010111100
1111111100000001
1111111010100101
1111111101100010
1111111001110111
1111110110101001
1111110101011100
1111101110001011
1111110011010100
1111110011011010
1111111100010110
1111111100011000
1011001
1111111000101000
1111111101101001
1111111111001111
1111110110100110
1111110111101010
1000111
11111010
101000010
10010
100100100
1011011
101011100
1101100
1111111111000011
1111111011011001
1111111000111001
1111111001000011
11000000
1111111111101001
1111111010010101
111011101
1011010
1111111000010111
1111111100011101
1111011
1111111001110111
11
101100011
101100110
100010110
1111111011010111
1111111000011110
1111110111000000
1111110100000100
10110
1111111110111001
1111111110101100
100001011
1111111110110010
11001110
10010000
1111110100000111
1111110100110101
1111111111111101
1111110111010010
1111111010101111
1111111101011101
100000
1000101110
11000
10011111
101001
101011100
101111000
1111111100111100
1111101111
1010101000
11111010
1111111100001101
1111111011000110
1111110100101001
1111110111111101
1111111010010101
1111110101111100
1111111100110100
100101110
11100001
10100101
111001110
1111111010100010
1111111010110010
1111110100100110
1111101011010111
1111110000101110
1111111000100110
1111111010010101
10011101
1111111101111000
1111111110110001
110011000
11000010
10000110
1100100111
10010100101
10010110001
1100001101
1000100110
10101010
1111101101110111
1111101111101010
1111110010000011
1111111100101101
1111110101111111
1111111110101001
1111111111010000
1111111010011110
1111111111000000
1111110010101000
1111110010101000
1111100111111010
1111101001101010
1111101010010010
1111110010011110
1111110111111011
1111111111010100
1111111100001110
111011011
1110101110
1000010000
1110100011
111011011
1101110000
1001110011
1011001101
1011000
1111111100001101
1111101101110010
1111110000000011
1111110011000011
1111111000011110
1111110111100011
1111111110001101
1111110110000101
1111110100001111
1111110110000001
1111110110110001
1111110001010010
1111110100011101
1111101111101000
1111110000100110
1111110011110101
1111111001011010
1101
10011100
1010100011
10100110111
1001101010
1010011010
111101001
110011001
10111000
11000110
1111111011111001
1111111100100010
1111111000011111
1111111100100001
1111111011010100
1111110010110101
1111111001111010
10110100
1111111010010100
1111110010010010
1111110100110111
1111110110111001
1111110001101111
1111110100101000
1111101110011111
1111110100010000
1111110011010110
1111111011111100
1111111110110010
1111100
10000100101
1110101001
1001101101
10001000000
1101001010
111010001
1100011101
1111111101110010
100001111
110110
1111111111000000
1000100
1000000
1111111101001100
111001
1111110111001101
1111110011000101
1111111011101000
1111111000111000
1111111000101000
1111110100111010
1111111000010010
1111110101011000
1111110110111100
1111111111100010
1111111100001110
110100010
111011001
1111101010
1011100100
1010010101
1111111111100101
10100101
100100000
11000
11000111
1111111010100111
1111101
100100100
1001111111
1011111000
110110100
1111111000111011
1111111001000100
1111111010011110
1111110101010000
11001011
1111110011011100
1000101
11110010
1111111010011000
1111111101101110
1111110101111011
1111111111000000
11000001
1001001110
1001011000
1101001000
10011110
1111111010110001
100000110
100111101
100000101
1011111
1111110111110000
1111111100110000
110100000
111011110
1011111010
10000110010
1111111011000100
1111111011000010
1111110111110010
1111110101110100
1111111101110110
1111110100100000
11100010
10110110
1111111110001101
1111111110000111
1111111010111100
1111111100000111
10000111
100001011
1011011001
1101101000
101110
1111110100111100
100
110011001
101000000
1000100000
100100110
1111111011010110
110110111
101011110
1100100110
10011000110
1111111100100101
1111111010000111
1111110000010100
1111110000111000
1111110110000010
110011
1111111010111111
1000010100
1111111001101111
1111111011100001
1111111100001000
1111111110010010
1101010
101001110
10001001101
1111000010
1111111111010000
1111110111000000
1111111111100111
1000100011
101110101
110100110
1111111110100111
1111110100010111
1111110100111010
1111111001100010
1111111101101011
1011011110
1111111100101110
1111111001111011
1111111000111011
1111101101100000
1111111011010010
1110001
10011111
1111111110001000
1111111100011011
1111111001110111
1111111111110001
11000100
1111111110111011
1000101100
10101101000
110110000
1111110101001101
1111111010001011
1111111101110011
1111111100110110
1111111011111111
1111111000110011
1111110010100101
1111110111101111
1111101111001101
1111101011111001
1111110111000111
1111010000
1010010111
1111111100000001
1111110111000100
1111101101010010
1111111110010101
101101
1111111011100000
1111111010011100
1111111010010011
1111111111111111
1011011010
111001101
100101111
1110000110
110000100
1111111100001001
1111111001011010
1111111110001000
1111111111010001
1111111110000000
1111111000111111
1111110111101110
1111111001100110
1111110101011111
1111101100011101
1111111101001110
1111111101001101
10111010111
100001001
1111111010100110
101110011
1111110000100110
1111111000100111
1101010011
1111111110110010
1111110110011100
10010011
111010100
1100010101
10010011110
1110000110
111100111
1111110111100100
1111110101001010
1111110001111100
1111111100110011
1111110100011101
1111111000000111
1111111111100010
1111111111100100
1111111101010001
1111110100001100
1111111001111000
10001100
1000010111
1100010111
1000100001
1111111010000000
1011100
1111111110011111
1111111111101001
1010000100
10111111
1111110100111011
1111111011000000
1001000001
1101110101
11000000111
1111100000
1111111110100000
1111101111110111
1111101010001101
1111101110111110
1111111000110011
1111110101100001
1111111011000100
1111111100001010
1111111110100011
101000
1111111101110111
110001110
11010001
1100000111
10111111011
1001111110
11001001
110110010
1111111011101101
1011001001
111111100
1000101100
101100110
1010110101
10001111101
10100010100
11111000101
1100110001
1111110001110101
1111101100001000
1111101110111000
1111111001000010
1111111011100000
1111111010110010
1111111010110000
110011010
11010100
1111111111101100
1111111110111111
10011111
1111111101010101
1111111100101111
100011010
101101101
1111110101101110
11111011
1111111000110011
11111100
1111110111
1110101101
1111100101
10011011111
10000100110
11111010011
11001101101
1111111111000111
1111101000010100
1111100011010110
1111110101101011
1111111100000001
1111111000010100
1111111100010101
1111111111101000
10000100
110111111
11
110001011
10101101
1110010
1111111100010100
1111111100111110
111101000
1101011
1111111010100101
1111111001011111
111101001
10100110000
10101001101
1101001000
11000110110
10110011001
11000011010
1101011100
1111101111111101
1111101011010001
1111101101101000
1111101110001111
1111111001000100
11010001
1
100110000
1011001000
1010000101
1100101101
10000101100
10011001101
11100001
1101101010
1000101010
101110101
10010101
1111111101010101
10111011
1000111110
10110110001
11101110101
11001000000
10001000100
10000100110
10000010100
1111111010101100
1111110101110001
1111101001111100
1111110000101011
1111110111001101
1111110101000011
1111111111000011
111101110
11010111
101001001
1111001100
10001101010
10100011010
10011111100
1010111011
10101001101
1111111101101000
11111110
111110
1111111100101101
1001111110
10011100011
11010100001
11010001010
11011100100
10110010111
110110110
100011101
1111111101110000
1111110001110101
1111111000011111
1111110100100101
1111110011011101
1111111011100111
1010001
1111111111001110
110001011
110111001
1010010010
1001110100
10001010000
1110011110
1010001011
1011010010
1111111110001000
1111111011100100
101011011
1111111101001011
1001101001
10000110000
10100110010
1110101011
10001100001
10001011100
110110001
101101001
10001010
100000000
11010000
110111
1111111100100011
1111111011101100
1011000
11111100
101111110
110100
10000000000
1001100010
1010100100
10111100110
10010000101
11010001
1111110111011011
101000000
1111111100111001
110011
1001011110
10101111001
1100101010
1110000001
10011011
111010010
1011110100
1010011
1100101100
1000101111
1000111000
100010110
10101000
1111111011110110
1111111000101000
1111111101010000
1001000
111011111
1001111000
1000001100
10010001100
10110011000
10011110000
1111111111000000
101111101
1111111101001011
1111111110010101
1111111010111001
1111111011110001
100101101
1000101101
100101010
101110111
1001101100
110100000
100011101
111110001
1111111110100001
10010011
1111111110010101
1111110111001110
1111111100010100
1111110101111101
10110111
100011110
11110011
11010001
1000100011
10010010000
1111101101
1001110011
111010011
1001101110
1111111011001000
1111111011100011
1111111110010001
1010100011
1111111000100001
10110011
1010001011
1000101011
1000111010
100001000
1110
11010011
11101101
110000
1101001
1111111101110101
1001111
101111000
100110100
1001110011
1110000111
10011011010
1110011010
111001010
1001010001
1010000011
10010010
10101
1100001
11001000
100111011
1001001
100100011
111100011
1000111111
110111011
100000110
101001010
11001000
1101010101
1000010010
1100010011
1011100110
1110001100
1001100000
101001010
11100001
100001011
111100010
10011000
101000110
1111111111001101
1111111110101000
1111111100100111
1111111101111110
1111111101111100
1111111011001001
1101111
1111101
100100110
100101011
1111111100101010
1111110111100100
11111001
1111111110111010
100100010
1100110
1111111100100001
10010000
100000011
1111101100011010
11010010
1111111111000010
1111110101011110
1111110101011011
1111111101010100
1111111110111010
1111111100000011
1111111100011101
10010
1111110101011000
1111111100001011
110
1111111101111000
1111111111100011
