10110111
10110
1111111011010110
1111111100100010
1100010
1111111011111011
1111111100001000
100000110
1111111011100000
1111111100100010
1111111111000001
1111111110110001
101101001
10011001
10110011
1111111110100100
101100
1111111111000011
1111111011110011
1111111111011101
1111111110110100
1110001
10110011
1111111011010001
100111010
11001
101010
1100101
1111111011010001
1111111110000111
110001
1111111111111010
100000100
1101000
100100100
100010
101110000
1111111111011001
1111111101001110
1111111101110110
10010
1111111100101001
1111110111111001
1111110111000001
1111111110101101
1111111111101101
1111111010111010
1111111111110101
1111111001011001
1111111111010001
110010101
1100001
1111111101101110
100100111
10110000
1111111101101111
100011100
1111111011000001
1111111010010001
1111111011111011
1111111111010010
1111111010001010
1111111001101001
1111111011011101
1111111100101101
110111111
11100000
1010110010
1111111101110011
1111111001110100
1111110001110001
1111110011110001
1111110100000000
1111110011011100
1111111101111001
1111111110101111
10001
1111111101000110
1111111100111111
1111111011100101
1111111111011111
1111111110110110
10101110
1111111011110111
1111111111010010
1110110
1111111110000010
1111111100000000
1111111011100110
1001011111
1010100
101100110
1110010001
1010100010
10001110101
1100000001
10101100011
1110111011
1110011000
111011010
110011100
101011
100111111
1010100
11101111
1111111000110011
1111111010100001
1111110011011011
1111111000111001
1000001
110011010
100010
1111111110011001
1111111110100000
101000101
1111111111010101
1111111011100001
10001111
1110011000
1100111101
10011101100
1010011011
1110101010
10011001010
1010101111
1001110000
110000011
111010010
101100110
101000000
1111111111101010
11011000
1111110011001000
1111110111010010
1000001
1111111000110100
100101011
110110010
1010100011
1111110100111011
1111111100011111
101
1111111010000001
1000100110
1100100100
1011110001
110010110
100111100
1111110001
1101010000
1000011101
100111111
10011101
10111110
100000011
1111111110111000
100101001
10
110100010
100101110
1111111111101011
1111111111011011
11011110
1000010
1111111100110001
1000100010
1001001001
1111110100001111
1111111101110001
1011010100
110111100
111101111
1111010110
111110011
1011010010
11000000
1010111100
110011110
111101000
10101010
100101001
1011111110
110010010
100100000
10000001
1000101110
11110111
1001011110
1111111111110101
110111110
1111101
1111111100011011
111101111
1111111111110100
1010111011
100011001
1011010
1100100110
1111111110110110
11110101
101111110
101111101
100010010
11000110
1000011
10101110
101011101
1001100110
100001010
1101001100
1100101110
1001011001
1011010100
1101111100
111010111
1010010110
11001100
100111100
101001010
1111111101111101
1111111110011011
110111111
1010110011
10101100
100001
1111111111010100
1111111110111110
1011011001
1101000000
1111111110111011
10000
1010001
10000100
11001
1111111101111000
101010010
111011001
10011111
1011010110
1000000101
1101000110
1000010100
1100111101
1001100101
110110010
11010
110010001
10001101
100111000
100100000
111001111
1111111011111011
1111111101100100
110101
110101010
101101001
1001011111
1111111010101111
1111111011101010
1111111111000100
11000100
1111111011011010
1111111001001111
1111110011010001
1111110101101101
1011010
1101110
1111111100100111
1111000
1000001111
110001000
110011100
10011111
10100001
1111111111110111
1100110001
1110110001
1100100111
11010111
1010000010
1010100
1111111011001001
11000010
1110011111
10011000
1111110111110010
1111111111001011
1111110110000001
1111111011010100
1111110010100101
1111101111100011
1111110001000111
1111110100101111
1111110010001001
1111110101000101
1111101001101100
1111110011001001
1111111100100010
1111111010011110
1111111110010111
1111111010000111
1111111011100000
1100011
1111111100101110
1101010100
10010110110
1010111000
11100010
1111110111000111
101000
11011000
1001001
1111111000100100
1111101101010010
1111110111010111
1111110000000000
1111101111011010
1111101110101011
1111110101000011
1111110000100001
1111110011110010
1111110011110000
1111101100101111
1111100100010011
1111101010100100
1111110001111010
1111111001110101
1111111000101101
1111111011010010
1111111000010111
1111101111010011
1111111000101100
1110111
1001110011
1111011001
100000
11011010
10110111
1111111011011000
1111111010011110
1111110010100000
1111101101111011
1111110101111101
1111110010000101
1111110000101011
1111110011000100
1111111011011010
1111110110110010
1111111011011001
1111110101100111
1111101100010100
1111100101101000
1111101011111111
1111110001101001
1111111110100001
1111110101100100
1111111001001010
1111101001100000
1111101101100011
1111110011100010
1111111000001100
1111111010011000
100110110
1111111011010101
11011
110111
1001110
1111111000010100
1111110111101000
1111101111000000
1111110010111111
1111110100110000
1111110000011100
1111111101100111
100111011
1111111111100001
1111111101111100
1111111110010000
1111110111000100
1111101110100100
1111101010010011
1111110011011010
1111111001111110
1111110111000111
1111110011111010
1111110011010010
1111110010101001
1111110011110111
1111110110111111
1111110010100011
1100011111
1111111100111101
10011101
101110
111001100
1111111110000000
1111111001000101
1111110011111011
1111111001000100
1111111101011000
1011011
1111111110010011
110011101
1111111001101000
1111111111111000
1111111001011000
1111111001101011
1111111000010111
1111110010010000
1111101111111001
1111110100000101
1111110100100100
1111111110101011
1111111001010011
1111111001110101
1111111101000000
101110
1111111101110111
1010010001
1111111111101111
1111111111101100
110110111
10111000
1111111111001000
1111111100101010
1011100
1111111100101000
1111111001011111
1111111010100011
1001010
11010000
1111111011100100
1111111101001101
1000111
1111111010101101
1111110010010010
1111110101111010
1111101110110011
1111111010101011
1111111100101100
110110110
110100110
1111111101000001
1111111100001000
111011000
100010010
1001101101
1000111110
1111111000010010
100000111
100111010
1011101001
11011100
1111111011111011
1111110101011101
1111110000001110
1111101001001010
1111111000100001
1111111111000110
1111111011100100
101111101
1111111100100001
1111110100001100
1111110110010110
1111101111101111
1111111001100100
10000111
1111111110001111
11000011
101101110
110110101
101110010
1010010111
1011001100
1110011001
100000101
1111111011001010
1010010011
111111
1101011110
1010100100
1111111110101010
1111101111111000
1111100111111110
1111100000011110
1111100010100111
1111101010001101
1111101010110011
1111101110101110
1111101110011111
1111101000011010
1111101011111110
1111111001010100
1111111001111111
110010001
11100000
11101
100100100
1111111101111000
110011
1111111011110011
1111111101101100
1111111111000101
1111111110011101
111100010
1011010
10000100
1101101001
1100001
1111111011100110
1111110110101010
1111101110011100
1111100100000110
1111100011000100
1111101000000010
1111011111001011
1111100101111110
1111100100100000
1111101001100111
1111110100010000
0
101011111
110010100
10100111
11001111
10110101
11010111
100000
0
100101100
1111110101101101
1101101
1111111011011111
1101011
11101
1100000111
111111000
1111111100101000
1000000
1111110101010011
1111110001111010
1111110000110100
1111101111110010
1111110010011100
1111110001010000
1111111101001011
1111111100100011
110111000
111101100
101111110
111000
1111111100110011
1001000100
1000110110
10100011
1111111100101001
10001011
1111111010100101
101101000
10001011
1111111100001011
1111111110001111
110110000
1011101101
111100010
100001110
1101
1111110
101110110
1100101
100100010
1101101110
101111011
1100010011
1110000110
1010001010
1001111001
101011110
1111111111000110
100111001
111111
10111011
1111111111011101
1000010101
1001000
1111111111100101
1010010001
110011
11101101
100101000
1010010000
1110011110
1001010100
111101001
100111000
100100011
1001100
110011000
1101001
1101001101
11000011111
10011110001
1101101010
1111010011
1000100010
1111111011111101
110110101
110111110
1111111111101111
11100000
111010110
10100011
1001101
1111111011101110
1001110011
11100101
1111111011001100
1111111100110010
100100101
110000011
1111111111110110
1111111111111110
10101
11101011
1011000111
1000101111
1000100011
10001100110
1011011101
1001001110
100110111
100100000
11111000
1000111011
1001000111
1001110111
110111111
1111111011111010
1010000011
1001110101
100110011
1111111110000110
1011
101000011
1111111110101101
1010111
111011001
1101001101
1110011010
1111001100
1100101000
1000011010
110000100
1011000000
10001100100
10000110111
1100010111
1010100111
101010011
1001000010
10010
1001100
10010111
10000
1100101
1111111011011111
111001001
1001100001
10101001
11100111
1011111011
1111111101111010
11011001
1111111101001010
101010100
10011010111
10100100011
10001111110
1101110111
10100011001
1101111010
1011101011
1100001010
1010110001
1100011101
1010001001
1101110000
111001001
101011
1110111001
1000101001
1111111101011101
1111111011010010
1111110111110001
101101101
1110011
1100110100
1000110111
101100101
10001000
10100110
1111111101110011
1111111101100100
1111111111101000
11101
1011011
1101101101
1101011110
10100110010
10010100011
1111100110
1000110000
1111100000
1111001011
10010011
1111111110111001
1001010111
110000101
10000110
111010
1111111100100111
1111111110110010
101111011
1000100100
1001111000
10011010
1111111110001111
1111111100000110
1010011
1111111100000100
1111111010111101
101100
1111111111101000
1111110001001010
1111110001001000
1111111000011111
1111110010010011
1111110011001110
1111110111101100
1111111011110110
1111111110110110
1111111010010000
1111111110001110
100110111
110001010
1111111000111010
1111111110100101
110101001
110100010
1001011111
11101111
11001011
10010101
100011001
100010001
11010100
1111111100101110
1111111111101100
11010000
101001
1111111101111101
111101001
100011100
1101110
10100101
1111110111100001
1111111111010001
10100000
10000010
1111111001111001
1111111100100010
1111111100001110
101000
1111111101111011
1111111011110101
1111110111000111
1111111001011100
1111111110000011
1111110111101110
1111111000111011
10000101
1111111110010000
10011110
1111
