11010110
1111111111111101
11000
1111111100010111
1011001
10100111
1111111101111100
1111111110010110
111001
11000010
1111111101011100
1111111111001011
1111111010101101
1111111101101100
101100001
11000011
10010001
1111111111000111
1111111100111010
1111111111010110
1111111110100000
1111111111101001
1111111011010111
10101101
1111111111001111
1111111101000011
1111111100100101
10011110
11000111
100111101
1111111110011001
101000010
1000000
1111111001111010
1111111011001000
1111110011011001
1111111000111001
1111110101001000
1111110010001100
1111110111110001
1111111111001000
1111111110100101
100101
1111111111001111
1101000101
11111101
1111110000000001
1111111000110110
1111110011011001
1111111010101101
1111110101011101
1111110111111100
10110000
10000000
11001
10101011
100110101
1111111110110110
1111111110101101
101011111
10000101
1111111110000000
1111110110010010
1111110001001100
1111110010110001
1111111011100111
1111110001001000
1111111011100100
111001
1000001011
10000101
100111
1111111100000110
1111111101100001
1111110011100101
1111100101101010
1111101101000011
1111101010110111
1111101101111100
1111110000010101
10110101
110100011
100001010
10010111
1111111101111001
1111111011000100
11000010
1011
1111110100000101
11010001
1111111011100001
11011001
10010011
1100000
11
111110101
1000100
100110000
1111111101101100
110001010
100110011
1111111100111001
10100
100001
1111111101100111
1111101110011100
1111100010000101
1111101001110110
1111110000111001
100000101
1111110111110001
100110
1111100
1111111111010001
1000111010
1001111011
110110111
1111100110
1011010111
111001001
1101011101
11011101
1111111011010010
100110111
111101
100000000
101011001
101000000
101110000
11001001
1100111
1000111101
1111111000100001
1111111000000011
1111110101011000
1111101000011111
1111101001101111
1111101101100011
1111111000000011
1111111100000000
100110110
1111111100101100
100001100
10111011
10000000010
11010001101
10111010000
1110100010
110101011
110000001
1111111111001000
1111111010011011
1111111010000011
11111001
1001010011
1011100101
1010001010
10111110
10001010
1111111011010011
1111110111101001
1111111100000101
1111111110010111
1111110001010011
1111101111101111
1111101000001000
1111110000011011
1111110001101010
1100111
1111111
100100010
10000100001
1100001110
11011110000
11101100110
1111111010
110010001
100011001
111110110
11101010
10111010
11100010
110101011
10011111
11111010
1111111110111001
1111111110011101
1111111001010011
1111111001101011
101000
1111111111010110
1111110011000100
1111101001000001
1111011111001100
1111101000011100
1111111001010110
11101100
1101100000
10111001
10001000000
10100101001
10100001100
11010000101
1100101011
111000101
10010
111000011
110110111
110101
1000110000
10000100
1111111001010011
10010010
101111010
100010101
1111111011101010
101001001
1111111101011100
1111110111111111
1111111010000101
1111100100111000
1111100100000001
1111101101000001
1111111101001111
1110000
111110100
110100111
10101011000
11100100001
10101100101
1110000100
1001011111
11100010
1111111100111100
1111111101011001
110111010
111100100
1100
1101000010
1101100111
110100010
11100001
1000011000
110101011
110111111
100100
101101010
1111110101010111
1111100101001001
1111011000111011
1111101001001100
1111111100010110
10000110
1100111011
1001111110
11110100111
11110110101
11010110000
101110111
100000111
1111111101010011
1111111011000000
1111111011010001
1111111001001111
1111111111001000
110011001
10011100111
10111000101
1111001011
10000000000
1010010010
1001011001
1010100110
1010101011
1001111110
1111111110011100
1111101100010110
1111100110101101
1111100011101010
1111111011100011
10110000
10011111
10110110110
11110100101
11001000100
10011110101
10001001
1111111001110001
1111101100010101
1111110100111000
1111111000100011
1111111011111000
1111111100100010
101101100
11001001010
10110101100
11110001000
10110010100
10010010000
1010000110
1110101100
10000011111
1110101000
1111110111001111
1111101000100100
1111101011000110
1111110010100011
110000100
1001110111
110101010
10101111001
11110101011
11010110111
1001000111
1111110011111110
1111101010000110
1111101100100110
1111101100100010
1111110100000101
1111110101100000
1111110110100010
1101001
111000101
1011100100
1011100010
1100100011
1001011100
1011010111
1011101111
1001110110
111111010
10110100
1111101110110010
1111101110010100
1111110010110010
1111111101000111
10101110
1100000111
10010000111
10110100110
1101110110
110101110
1111101110100000
1111101010000001
1111110001010000
1111110011110001
1111110111000001
1111110110001111
1111110000111000
1111110000100100
1111111010110010
1111111101111100
1111111101111111
1111111111100011
1011010
1111111111010100
1111111110100100
1111111111010111
110000000
10011
1011000
1111111001001001
1111111101111101
101100100
1111111010010011
101011010
10001010100
10000101000
101001101
1111111111010000
1111111000000101
1111110010010110
1111101101001100
1111101111101010
1111110100111111
1111110011100010
1111110000101111
1111101111111010
1111110110100011
1111110110101111
1111110111001010
1111111010000011
1111111110001010
1111111100110100
1111111101101110
11101
11001
101001011
1010010101
111101111
1100101001
1001111101
1111111010001110
110100100
111000011
1011010001
100001110
1111111100110010
1111110011010110
1111110001001111
1111110111100110
1111110101000001
1111111001111111
1111110101011101
1111110010110010
1111101110101010
1111110110110101
1111110110010011
1111110001010111
1111111101101110
1011100
1111111111011000
111011
1100001000
1100111010
10010101010
1011101000
1111111111101100
1100111110
11101001
1111111110111000
11010010
1011101110
1011111000
110010011
11101110
10
1111111010110011
1111111100101011
1111111101111110
1111111001011100
1111111000010010
1111110111000111
1111110100111110
1111110110110101
1111111011100110
1111110100100010
1111111001011111
11111100
1010110010
10010111000
10010010101
1101101001
10110110011
1010000111
1111111110001100
10110010001
1010111010
1000100010
1111111111100101
10111001
100001010
10011001111
1101000001
1111111100011010
1111111100100000
1111110111000001
1111111001011111
1111111001001100
1111111010011000
1111110101100101
1111111010001010
1111111110001110
1111110110000001
1111111100010101
10000000
1000000101
1101010111
10001001110
1100000111
1010101010
1111001000
1100001100
1111111101101111
11001100010
10000110111
1010111
1000100100
1000111100
1110110010
1111100100
111011111
1111111110010000
1111111001011011
1111110101111000
1111110111110101
1111110011110000
1111110001010011
1111111101101100
1111111010101111
1111111001100000
1111110101101001
1011
11111101
1110110
1010010100
1001011101
1101100111
1001101100
1011011000
101011100
1011001011
11001000011
111010101
1010101001
1111011
1010111000
1100001101
10101100001
100110011
1111111001101011
1111110100001000
1111110111010011
1111111100100100
1111111101001001
1111110110011011
1111110101000110
1111111110000001
1111111101011110
10010010
111100110
111111101
100110100
1001111111
1000001000
1011000100
1011100110
1111111101000011
1111111100001110
1011001001
10111111100
1000110000
10001
1001001010
1110011101
10101110111
10010110000
1101010110
1111111010101100
1111111011100100
1111111000111111
1111111101000011
11010
11000011
1000011
11001000
10001000
10111010
11000111
1011001000
1010010110
111110
1010111
100110011
101
1111111010101111
1111110001100011
1011101110
10001010100
1010111100
100111000
100111110
10101
10110011001
10000011000
1101001110
10111010
100011000
1111111110011011
111111000
101101110
1011111001
111000100
11101101
110110010
1111
11010111
1111111111011001
0
1111111111000111
1111111100001100
1111111010101110
100010
1111110101011011
1111110110110100
1111111100000001
1101001101
1111111011010101
11010001
1111111110111001
100000101
1100111011
1110001000
1000001100
101100111
111101
1011101
11110100
110010000
11110111
1111111111111101
1011
1111111011110111
1111111111010000
1101100
1111111101110100
1111111110110011
1111111100111000
1111110011100111
1111110110111011
1111110100001101
1111110101101010
1111111110001011
100100101
1001011011
110001
1111111110000010
1111111110001110
11010000
100010001
11011101
1011000001
10000001011
1001101100
1000100101
100000111
100010
101011001
1111111110111011
11110001
1001010
1000011010
100010
0
1111111100100010
1011101
1111110111010001
1111110110010010
1111110110000000
1111110000110011
1111111001011100
111111101
10010101
1111111101100011
1111111101010011
101000001
11011011
111110010
110100010
1001010001
1010011111
1110001000
110000111
1111000
10100010
11110011
10111011
110111010
1111111111001010
10011001
1111110110010100
1111111101101011
1111111110111001
1111110011101001
1111110110010000
1111101100111011
1111101110101011
1111101011011000
1111111010000011
110001
1010101101
1111111110110101
1101001
101111
101110100
1001101100
10001011010
1110100101
1100010111
1011001100
1010011
1111111101100011
1000001100
1000101111
101100101
1000000111
11010100
1111111110011011
1111111010001011
1111111100100101
1111110111101111
1111110010011111
1111110001110010
1111110100011010
1111110100000101
1111101101110010
1111111010010100
1010110
110000000
100101111
1111111110000111
100011101
1111111001101101
1111111100100000
100000010
1001001010
1000111
1000000100
1110100110
1011111100
100101110
110100111
10001011
10001110
1111111010011011
1111111100001011
1111111000001010
1111110101100111
1111111001010111
1111111110111001
1111110001010101
1111110101000010
1110100
1111110110011011
1111111001000110
1101010
100111001
1111111011101101
1111111111111010
10001000
101000011
1111111000000010
1111101111010101
1111111101110000
1111111101101001
1111110111000001
1111111110110000
1111111110001101
10001110
1111110101110111
1111110100101110
101111
1111111110010001
1111111110111111
110101000
100101110
1111111110100011
101101000
1111111101101111
1111111101000111
100001110
1111111111111011
1111111001010001
1111111101010000
10111100
1111111100111010
1111111111011100
1111111101011111
10100000
101010
1111111110101100
1001100111
1100000
1111111010101110
110001011
101110111
11011010
111100
1111111010010001
1110100101
111100100
101101001
1000001011
1001110101
11110111
110011110
110101010
1110111
110011000
1000101010
1111111111101100
100011100
11011110
1111111010111110
