100001001
1111111011010011
1010101
11110000
11101101
1110111
1111111100010011
11101010
1001
1111111110011110
1111111101100011
1111111100001000
1111111110011101
1111111111001001
10000010
1111111111101101
101000011
1000100
1100110
1111111100010001
11000110
1111111101101111
1111111111100001
1111111110001010
10100001
1111111100010110
1111111011001111
1111111011011011
11000101
1111111010110101
1111111101111110
1111111111001011
1111111111001111
1111111011111101
1111111100010100
1111110001100111
1111110111100011
1111110010100110
1111110101011101
1111110100111001
1111110001011000
1111110100000100
1111111011011110
1111110101111011
1111110010110001
1111110101010111
1111110011001111
1111110111010110
1111110010100101
1111110010011100
1111111001011100
1111111010011001
1111111101111001
11001001
100000110
101000000
100110111
1111111011000111
1111111110111100
1111111001101111
1111110101111010
1111111100101110
1111110100000010
1111110111011100
1111110010110001
1111101100001111
1111101101001110
1111100101100010
1111100101011010
1111110110000111
1111110100011100
1111100111100110
1111101101100101
1111111011111010
1111110001111100
1111101101010010
1111101011111100
1111110001100001
1111110100010100
1111101100001001
1111111001010101
1111111100011101
10001101
1111111111001101
100000
10010110
100100110
1111110011011111
1111111001000011
1111110011011101
1111110001010100
1111100111001111
1111100111101100
1111101011010011
1111101000000100
1111100111001101
1111100001101000
1111011100111010
1111011101001101
1111100000010110
1111101000001011
1111101110100000
1111111001011011
1111110110110111
1111110001011111
1111110100000000
1111110111111111
1111101000100010
1111101110000101
1111111010101010
1111111001101011
100100010
101100
1111111111001001
100011101
11000010
1110100
1111111110010001
1111101111101111
1111101110111001
1111101101000011
1111101101101011
1111101001111000
1111110001010111
1111111000010001
1111101101100101
1111100111100110
1111101110111110
1111101101011000
1111101110000010
1111110101001000
11100000
1111111111001001
1010010
101100
1111110011100110
1111111010111100
1111110101011101
1111110000100101
1111110010111111
1111111011111001
1111111111101100
1111111011101000
10110011
1111110111011010
1111111110111111
1111110000011111
1111111011011000
1111110111110101
1111110111100110
1111110100110111
1111111010001001
1111111010101001
1111110100011010
1111110101111111
1111110111111111
1111110100010111
1111110011110101
1111110000011001
1111110010101010
1111111100010010
1111111011101010
111111001
1111111111010010
1111110101110010
1111101100000001
1111110101010111
1111111000110010
100010
1111111100010111
101000010
1010100110
1111111001101011
1111111111110100
1111110101010110
1111111000010101
1111110111101011
1111110101001010
1111111011100100
1111111101101110
1111111001010001
1111111001100110
1111110110110111
1111101100111011
1111110001111011
1111110011111011
1111110100110000
1111110111100000
1111110100111011
1111111011010001
1010111
111001
1111111011101011
1111110000100011
1110
1111111110010111
100010110
1111111101100111
1011011100
10101101010
1111111100010000
1111111110010101
1111111011011111
1111111011100011
1111111000001000
1111111100000101
1111111010110011
1111111100011111
1111111111011011
1111111111001010
1111111100000110
1111101110001001
1111110111111010
1111111010111110
1111110100111001
1111111111101111
1111111111001010
1111111011000101
1111111110011110
110100011
1111110010001111
1111110100110100
101101000
1111110100110011
1111111010100000
100010011
1101001101
1101011100
110010000
1111111110010010
1111110111011000
1001111
1111111001011110
1111111011001101
1111111011001101
1111111100011111
100010110
1111111110000000
11111001
1111111110111001
1111110111110000
11100111
10011000
1111111101011100
100001100
1100110
1100101
101101
10111111
1111111010010100
1111111100100110
1111110111110101
10000101
1011011110
10010011
1001000111
1111111111000111
1111110001011011
1111110111111010
1111110001011111
1111111010010101
1111111000011011
1111111011010001
11110011
1001010110
1011000000
110110000
10001100111
1011001011
1110010110
1010001111
1011000
1111111110001001
1111111101011100
101010111
1111111011001011
1111111100000100
1111110111111001
10101001
11100010
10001100
1000101001
11100011
101000
1111110111111100
1111110101100100
1111110100101111
1111111011100100
1111110110110010
101101110
101101000
1011001111
1010011111
1001001110
1110000011
10100100011
1101000001
1010011111
1010001100
1000101000
11111100
110100000
10010011
1111111001100001
1111111000100111
1101000
10111101
100001000
101010000
11111001
1010000111
1111111110100110
1111111010010000
1111110100000010
1111111100101101
1111111100000101
0
1000001010
1001111110
11111110
1000011111
1111111101101101
1001001110
10111101110
10000110011
1110101011
110111011
1000111110
1111111011110110
11100111
1111111100100111
1111110110110011
1111101110111111
1111110111110111
1111111111010011
100000000
100011001
1101110110
10011010101
1111111100100001
1111111001010011
1111110000101111
1110
1100100110
1110011001
11100000
1000101111
1111111111011111
100110000
1111111100011110
111101011
10000001111
1110000100
1000001111
1000101111
10110
1111111100000000
1111111011101101
1111111001011110
1111101000001001
1111101000101001
10100111
1010011111
1111111100111010
1111111111011010
1001010100
1010011100
111101
1110000
1111111110010010
110111110
1000010100
110110101
111111010
1010011
1111111101101110
1111111001010010
1111111101101011
1011101100
101111
1000110100
1101110011
1000011111
1111111011010110
1101111
1011010
1111110001010010
1111101010100001
1111110001100010
1110000
1111111001000111
1111111011000111
100001001
1001000111
1100111100
110100110
10010110111
11011000
100000001
111000110
1001001110
111000000
1111111011100111
1111110011001111
1111111111111100
1111111111001110
111010010
1010010101
1010001111
10100101010
111111000
1111111111101101
10101010
1111111111110101
1111111001010010
1111111000101001
1111110111000101
1111110111100011
1111110001100001
1111110111110000
101011100
10000000
1001010111
1001101111
1010111011
101010000
1011000010
1110110011
10101010011
1100000000
1010
1111111011000001
101010111
1111111101001110
101111111
1001100111
1110001010
10001101111
1010101111
1111111111010100
1111111010011000
1110
11000010
1111111000111110
1111110001110101
1111110100001110
1111111011100100
1111111001010011
1000111000
11010
1111111101011011
11111
110101100
111001101
101110011
10011001000
11010000001
1010100100
1001110001
11101000
1001101011
1000111111
1000000100
1010110001
111001110
1010110010
101001110
1111111100010100
1111111100010000
100101111
1111111010100011
1111110110110000
1111110011100101
1111101101100001
1111111000001100
1111111001000100
1111111100111001
1000111
100010
1111110111101101
1111111010100011
110110010
11100000
1101101010
1010110001
1011111010
100001111
100001000
1110001000
1100110111
10010100000
1011010000
1111111110100001
1111111000011111
1111111000100010
1111110011000001
1111111101100110
10111101
1111111011100011
1111110110010010
1111110110001101
1111110001111011
11101
1111111000010001
1111111000111101
101101
110001101
1111110101000101
1111111100111011
1111111111010000
1111110110110011
1111111110101000
1111111111110000
1011111
1111111111100010
101111
1010101
111100100
101101111
1111111111111110
1111101111010111
1111101101111000
1111110011101010
1111111010000100
1111111001000111
1111110011010000
1111110000110001
1111101011010000
1111100111000110
1111101111101010
111100100
1000011100
101001110
1111111101110001
101100
1111111011110110
1111110010111110
1111110001101111
1111101110000001
1111110001000010
1111101110110000
1111110000010001
1111101001110111
1111101110011111
1111101010001110
1111101110110000
1111110101001011
1111110001010010
1111110100001110
1111101110110001
1111110001011111
1111111000110011
1111110110101000
1111110000001000
1111100111111010
1111100001011000
1111101100110111
1111111000101010
100100011
1011000110
1111111010111100
1111110100110101
1111111101001001
1111110100100001
1111101100001011
1111100110000110
1111100111000010
1111100100111101
1111101000011111
1111100101000101
1111100111000100
1111101111110001
1111101000110101
1111100111001010
1111101110010011
1111101111000000
1111110111010111
1111110111010011
1111111000011110
1111111010011111
1111110010101101
1111110000111001
1111101011100101
1111101000100011
1111111011001111
1111111110101001
1111111011010110
111010
101100010
1111111110001111
1111110110100010
1111101111010000
1111101110011000
1111110100100100
1111101101010010
1111100110100001
1111100100111001
1111101100001011
1111101100010000
1111101110010100
1111101111010101
1111101100000011
1111101011100101
1111111010111110
1111110111100111
1111111110001101
1111110110000110
1111111010010111
1111111001111110
1111111101011110
1111110111100101
1111110101110111
101101
101010100
1111110100111101
1111111011111111
1111111101011000
1111111100000101
1111111001100000
1111110101001111
1111111011100110
100010000
1111111111101010
1111110100101110
1111111011110101
1111111010001001
1111111011000100
1111110111010001
1111110111010111
1111101110110000
1111110111101101
1111110101001001
1111111110111011
1111111111001010
10001
11001110
10100
110010
1111111111011111
1111111110100010
111100111
100111101
11000101
1011
1111111111100100
1111111111111001
1111111010010010
1111110000000010
1111111001000010
1010100011
10000001
111000110
1111111101000101
101001100
110100110
1111111001001000
1100100
1111111010111010
1111111100100010
1111111101100000
1111111101101100
100101
1100101
1000010101
1111111101100100
101111110
111110110
100001011
1001110011
1100010011
1111010011
1111111100100110
1111111110001111
101000011
1111111011001011
1111110110010001
101010011
1110000011
1111111110011100
10010111
1011001
11100010
1111111011101111
1111111011111101
1111111001101101
1111111011010101
1111110101001011
1111111010000110
1111110001000110
1111111001000101
1111111111100110
1111111110011111
1111111101110000
101001110
10000111010
1001100111
1111111011001111
1001100
101010
1111111101011011
10100100
100001011
1111110100011101
111000010
1001010000
1000100010
1111111110101110
10110010
100001100
1000101
1111111010001101
1111111001011011
1111110000111110
1111111000000110
1111111010010100
1111111100101001
1111110111101100
1111110111011001
110111
1111111000000110
1111111001010101
100101000
1100011100
1011110000
1111111001110111
110000
1000011
1111111011001100
1111111101000110
1111111111011000
1111111101110100
11010111
11111000
101100111
101000000
1011111
1111111101011110
110000011
1111111101110001
1111110111011000
1111111010001011
1111111111000011
1010001110
10001010000
1110111110
10000000101
1101101101
10010100101
11111001
1110111
101111001
10000000
1111111101000010
1111111110110000
1111111011100100
1001000
1111111111111110
1111111111001111
10010010
1111111011100000
111011101
101111000
110100110
1111111110011000
110101001
1011100001
10000100010
1000010010
110010101
1011111100
1001010011
1010011000
1011100011
10101011100
10001111110
1011100100
11111111
1011010001
11100010
100100101
1111111011011110
10000011
1111111011011111
101011
