1111111110001110
1111111110101110
100101000
1111111110000111
100011
100110000
1111111110010101
1110110
100010000
1111111100001000
100101101
1011011
1111111010101010
1111111111001100
1111111110100011
1111111101101000
11011
10111
1111111110101110
111011
1111111111110011
1111111101110010
11010001
1111111011111000
1111111110010010
1111111101001100
1111111101011101
1111111111100110
11010111
1111111011011101
1111111101110100
10011010
1111111111001001
1111111011101010
1111111011111100
1111111000000010
1111111101000110
1111110110101100
1111110110010110
1111110101100011
1111110100010011
10011
1000111
110011000
1010100100
110101010
1111110111010101
1111111100101010
1111111101000000
1111110111000001
1111111100000001
1111111111010111
11111
101000000
1111111100110101
10100011
110011
1111111011001000
1111111110100101
1111111110101010
1111111011011001
1111110111000011
1111111000100101
1111110111110111
1111111111111100
111000101
1111111110010011
101001100
1000100010
1111100
1111111110110001
1111111110101010
1111110111110100
1111101111011011
1111101111110111
1111101100111011
1111110001101000
1111110100001010
1111111011001111
1111111111100110
100001110
10111011
1111111100110110
1110010
101001010
100101100
1000001110
100010111
1111111110001010
1111011
101111
10000101
101000111
10001000111
1100011010
1011001111
1111100100
111110100
11100100
10110100
1111111100011010
1111110000001011
1111101011001011
1111101001110101
1111101011010010
1111101010110110
1111101001010010
1111110100001001
1111111100000010
10000100
1111111101111000
10100101
1111111111011101
10110111
10000111001
111111111
1111111010111001
1111111110000101
101110000
1111111111111101
1000101100
1110110000
10000100111
1100110100
10000111011
1101101001
1100010000
101100011
1111111110010010
1111101110111111
1111110000111010
1111110001101001
1111100110000100
1111100101000010
1111100101101010
1111101101111101
1111101101111011
1111111010101100
101011111
111011
100011010
1111111100000000
1110110000
1111010110
11101010
10111011
10100100
11001010
1111111101111001
1010110
1110011
110000111
1001101001
1111011001
1010110100
111001000
11011100
1111111001000101
1111111000000000
1111111000101011
1111101100110000
1111100110101100
1111101100011011
1111101111010011
1111101101011101
1111111001010000
1111111100101100
1111111100110101
1111111101110100
101101011
11011001
10100000100
10111110
1111111001110011
100111110
1111111111111010
1111111110000010
1111111011001010
100000100
111010000
1100101010
1101110100
1010110010
1001111100
1000111000
111100011
101100001
1111111011101001
1111111001001110
1111101110100001
1111101001010000
1111100001000101
1111100101011000
1111110101001110
1111110110101010
1111111011010001
11010
1010000100
101101010
1001011110
1000110111
1111111100001100
1111111101100111
1111110101001010
1111111001001111
1010
1111101
110010110
1110100010
1111110101
1010001000
1001011001
1001001010
101000010
1010010010
1111111111101100
11100110
1111110010001110
1111101100111100
1111100010101001
1111100101010101
1111101001111000
1111110100010101
1111111111011110
1111111011010010
1100110111
1111111100111010
1100110101
1001011110
1111111000010010
11010000
1111111111101010
1111111100110101
1111111011011011
10000
11100010
1110110110
1000010000
10001011111
1101011111
101001001
1101001110
1110000110
1000101110
1000011
1111111100101111
1111111000001000
1111100000001101
1111011100010111
1111101011001111
1111110110110110
1111111101001011
1001001110
11001110
110100110
1111111101
10011010010
111110000
11101
10100
1111111001100001
10000010
110001101
1111111111111101
1000111000
10100011100
100000010111
10110100011
10000000000
1100000010
10000110110
1000110111
101001011
11100000
1111110101000100
1111100101000100
1111011100010111
1111100100110011
1111111100010111
1000000011
101001101
101111101
10011011111
10110100110
1100001010
100001001
10010110
100111010
1111111001111011
1111111100100000
1111111001010000
1111111101110101
1111111010111101
1111000111
11010010010
1010100101
10000011110
101111100
1010001010
10010110010
1111011110
1110001000
11011110
1111101010101110
1111010101110000
1111101001000100
1111111110100011
101011110
1000010001
1011100001
10001010100
10010010110
110110011
101110011
1111111101101110
1111111101001010
1111111111111010
1111110100000111
1111110011100101
1111110011111000
1111110101110101
1111111111011010
10001101110
1001011010
1111111110010101
1000011110
111111001
1101011110
11001000000
1101010110
1111111101010101
1111100110000110
1111100000001110
1111101101101110
1111110111101110
11110001
10111000
1100110
1110001111
101110101
100111000
1111111111111010
1111110101010011
1111110101100111
1111111010010001
1111111101001010
1111101110100100
1111101110100001
1111100100101011
1111110101111000
1011010110
10110111
100010100
110111010
1011011101
1011000101
1100011100
1111111101000110
1111110010001000
1111101011010010
1111110000010110
11001001
10011010
101100010
1111111110100100
1111111110111100
10000001010
1110010011
1111111110011111
1111110100111000
1111110110000010
1111111000100100
1111111010110101
1111110111011010
1111101110101110
1111101000100011
1111101100010010
1111110110111100
1010011101
1111111111101011
100110101
101010010
11111001
1111111100110100
1111110110111110
1111110101010110
1111101101010110
1111100110110101
1111101101111100
110110001
1011000100
1001101000
1111111111001000
100110100
1001110100
110100010
1111111010000010
1111110110010010
1111110101000000
1111111001111101
1111110010010000
1111110100010111
1111110000000100
1111110100111010
1111110010111010
1111111110011010
1111111110101010
1111111110000101
1111111010000011
11101100
11011010
101100
1111110101110100
1111110010011111
1111110100011010
1111101010000110
1111110111011010
1111111110011101
11010000010
10111100
1111111110111111
1111111100011001
1111111100011001
10010101
11100001
1111110110001001
1111110111011110
1111110011000111
1111111001010001
1111110101001000
1111111001000111
1111111000011101
1111111100001110
1111111110010100
1111111001110000
1111111111101110
1111111111000111
1111111111110001
1111111111111100
1111111111000101
1111111100100101
1111110111110100
1111111000011100
1111111001010011
1111111110001000
10000101
110011100
111001011
11011100
1111111111101110
110000000
10011011
1010101000
1111110110011101
1111111101101001
1111110110010101
1111111011100100
1111111111111010
1111111011111000
11000
1111111101110100
1111111011000101
1111111101010111
1111110110111111
1111111111100001
1111111101011111
1111111001111001
1111110110001011
1111110111100010
1111111100000001
1010111
100101111
110001110
110110001
10011111100
1111101010
1111111011100010
1101000101
11100101
1001001
11110100
1111110110000101
1111110110010010
1111110101111001
1111111110000100
11100111
101011010
1111111100110011
1111111110101101
1111111011110110
1111110011001100
1111111001011011
1111110110000111
1111110110110111
1111110101100010
1111111100101100
1111111111010101
1111111111010010
1001100100
101110000
1100011101
10101101001
10110101110
1001000000
1000011101
100010001
1111111100101010
111001000
1111110101001001
1111101011111010
1111101011111000
1111110011010111
10010100
10001010
11001001
100101
1111110111000110
1111110100000001
1111110101011010
1111111101110010
1111111010111110
1100100
101001001
110010010
100001010
1001110100
111100101
11100000
1111100011
10010101000
1100111000
1001000110
1111111101010100
101010111
1111111101000101
100101101
1111111101110011
1111110000000000
1111110000011110
1111111001101000
11011101
111011001
1000111001
1111111011111100
1111110110010110
1111111000011101
1111110111000011
1111111010110100
1111111101111101
1001011
100010001
100001
101011110
10001111
1000000001
1001100100
100100100
10001111011
1100011011
1100001100
10000101
10000011
1111111100011011
11110001
1111111110101010
1111110110001010
1111111001110111
111100100
11010100
11010
1111111100011010
1111111010111011
1111110010011001
1111111101100111
1111111010101010
1111111001101001
1111111010001101
10001101
1111111100000010
11110011
11010100
11110
1010
100010001
1100110011
1010011011
1011101000
1011110
101110
1111111111110100
11001001000
111001010
1110010
10110001
101100111
1111111111110111
1111111010000111
1111111110101011
1111111010011110
1111110101111111
1111110101110010
1111110100001101
1111111110000111
1111111010100001
1111111110001111
1111111010000010
10101
11000011
1111111100001011
1111111000011101
1111111011000010
1111111011101111
11111111
1111111110101001
1111111100000010
1111111100100001
1111111101011110
110010101
10110000011
10000111
1111111111111100
11001000
1001111001
1111111111011011
1111111111110010
101010101
111111
1111111010100110
1111111001111100
1111111100000010
11110001
1111111100000001
1111111000110011
1111111110101011
1111110111000110
1111110110011010
10010000
1111110110111010
1111111000100001
1111111100001000
110111
1000110
1111110011010010
1111111100100000
10110101
1111111100001101
1111111011010000
10101011
101000001
10111010
10000011
1110010
1000011
11011100
1111111011101011
101010000
1001100011
101110000
1110010
1101011
1111111111011110
1111111010111110
1111111100101101
1111110111010101
1111110010001111
1111111011110101
11111100
100010000
110110001
1111111001011101
1111110110100011
1111111011010111
100100110
11111000
1101111
1111111100011111
1000111001
1000011011
1111111101100001
1111111101110010
100100
1111111001000011
100000011
1111111110010011
1111111100110000
10111000
1111111011101101
10110101
1111111100110000
100111001
1111111000000101
1111111010101010
1111111001101111
1111111010100101
1111110101101101
10101101
100001110
1111111101
110001001
1111111100001001
10111110
100110101
1011010
1111110111001011
11101100
10100001100
1011000000
1001101000
10101000101
101110111
1011011011
110100110
1101110110
11001001
1000000001
1111111101000011
1010101110
111100011
1000101011
1010010100
101100101
1001100111
1111111111001011
1111111000000110
0
1001110
1000001101
10110
100101110
10010111
1000100
1111111111001111
110010110
1000111101
10000101000
11001000010
11000100110
101000001010
11100100110
10000011101
10000101110
10111100010
10111101111
1011101010
1110011001
10001100110
10100000100
1110011110
1001101100
1011110011
1101111101
1010011111
111010001
10101001
1111111110100111
1101
1111111011010101
100100111
100011111
1111111110010011
110110
1010101101
1001100000
1010000001
1100001101
1111101111
1110110010
1000000101
11001101
1101111001
11010101101
10001011110
1111111110
1011011001
1111101011
1110001001
1100000101
10000110001
1011001001
111110000
1111111011101110
1111111111100110
111110
1111111100000111
