10111110
1100010
1111111110000011
100001001
1111111100111100
1111111111000110
1001011
1111111010111010
100001
1111111011101001
1111111110110010
1111111011000000
1111111101101010
1111111101100100
1111111111100100
1111111100001101
1111111101111011
1111111101001000
1111111101111111
10111100
1111111100011111
10110110
1111111101001011
1011101
1111111101011110
1111111111010111
1111111011101011
11011100
1111111111011110
100101001
10011111
11100100
1111111110001100
100110111
100100000
100111101
100000100
11110101
1111111111001100
111010001
1001001010
1111101
110000
10100101
11101
100110110
100111
101110010
1111111110001101
1111111100010010
110000
1111111110000001
1111111100100101
1111111110001100
111000
101010
1111111110100100
11000010
11000110
101011011
11010111
1111111011010101
1111110101101010
1111111100010101
1111110101100010
1111101111010001
1111110110001111
1111110011010110
1111110111001100
1111110100110110
1111110011111010
1111110010011001
1111111011101001
1111111011111011
1111111000101011
1111111111010100
1111111101011100
1111111011000100
1111111011010010
1001101
10111101
1111111011000001
1111111111010111
11101
11001
1001011
100010100
1000101000
1000000
1111111101100000
1111110010111010
1111101110000011
1111110101101010
1111110111011001
1111110110010101
1111110001000001
1111111001011011
1111111001101010
1111111001101111
1111110111100110
1111111111010110
1111010
1111111111111001
1000101
100111111
101011
1111111100110111
1111110011110101
1100010
11110101
1111010
11001111
111111
1111111101100101
1111111100001010
100011000
1111111011010001
1111110100110010
1111110010101101
1111110001010011
1111111001001000
1000
1111110011110010
1111111100010011
1111110110010001
1111110110101011
1111110011010111
1111111100101010
1111111010101101
1111111010110000
1111111011111010
1001101
1111110110111101
1111110101111011
1111110101110011
1111111011000001
1111111101111101
1111111111010110
111010000
1111111000011101
10101011
1111111100110010
1111111011000100
1111111100111000
1111110000100001
1111110001000000
1111111010101000
1111111101110011
1111111011100001
1111110011100010
1111101111010101
1111101011101010
1111101111000001
1111110110101101
1111110100011101
1111101010110010
1111110000111101
1111110101100110
1111111000110011
1111110011000010
1111110100011111
1111110101011001
1111111110011011
1111111010101011
1111111101101110
1111111110000001
111111000
1111110110001000
1111111100111010
110111101
101101001
100110111
1111111110010110
11101110
1111111011100000
100100
1111110110101001
1111110001110101
1111110010101100
1111110000101000
1111110000110110
1111110100000011
1111110100111111
1111110001000101
1111101001100110
1111101110011000
1111110011111111
1111110011010101
1111110001101111
1011001
110111001
1111111011001110
11100
1111111100001011
11001010
10101100
1111111111000001
111010100
100101111
100100110
1111111111101010
1111111010100010
1000110
11001001
1011111
1111111100001110
1100111
1111111001001101
1111111111100000
1111111101000000
1111111010001111
1111110011110111
1111111100001110
1111111000101101
1101101
1111111001110000
1111111101111010
1111111100010100
11100
101000110
110001
10000
1111111011000011
1000100001
110111001
110111011
11100111
100100001
1111111110110110
1111111111010011
101000101
111100010
100111010
1001000
1111111101000000
10111010
1111111
1111111010010101
10101
100001
1100111
1111111101010100
1001100011
100101110
1000101101
11100001
1000111010
111010111
10000000111
10111001
1111111110001001
1111111110010000
1001100110
1100110100
11001010
111100011
1100010
101011111
111000000
1010000000
100011001
110111101
11111100
1101000100
1000010101
111011001
1111111111110000
100000100
10100101
110011000
1111111000
110101101
1010011011
111101110
11000110
111110000
11010101001
10001111000
110010
1010010100
1001011000
1000011011
1100001010
100110011
10111110
1000000100
10101000
11100001
100101110
101100000
1000001100
1011101001
1100000101
1111111011
1000111110
1000000100
1100011000
1100110001
10000001011
1001110011
10010101101
1111010001
1011110110
10001011110
10111000100
11001000101
10010011000
1111111111110001
10001000
1010100100
10001001111
1000011000
1001011011
1111111101111000
1010000100
100011111
10000001
111100001
1110011001
10101101000
1111100100
10011111111
1001010100
11111101
10011111
10010101100
10100111000
1110000001
1111100000
1000001010
101111001
1110000100
1110110001
10000000110
100111001
100101010
1111111111100110
101011100
1000101011
100000011
101001100
11000010
1101000111
1101101101
1110110011
1101100001
10101000100
11000100100
1101100101
10011
1111110111111101
1111110100010001
1111111010011011
11110100
111111111
10011000
10010000
1111111100101101
1011
10111
10001001
110101010
101000100
110011111
1110011
1011011010
101010001
1111111111110111
100110000
101000001
1010101100
1100011111
1000110000
1110001110
11010100101
1101010010
1100110
1111101101100111
1111011111110011
1111011100001011
1111101010100100
1111110011111101
1111110111100000
1111110010101101
1111110111010001
11101100
1111011
100111010
111010001
111101011
1111111000111110
1111110111011100
1111101
1110101
1010000100
1111111101111001
1111111000000000
100101101
10101
101011001
1011101000
1110010101
1001111100
1110111
1111101110001011
1111101001000001
1111100100000111
1111100100100100
1111101101110111
1111110011000011
1111101100111101
1111101101111100
1111101111110001
1111111111111000
1010000101
10001100000
10011101010
1111111111001011
1111110110111100
1011011
10011100
11100
101111
1111000
1111111111001000
11101011
11001001
100011101
1111111101110111
1111111110010100
1111111110111111
1111101111011100
1111101010000101
1111100011011011
1111100010001111
1111101010001111
1111101110001001
1111101111011100
1111110110101100
1111110101010111
1111110100110101
1111111111110010
1000000010
10000001010
10010100011
10111110
1111110110101011
1111110101100000
10100100
100011
1010011
1111111101100000
10001110
11000010
1111111100000101
1000010
1111111101110111
1111111100110000
1111110111100111
1111101000001100
1111100010100100
1111011111111111
1111101000110000
1111110101000110
1111110010010011
1111110100110001
1111110000100110
1111110101101001
1111111001000101
1111111100001000
10110000
10000111011
1111000100
1111110101001000
1111111000110110
1110001
1010010
10100001
1111111110001110
10110
1100001
1001101000
1111111101110101
1111111101011011
1111111110101110
1111111010011111
1111101111011100
1111101001111011
1111100000111010
1111101100101000
1111110100011110
1111110011101001
1111110111101001
1111111010101111
1111111001011101
1111110110001001
1111110010111000
1111111001101110
1001111101
1000011011
10010010
1111111110101011
1111110111011111
1001000111
101011100
1111111101000001
111011100
1111110011001000
1111111111001111
1001001000
101000101
1111111101111011
1111111100100100
1111111101101000
1111111011010100
1111110001100100
1111101001101011
1111110010111100
1111110110001111
1111111001110001
1111110001111111
1111111100111011
1111110101011100
1111110101111110
1111111110010000
100011110
111011110
1011
1111111100011001
1111110111111110
1111111001010001
1111110101110110
100010010
111010011
111010110
1111111011111110
1001001000
111010111
1111111101111100
11110100
1111111101111001
1111111100010000
1111110100110111
1111110001011110
1111111001111001
1111110010010010
1111111000011000
1111110010100010
1111110011001001
1111110110101011
1111111001000111
1111111000011011
1111111011100101
1000
111101101
1101010
1111111111110111
1111111000010001
1111111000101000
1100
1111111011000000
11011100
1111111001101111
1111110101011100
100001000
1001010101
1101001
1111111101011110
1111111110100000
1111111010010101
1111111100110000
11010101
1111111100111000
1111111010101111
1111110010101001
1111110010100010
1111111001101100
1111111101100000
1111110110100011
1111111101110100
1111110101011111
1111111010110100
1111111011111011
1111111110001010
1111110101100110
1111110111011101
1111110110011001
100011000
1111111011101100
10000100
1111111010110001
1111111011100010
1111110111001100
1111110111111001
1111111101001100
1111111110001110
1111111110010100
1111111000001100
1111111011011011
11000010
1111111101011111
1111111000111111
1111111010011111
1111110101110111
1111111000001000
1111111000011110
1111111110101010
1111111110100101
1111111100100000
1111111110010011
1111111010110011
1111111100111101
1111111011010110
1111111000100000
1111111101110100
1000
1010011
1111111100010110
1111110100000111
1111101111100100
1111110011000010
1111111101011100
1111111100101011
1111111001110010
1111111001100110
1111111101101100
10000
1111111100111000
1111111011010000
1101000
1111111110000101
1111111101011010
10111110
1111111101010111
111001000
1111111111100111
1111111001011111
1111111110100111
101101
1111110111000110
1111111011011101
1111111010111100
110111
100110010
1111111110111110
1111111101000000
1111110100100010
1111110101111000
1111110011111101
11110
1111111100010101
1111111111000111
1111111100000111
11010100
1111111111110110
1111111100000100
1111111110111001
1111111111011011
100
110111110
100001111
111110001
1111111111101001
1111111110001100
1111111001101101
1111110110111010
1111111000101101
1111110010100110
1111111100110000
1111111010101001
1111111111110011
100110
10000110
1111111100110110
11100010
1011101
111101010
1110111100
11101
10011011
11111010
10100100
111110111
110010001
100000011
10101000
11111000
1111111011110011
1111111110000110
10000011
10111
1001011
1111111011011010
1111111000010001
1111111010111100
1111110110111110
1111111010000100
1111111000011110
11101111
111100
1111111101100010
1111111100110100
1111111000100000
11101100
1110011001
1000110001
11101100
100011
110101000
11111110
1111111111101001
101001111
1011001011
111101110
1001010110
10111010
10000111010
1010100011
1010011011
1101101010
101000100
111010001
1101001001
101111001
1000100011
1100
1111111100111011
1111111100111111
11110101
11111010
1111111111010010
1111111110010101
1111110100100111
1111111111010000
1111111110001010
1111111100011000
1100001
1011110
111111
1111111110001001
110111
11011010
1001000100
10000101110
1011000010
1001010101
1010000000
1101000111
101111011
1001010000
1011001111
1111111011001011
1111111101110011
10001001
1111111011001101
100011101
1111111111001111
1111111100000111
100101000
1111111011111100
10101110
110011100
101001011
1111111011000010
110111100
1111111
1011100011
1111111101011110
10011
1101110101
1111111100011010
1111111110101101
11000
100110110
1000100
1111111111111110
1111111100100010
110110001
1111111110000100
1101101
100110000
100010000
1111111011010100
10010010
