1111111011111101
1111111111111011
1101100
1111111101100101
1111111110010010
1100100
1111111011001111
1010011
10101011
1111111100100000
1111111110110100
1111111101111010
10011000
1111111000111001
1111111101001010
1111111101011010
1111111011010001
1111111101111110
101000010
11100111
1111111011000111
100001011
1111111101011010
10000010
1110101
1101100
101011
1111111011000110
1100101
11010111
11
10
1111111010010101
10000111
1111110110101000
1111110100101010
1111111011011101
1111110111111111
1111110100111111
1111110111101010
1111110011100010
1111110100110110
11111111
1111111101000001
1111110110001101
1111110110101111
1111110000101010
1111111011100111
1111111000010011
1111111011101111
1111110011010110
1111111010010010
100100010
100000001
100001
100001011
10110000
1111111101001110
1111111100100100
1111111100001000
1111111010001101
1111110
1111111001000011
1111110011011011
1111110000000110
1111101101000001
1111100100000000
1111101101111010
1111110000101010
100001010
110011
11100101
1000110
1111110100001010
11110
100100
1111111000100101
1111110101000011
1111110010010110
1111110010010101
1111111000001001
1111111100001011
1111111110110011
110000
1111111111011001
1111111100111000
11001010
1111111000110000
1111111110100100
1111111000000010
1111110110101101
1111110011010111
1111100111011001
1111110000011000
1111101100011110
1111100110001110
1111101110100100
1111110110001101
1111101111110000
1111110000000011
1111110001111011
1111101100000001
1111101101010111
1111101110110010
1111111000110010
1111111011100010
111101100
11000100
1111110101100101
110000001
1111111101100010
1111111010111010
100010100
1111111010110101
110000010
1111110101101001
1111110101111111
1111101011010010
1111110110001000
1111110011111000
1111101111010001
1111110100100111
1111110110111010
1111110110110010
1111111010010110
1111110110000111
100000100
11010110
1110000
1111111110101100
1111111000100100
1111111010011010
1010111
11011100
1001100010
10000101010
1101100000
1101110001
1111111111110010
1111110010111110
1111111111101110
1111111011100110
10100
1111110011101101
1111101011101001
1111101000110000
1111110011010011
1111101101111110
1111110101100011
1111110110001011
1111110101011101
1111111010001001
1111111011110111
1111111101111000
1111111100000000
1111111100000101
1111111111110011
1111111010101010
1111111001011000
1111111101110001
100000100
1100001111
1011000001
1011010100
1101000111
1100110100
100001011
1110010
1111111101000010
1111110111001011
1110011
1111110001101010
1111110001111011
1111110101110000
1111110001011001
1111111001011111
1111111100010100
1111111100000101
1111111010110011
1111111000110101
101110
1111110101000111
1111111001110011
1111111001110110
1111110100001110
1111110111110101
1111110011001111
101011101
1111111111100011
111001
1100011101
1111010110
10101010111
10011000010
10110011011
101100010
100011001
1111110011001001
1111110110011111
1111101011001011
1111101001101110
1111110000000100
1111111010111111
1111111011000100
10110010
101010110
10100
1111111100110001
1111111101110000
1111111110010010
1111111001100000
1111110100100010
1111111011001101
1111110111000001
1111111000100110
1111111011000111
110101100
1000111010
1111100001
1110101110
1111111000
1101001111
10110001110
1010100111
1111111100101100
1111110100100111
1111111010010110
1111110010100001
1111101010001011
1111110111011110
1001101
100100000
1100
100101
111001110
11110100
101100110
101111001
1111110011101010
1111110000110011
1111111000000000
1111111001010111
1111111110010110
1111111111101001
11011100
1111111111100011
110010110
1101001011
11000000101
100000000110
10111101100
101011000
1111111100100010
1111110110001100
1111111001010111
1111101011101011
1111101100101000
1111111100101000
1111111110010000
1111111111011000
100011100
111010001
11111111
10000001111
1101101101
1111111100110111
1111110000110000
1111110101000100
1111110101110111
1111110010100001
1111110111000001
1111110111011000
1111111011000111
1111111101100000
1110
1010011001
10010101110
100111100111
11110011000
1111111001101111
1111111101110011
1111111100000101
1111101101010111
1111100001101111
1111111111110001
1111111011111100
111011100
1100011101
1111001100
1110000001
10011110011
10101001111
10101001111
10010
1111111001000010
1001011
1111111011100001
1111110010101110
1111101101101000
1111110001110110
1111110110011011
1111110111011000
1111110101101010
1111110001011001
10001000000
100110100001
10111010101
101100001
10011110
1111111001000011
1111101101000001
1111101110100101
1100110
1011010100
1001000100
110000111
1111100110
1111010110
1110010000
1001000100
1101000011
110101001
1001001001
1100010011
1001000010
1111111010101010
1111110010100001
1111110001111000
1111110001011011
1111110110000100
1111110010111101
1111111100010011
1111111110011101
10111110010
11010011111
111110111
111001
1001010
1111110011000000
1111110100100100
1111111010001111
1011011101
1100011110
1101001011
1011101001
111001011
110010001
110000010
111011000
111010111
1000101000
1111001100
1111111111110001
1111110110101000
1111110101101110
1111111001010010
1111111111100100
1001001
1111111010111001
1111110000011001
1111110110110001
1010010111
1110011010
1111111100001001
11011110
1111111000011100
1111110100111011
1111101111110101
1111111101001011
111000111
10001000
11111001
1111111101010000
10011111
110001001
101011100
1010110111
11001000
1010011000
1100011101
10001001
1111111011100011
1111111100110010
1111111010101101
1001001100
1111111101110011
1111111011011011
1111110110011100
1111110011101001
11111001
1100000011
1111111000110000
111101110
1111110111011100
1111111000001011
1111111011110001
10000
1011101
1011111
1111111100111011
1111111100111111
10110100
1111111111110111
1011110
1010000
101111
1000100101
1011001001
1001011100
1111111100111110
1111111101010111
1111111111001110
10110010
1111110111000111
1111111101011110
1111110100101100
1111111101011100
1111110100011001
1111111000011101
1111111001100010
10100111
1111111010000110
111001
101100111
1111111111100100
1111110111010000
1111110100001110
1111110111100000
1111111011111110
1001111
1111111110010101
101101101
10010
110100
1000010001
100110101
111101001
1111110111010110
1111111100000101
1111111000011010
1111101111110101
1111111001101000
1111110101010110
1111110110100011
1111110001101111
1111110111011111
1111111100010111
1111111010100011
1111111110110100
1111111011100010
1111111101011110
1001111111
1111110001001001
1111101010110011
1111110110110101
1111101111111100
1111110110100000
1111111011101111
1111011
1111111111111010
100100111
100010000
110111011
1100101110
1111111100011110
1111110110010101
1111110001110011
1111110100111111
1111110110000100
1111110100111100
1111111000101001
1111110101000011
1111111001100110
1111111100010000
1111111110010111
1111111111101011
1111111100011000
1111111101011111
1111111101000101
1111111110000110
1111111110111111
1111101110100001
1111110110111111
1111110100011101
1111110110001110
100101001
100111000
11000011
100111000
1111111111101011
1001010010
111011100
1111111100001110
1111110000010100
1111111001110010
1111111011111110
10000011
111110
1111110111011000
1111111011101111
111111111
1111111010000111
1111110110001010
1111111101110100
1111111011100101
1000
1111111111101111
1111111001010100
1111111011010111
1111110010110100
1111111000110101
1111111001010000
1111111010111111
10100100
1111111100101101
110011100
101000011
111101010
11111011
10000001
1111111010101010
1111101111110001
1111101111001011
1111111011101111
1111111110101001
1111111101111000
1111111110111100
1111011
1101001110
10100001
1110010
11010111
10010111
1111110110100011
1111111011010000
1111110101001100
1111110110110111
1111111000111000
1111111001110100
1111110101010110
1111111100001111
101001000
1111111101110111
1111111111111000
1111111011101110
101010110
1111111100101011
11011110
1111111100110110
1111101111011010
1111110101011010
1111111001001110
11000010
1111111111111101
11101100
1011010111
1110001000
1110010101
110000010
111011
1111111101000011
1111111000100011
1111111111100001
1111110011000111
1111110110001111
1111110001000110
1111111100000101
1111111111000011
1111111100011100
1111111101011110
1111111100010111
1111111110010011
1111111101011100
0
1111110111100011
1111111101011111
10001000
1110101
1111111111110000
1111111101111100
1110011
1000001000
1010001101
1011111110
1100010110
11010000
1000101100
11010101
1111111111000010
1111111110101011
1111111010111011
1111110011011100
1110
1111111010001110
1111111
1111111111001000
10111011
110110011
101011
11111110
1111111100101110
1111111011010111
1111111101101110
110001100
11010010
111010001
110011111
1100010111
1011101111
10111000000
10011111010
1110110101
1101111000
1000011111
1100
1111111101111000
1011
1101110
1111110111100101
1111111001000010
10010001
100110010
110000
1111111101010011
110101
10010010
1111111111011011
10000000
10110001
11001
10110001
100010110
1111111110001111
1000000100
1100000111
1101111011
10100101011
10010111100
1001101100
1111100011
1111011000
110001111
1001011010
1111111010011111
10011011
1111111101101100
1111111100010111
1111111011001000
1111111111001111
11101111
101001110
1111110111000010
100101101
1111111101011101
10001011
110
110100111
100100
100101
110111111
1001010010
1111111111100000
100100011
1000101110
10010010000
10001011010
110100011
110011110
11110000
100011001
1001101111
1111111011010100
1111111100010111
1111111011101111
1111111001111001
1111110111001101
1111100110000111
1111101010111101
1111110101110101
1111110011101101
1111111011011001
1011
1111111001111000
10111
101001
1011111
1101011
101011000
11011111
1111111101010111
10000010
1101000010
101011100
1001100111
10011100
1111111000110011
1111111011100101
1111111100010111
100010111
1111111101010010
1111111101110000
100111110
1111111010101100
10
1111111100010000
1111100010010100
1111101001100111
1111101010111000
1111100101000111
1111110001001110
1111110011110111
1111110010001111
1111110001001000
1111110101000101
1111111010010101
11111111
1111111011011110
1111111101011100
1111110110100001
1111111000010101
1111110001011000
1111111011010100
11110001
100100
1111111111101010
10010100
101011100
11011101
1111101
1111111111111000
1111111011111010
1111111111010000
1111110111100100
1111110100000010
1111101100001000
1111100000000100
1111100011010101
1111011111000110
1111100100100111
1111100111001101
1111100111110101
1111100010001111
1111011010110100
1111101011000110
1111101110110001
1111101101110101
1111101000101001
1111101101001100
1111110001001001
1111110010100000
1111111100100010
10101
1111110101001110
10111
1111111101010000
1
1001010
1111111101110010
100101111
1111111100101001
1111110
11000010
1111111101101000
1111110011010000
1111111011000100
1111111001111110
1111110111010110
1111111000101101
1111110110100000
1111110110110110
1111100110110111
1111110111111011
1111110011110110
1111110100010011
1111101100111110
1111110101100111
1111111101010111
1111111010111100
1111110010100010
1111111110000101
1111111100011110
1111111011101111
1111111110101001
1111111011001001
