10000100
11011001
1111111100011100
10000100
1111111110010110
1011110
1111111011101000
1010
1111111100111110
1111111110100010
1111111111011001
1111111111111100
100010
1111111010001111
1111111100101101
1110000
10101101
1111111100111111
1111111111011000
1111111011011110
1111111110010001
1111111100100000
1111111110011100
10000111
1111111110101000
10100111
1111111110000001
1011100
101001001
10000101
1111111101011011
1111111011001010
1111111011001100
1111111011000101
1111111111000001
1111110100111100
1111111000110011
1111111001000011
1111110111110000
1111111000001100
1111110100110100
1111111001011011
110110
100000111
1111111001001101
1111111000001010
1111111111001111
1111111001001000
1111110101111010
1111111000110100
1111110110010100
1111111001000100
1111111111011100
1111111110101101
1111111100001000
1111111110111110
10100111
1111111011000011
1110110
1111110110101101
1111111001111010
1111111001010110
1111110001000110
1111110111011110
1111101011111001
1111101101011111
1111110001011101
1111110010000000
1111101110000010
1111111010111100
1111111010110001
1111111111010000
1111111111101000
1111110110000011
1111111111100101
1111111100111001
1111111000010100
1111111001100001
1111111011101111
1111111111110000
1111111001110001
1111111100010011
1111111101010110
100100011
100100101
1111111101000010
101001001
1111111101110000
1111111000110001
1010001001
100000
0
1111110110001010
1111110101111101
1111110110000001
1111111011010100
11101111
1111111111111111
110000100
111010
10000101
110111010
110000110
11101010
110100011
10100100
1111111010110100
1100011
1111110011111001
1111111101010000
1111111000100101
1111111100100110
1111111101110000
101110100
1011001010
1001101111
1111111101111011
101000111
1111111111101101
1111111111000101
101100110
1111111110100101
1010
10101010
1100000000
1100000100
1101001000
1001011111
101111100
1111111111100111
101010100
1111111011001100
1111111011111110
111110
1111111110101110
1111101100100110
1111110111001010
1111111110101001
11001011
1111111000011100
1111111110001011
1111111111001100
11001000
1001100100
11010
1110001011
1010101010
1001011000
1111111111101100
11101110
10100000
1000110000
111001111
10101111
1000011111
1110000111
1010000100
1011110
1111111111100100
1001011
1111111100101000
1111111000100111
1111111001000010
1111110011011001
1111110100000000
1000110
1111111000011001
1111111010110000
1111111111101101
101000110
100000100
110001001
100010011
1000111101
110011010
1000001100
10000000100
10000001011
1001011010
110111000
11010110
1111111110000110
10101000
110010010
1111111111100111
10001
1111111000110100
1111111110010010
1111111011010110
1111111011001111
1111111010010100
1111111100110101
1111111100010000
1111111101100011
10111101
1111111100010111
10001111
1110110100
1111111011101011
1000000110
1010001100
101011110
1010101000
1111101110
1010010100
1101011111
10010011
11101100
1111111100110000
1111111101001001
1111111111111100
1111111110101100
100010000
100011100
1111111110001110
110100
1111111111011010
1111111101101100
1111111011001111
101010001
1111111010101011
1111111000101100
1111111001110100
1111110111111010
1111110100000001
111010
1111111111110111
1101111111
1100111010
1101111111
1100110010
10011010100
111000111
1000000100
110110
101011
1111111110000000
101001110
100000001
1010011001
10110111
101001010
101000000
1111111110110011
1111111110010010
100110000
1000011100
1000100
1111111100110111
11
111010001
11100011
111100010
1001110011
1110110111
1111001000
1101000010
1010010011
1100101011
1001111100
11010010
101000000
1111111111011110
1111111101111100
1111111011011101
100
1000110
110001001
101100110
100110100
1111111111010100
1000
1111111101001101
100101001
1111101101
1111111111010001
1111110010100000
10000010
1011000101
1111111100010000
111011000
1101101
1110111001
1001000101
1011101100
101100011
1111111101001110
11101010
1111111110000110
1111110101101010
1111111101000101
1111111100110001
1111111110110000
1010111100
1000101001
10010001011
1101000100
100110111
111110111
10101100
100011
1010010011
111100100
1111111001001110
1111101000000011
1111101110011000
1111111111001111
1001001100
101001100
1110010
10000110010
10001010100
1001000010
10010100
1111111011101100
10101011
1111110110001110
1111110111100101
1111111110110111
1010111011
111001010
1011001001
10101110001
10011010100
10000100001
1101001000
110000
1111111110000001
1111111100001011
1111111000111101
1111111111101011
1111110100001011
1111110000010010
1111110111101001
101110001
1010100100
1111111101111111
1000011011
10010101000
10010000111
110101100
1111111110011100
1111110110110010
1111111010011000
1111111000100000
1111111001111011
11001101
0
10100011
111011100
1001100101
10100100111
10011100110
1011010011
11111010
1111111000001110
1111111000110010
1111111100110101
1111110001111110
1111110111010100
1111110010101100
1111110100001111
1111111100001010
1100010011
10110
110101100
1010001101
100011001
1111111111000010
1111110011111101
1111110110001010
1111101110100001
1111110111010111
1111111000110001
1111110110001101
1111111111111000
1111110101111110
11000101
1011011010
1111100110
10110011110
10011010110
101000010
1111110111101011
1111111001110001
1111111010110100
1111110101011010
1111110010011100
1111110010101000
1111111001101110
1111110010001100
1111110101110001
1111111111001001
111011101
1101101101
110011111
101101011
1111110100010111
1111101110111001
1111101110011010
1111110110000101
1111110010001111
1111110100000011
1111110011101101
1111111000110101
10000011
1111110110
10010111000
10000110110
10010110000
1111111010010100
1111111001100000
1111110111100000
1111111011101010
1111111010111100
1111110000011010
1111110001001010
1111111100101001
1111101110001101
1111110101100111
1111000
1000110011
10010101111
100001011
10101001
1111110001010100
1111101001101110
1111110001011100
1111101110001100
1111110000000111
1111110100100111
1111110000111011
1111111101111101
1111111110100010
1001110001
10011100000
110100000
11101011
1111110111010111
1111110100010100
1111110011100001
1111111100100110
110011101
101100110
1111111100101100
1111110100110001
1111111010010001
1111110101101010
1000001
1010111101
110001010
11000110
11111010
1111110001010100
1111111000000010
1111110111100110
1111110100111100
1111111000011101
1111101001111110
1111101000001111
1111110110001110
11000111
1000000011
1000100101
110101
1111110011000110
1111110001100100
1111110100101100
1111110111101110
1111111101011110
11100100
1010101001
10101011
1111101001000011
1111110000010110
1111110010100010
1111111111111101
1011000101
101101001
101000001
1100111100
1111111001111000
1111110110110101
1111111110100110
1111110111101110
1111110110011001
1111101110000011
1111101000111000
1111111010100111
1001001101
1000100000
11010110
1111111010001111
1111110000101011
1111110001110011
1111110010101000
1111110010111100
1111111111111011
1111111101100010
1011101100
101111
1111011110110111
1111111110110010
1111110011110000
110001001
111001001
100000000
1011101111
1000110
1111111101011101
1111111100010001
1111110100101100
1111110101100101
1111110110010010
1111110100110110
1111110100110011
1111111111100101
111101
1111111111111110
1111111011100010
1111101100110101
1111101111110110
1111101111000001
1111110110100010
1111111110100101
1111111001100011
1001011
1111111110011111
1111111010000110
1111101010001011
101000010
1111111010100010
1111111101110010
1001101111
1111111111000101
10100100
110101011
110101111
1111111111111100
1111111000101110
1111111011101110
1111111101111010
1111110100110110
1111110111110010
1111111011110011
101000111
1111111111010110
1111110100101001
1111110000010000
1111101111111001
1111110110000011
1111110101011111
1111111000010000
1111111100000001
1111111010010010
1111111100000000
1111111010110111
1111110101011010
1111111000001000
1111111001111000
1111111110010101
1111111111000011
1111110100111111
1011
1111111011010100
1111111010010110
11110000
1111111101101011
100101010
1111111110100101
1111111110101101
1111111111111011
11011111
111011111
100100101
1111111011000111
1111111101010111
1111111001111001
1111111110010110
1111111110110010
1111111110111110
10001101
1111111011001011
0
1111110101000011
1111101011010101
1111111100101010
1111111011100101
110010
1111111101100111
1111111110110100
1111110111101011
1111110110100001
1111111011000100
101101101
1111111101101100
10110010
10101000
1111111101101010
1111111101101000
1001101
1111111110011001
1110100
10100100
1111111101100010
1010000
0
1111111110010100
1111111110100001
1001100
1111111111101010
1111111011100101
1111110110000000
1111110010110001
1111110001101100
11001001
1111111101000011
1111111110000011
1111111101110111
1111110100110101
1111111010100001
10010010
11110001
100
1111111001101001
1111111110000111
1111111101000000
1111111111000010
1111111111110011
1100011
11000010
101010111
11100001
1111011
1000001001
1010010010
111111100
1111111
1111111010000001
1111111011100111
1111110011111000
1111110011110111
1001110
1111111110010010
11111000
11000111
101011
11111110
111011110
1111111101110100
110110010
1111111111110110
1111111111001110
1111111110111111
11101100
1111111110110100
1111111111100001
1000101011
11111000
1000111111
101101110
1111000110
1110011000
1010010010
111101011
1000011011
1111111111100111
1111110101110110
1111110001111100
1111111010010111
110111010
1111111111010110
1111111110101011
10111101
11111000
10010000010
1100101101
110000001
110110110
1001100111
101110100
110111111
1000110101
1110001101
111101000
1011000100
10010110
11011101
1100100111
101101000
100010
111110110
1000000100
100000101
1111111110000011
1111111110010100
1111101101001110
1111110000100101
1111111000110100
1111111100110000
100011
1111111011010111
1111111101101001
1000000001
110110101
11011101
1000111101
1010001111
10011000110
10000101010
1010101101
1000000101
100101111
110001111
11111
110011110
110010010
1000011100
0
1111111110000010
1111110001000000
1111110111001110
1111111101110110
1111110010011010
1111110100101000
1111110110100000
1111110110111010
1111111011010100
1111111011100000
100011010
100101
10101110
1111111010010100
1111110101110000
1111101100100000
1111110111101010
1111010
1111111101010011
1111110110110001
1111111001011111
1111110101101101
1111110110110010
1111110010100100
1111110110011100
1111111010111100
1111111011111110
100111
1111111011001110
1111111001111011
1111111101110011
100000
10000010
1111111110100001
10110110
11010100
1111111101111110
1111111110101101
1110
10111010
1111111111011011
1011100
1100101111
1111111110001100
1111111101011000
1111111111001011
1111111110100000
1111111101111100
1111111000111001
1111110110111000
10011011110
1111111101110011
110110100
1010110011
1001111011
10000000
1111111001101001
1111101
1000011100
111111111
100101000
1111111100110001
100100101
101000100
1111111010111010
