1111111110111110
1111111011010111
101000100
1111111111101000
1001011
10111111
1111111111011000
1111111110111100
1101011
1111111111011110
100111011
101000111
11101110
10100110
1111111110101111
1111111011111111
1111111111011001
1111111110110010
1111111100111000
100000111
1111111111011010
111110
10001101
1111111110000111
1111111110101010
100110000
1111111110111110
1111111110100100
11111000
100100100
1111111111101111
100101011
10110011
110011000
11110110
110100100
10000100
100110101
1110000100
111011010
10010101010
10010100000
1000000001
10010110010
10110011110
10001010000
1111101110
1111001111
1001011001
1100111111
1100001010
1100000100
1111111011100001
100000011
11011001
100011101
1111111101000011
1000011
111101000
1001111011
1011011100
111110111
110000110
1100110011
10000000111
11000100101
10001110001
1110101100
1011011110
1111010100
1011011110
11010001101
11100101110
10110100111
10111110010
11111000001
11111011110
10101110110
10101010011
10110010000
1010101011
111011101
11010100
110001
1111111111100111
1111111111011011
110100110
101100001
1001110001
1111111011111000
1111110011010110
1111111010101001
1111110101010111
1111111101111100
1111110100010100
1111101001101111
1111101100100010
1111111000111010
1111101110110110
1111111011001001
1111111111000011
10000010
10010011
10
1111111110111111
1100000100
1010001011
1010100111
1001101110
1111111011111101
1111111011110110
100100100
11011
10100101
10010010
1111111000110111
1111111011100010
1111111100011011
1111110010010100
1111101001100010
1111110001000010
1111110010101100
1111101110001111
1111110100111000
1111111100011001
1111110011010001
1111111001011111
1101100
110110000
11000001
100110
1000110101
1000101011
111000010
1111111111111010
10000100101
11101000
100000110
110101010
1111110101000111
1111111011111000
0
10100110
1111110100111111
1111111000111110
1111110001000000
1111101111100110
1111101001000101
1111110001111001
1111110011001111
1111110110000101
1111111100100111
1111111101011011
1111111101111000
1111111111001010
1111111111100100
1001011110
1000001100
1010010101
1100111101
1110001111
10000110100
1111110001
1000011100
1100000100
110001101
110100110
1111111111011010
1001000
1111111110000010
1111111111111111
1111110001000010
1111110010101000
1111101011000011
1111101100100001
1111110000001010
1111110010100100
1111111000101010
1111111110111010
1111111110110001
1000101
1111111001001111
10010000
101010001
0
1111111101101111
1001010101
111010010
1010000101
1011101111
1010010010
1101100010
10001000010
1011011010
1101010011
10100010
100000111
1111110001000100
1111111100010110
1111101000001011
1111011110100001
1111100000010111
1111101101001010
1111110011101010
1111111000000101
1111111000110000
10111110
1010000
1111111111010000
1111111000110011
1111111111000110
1111110110110100
1111111001111001
1111111101001001
11000111
1111111111110000
1000000110
101100010
111001101
110010011
11011011
1111101110
110001100
1001111011
1111111100100100
101010000
1111111100011000
1111101010100010
1111100110010101
1111100111001011
1111110110101000
1111110010000100
1111110110100000
1110000
1001010000
1110101001
110000
1111111110000011
1111111011111000
1111110001001100
1111110001000111
1111110101000000
1111110101100011
1111111011111000
1111111010001111
1111111110100011
1111111100100010
111000010
110011010
101010111
100001
111001101
100100011
1111110110011100
1111111100110000
1111110000110110
1111100110000111
1111110010110111
1111101101011110
1111110111010001
1111110110111011
1111111101011001
1110101100
10100100110
101101100
1000111110
1100010
1111110110010100
1111101110010011
1111101001000111
1111110000010000
1111101010010101
1111101111101010
1111110111001011
1111111000000110
1111110110111010
1010101011
1110000011
1111101110
100010101
100110111
1111111100001001
1111110111111110
1111101010010000
1111101101000001
1111110010101000
1111110100100001
1111110111010111
1111111011010110
1111111100100100
1100101010
10000111001
111110000
1011001111
1010010100
1111000
1111111000010011
1111101100001110
1111100011011110
1111101011000110
1111101000101010
1111101011101011
1111101101101010
1111111010010111
1111101000
100001000111
10100001000
1111111011010001
1111111110110000
1111111110110110
1111111100110011
1111100111001111
1111110001010000
100110111
11110011
1111110111101000
1111110001000110
1111110100101111
1111111000110000
11011110
1111111110011101
101011111
1000110110
1111111010100010
1111111001101001
1111110000110101
1111101110010101
1111101001000111
1111101110011110
1111101010100101
1111101100100111
1111111101111001
11100010
11001000111
1110110101
1111111100100110
1111111111110001
1111110110011001
1111111100110010
1111110100111111
1111111010111011
111001010
1111111111010000
1111110111000000
1111101101001010
1111101100000011
1111101101010000
1111110111000011
1111111000010111
111100
1111111110010111
1111111000010111
1111110111011000
1111110110010100
1111111010000110
1111110100010110
1111101100111000
1111101011100101
1111100101111110
1111011100101101
1111101001001111
111011110
1111101001
11111110
11010101
1111111111101110
1111111110110010
1110101
1111111100001010
1111111100000100
1111110011100011
1111110001001110
1111111001000001
1111101100001011
1111110000001110
1111110011111011
1111110100011000
1111111111001010
101
1111111111000010
1111111100000000
1111111001010111
1111110111100101
1111111010011111
10011
1111110110010001
1111110000101000
1111011100101100
1111101101011111
1111111110000000
10100110010
1000100010
100101010
1111111000110010
1111111111110110
111111001
1111101111011011
1111101110010111
1111110011110010
1111101110100100
1111110101100111
1111101101111000
1111110001000001
1111110110010111
1111111001110110
1111011
1000100100
100101001
1101101
1111110001001111
1111110011001000
1111111010000110
1111111111111000
1111110111111011
1111110110100101
1111101100101000
1111110100110001
1001101111
11010110010
111000010
101000010
1111111000011011
1111111010101100
10111110
1111110000110011
1111101110111101
1111110001110101
1111110110111101
1111110111000011
1111111101001111
1111110110101100
101010
1000011110
10001001010
1100001110
1111111100001000
1111111111111111
1111110110101100
1111110101100000
1111110010010110
1111111000001011
1111111011001100
1111110011010110
1111101011111010
1111111100010110
10011001010
10000101101
1001010001
1111110111101100
1111111101000111
1111110101011101
11001011
1111110000100101
1111110010101101
1111110000001001
1111110011001111
1111110110110011
1100111
10100111
111000101
1010001100
111101110
1110101101
1101011
1111111110111000
1111110100100011
1111111010001010
1111110101100001
1111110101000101
1111111110100010
1111111001101110
1111111010100101
1011001
100000010100
10101011011
1101111011
1111111101000111
1111111011000100
1111111001111011
1101
1111110000100100
1111111000100011
1111111011001000
1111111000111010
1111110111001110
100100100
1010000000
1100000010
1110000010
10000001
110101001
11101011
1111110101011100
1111111000001011
1111110110111000
1111110101000011
1111111101000101
10101000
1111111011011001
1000110
1010111100
11001000011
10001110100
1111111110
110101
1111111101001000
1111111000110011
1111110111000000
1111111011101100
1111110110010011
1111111110100010
1111111111110111
1001100
1011001000
1011111100
1100011100
10100100
1111111101010001
100101000
1111111011010001
1111111010000000
1111111111011011
1111111101111111
1111111101101010
1101000
110010101
10000000
1111001
10000111111
100101000111
1111111101011110
110000100
10101011
1111111001100110
1000000100
1111111000111101
1111
1111110100010110
1111111100010110
10100010
111010101
110001100
1110011010
1000011100
10100101
11101001
11001101
100101000
11100011
1111111111101001
1111111110001000
1111111111110111
1011110011
1000011101
1111111010000001
1011111111
10001011011
11110011011
1011101100
1100001
11101110
1111111111010110
11010000
1111111101111110
1111111101001110
1111111100010111
10011100
1111111111100110
1001011110
1000111011
1000000100
1010000001
11000011
1111111111011101
10001001
10110101
101000100
111111011
1101110001
1110111011
1110000101
1101111101
1001010110
1110101011
11111101010
10101010110
10000001000
1111111111000100
101010110
1111111111100111
1111110001110011
110110001
1111010011
110110010
101011100
1100101011
10100110
1010011111
1000110100
111110
110101001
1111111111100011
1111111111001110
101110010
1000011101
1101100111
1001100100
1001001110
10001010101
10010010011
1100110110
10000011010
11111111010
10111010010
1100110011
1010000
10011
1111111011111111
1111101111100101
1000001011
10111011101
10101101010
1110000110
1000011001
11010001
1000100011
1111111111111100
100011110
1110110
1111111011011111
10000100
10110001
110011101
1000001111
1111001000
110000001
10000100101
1011110011
1111111110111111
10001111000
10000110001
10011101000
1101111011
1111111010100011
1111111100000010
1111111111110111
1111111111110011
1111111100111011
111100110
1110000101
100111101
1111110111011001
1111111101011000
11101010
1111111101110111
1111111101100011
11111011
1111111111101010
1111111110001000
1111111011110111
1111111011011111
1111111011100111
1111111110101111
11000010
1001111010
11101011
11000111
1111111111110111
10111
10000000000
1111100000
100100000
1111111111100010
11001101
1111110110101010
1111101100001010
1111110100011111
1111110101111000
1111110110010010
1111110001111111
1111110000101110
1111111101000101
1111110011111001
1111111000111010
1111110110010100
1111110100110011
1111110101111010
1111101110101101
1111101001011110
1111101011010110
1111111001110011
1111111001000110
1111111001000010
1111110010000110
1111110110110111
1111110101100100
111110010
1101111010
110110011
11001000
101000110
1111111111011010
1111111001000101
1111110001110110
1111101111011111
1111100011111000
1111101000000011
1111100011100000
1111100000100001
1111100101101101
1111100000100111
1111100101001000
1111100100000101
1111011101111100
1111100000010111
1111011111010011
1111011001101011
1111101011010010
1111100111000101
1111101011011110
1111101001111011
1111110101110000
1111110100110010
1111111100111100
1111111110011111
111000110
1000010101
1011
1111111011100000
10010111
1111111100110011
1111111110100100
1111111000100000
1111110001010010
1111110110010111
1111111000010111
1111110010101101
1111110010010111
1111101110001101
1111110011000110
1111110011010100
1111101111011011
1111100101001101
1111101011000001
1111100110011111
1111110100000011
1111100111100100
1111110010110100
1111110011111111
1111110101000011
1010011
11011
1111111101111000
1111111011010001
11000011
1111111011110101
1111111011110011
1111111100101011
1111111111101000
101101
1111111110101011
11001000
1111111101011101
10010001
11001111
1111111010101101
1111111011011101
1111111100100100
1111111101111001
1000101
1111111011111011
1111111101110101
1111111011010101
1111110111110001
1111111000011000
1111111011110010
1111110100011001
1111111111000011
10100111
100
1111111100110101
1111111111100100
11001000
1111111100001101
