1010111
101000101
110100
110011
1110010
1111111101001101
10000000
10000011
110110
11110111
11011111
10101100
1111111111010100
1111111010001000
10010011
10010
11110000
11111110
1111111101100110
11000
101000100
1111111101001100
1111111101100110
10100010
10111011
1111111100101101
111110
1111111111100011
1111111100011100
1111111101011010
1111111011001101
1111111111100011
10001011
11000000
1111111011101001
1111111010000001
1111111001100011
1111111011100000
1111111001110001
1111110111110001
1111110000110110
1111110110100100
1000010000
1001010100
110010010
1111111011101100
1111110001011000
1111101110110111
1111101101010101
1111111000101110
1111110010000001
1111111001011010
1111111101000101
1000101
1111111011111111
1111111100010101
1111111011100010
1111111100111100
1111111110111000
1111111100001100
1111110110100010
1111111110011000
1111110110000000
1111110100001010
1111110000011100
1111110000010110
1111101100010001
1111110001100111
1111111010101000
1000100101
1111111110010111
1111111101000100
1111110010111110
1111110001011111
1111100111111000
1111100010101111
1111101001111111
1111100011111000
1111101100100111
1111110010011011
1111111101101000
101001101
10101111
111001
1111111110011000
1111111011000010
11000111
1111111010010010
1111111111010110
1111111001011001
1111101111001111
1111101010100010
1111100010000010
1111100111000110
1111011111011100
1111101000011011
1111110001110000
1111110101011011
1111110010001010
1111101100100010
1111110011101111
1111101111101110
1111101011001101
1111101011110011
1111101101010100
1111101010100011
1111110011111111
1111100001011101
1111101111010010
1111111110001011
1111111101111101
1111111100000010
1111111011011100
1111111111001101
1001110100
10010111
1111111001010000
1111101111011101
1111100011101011
1111101010100001
1111100001100000
1111011111000000
1111011110110001
1111101011001110
1111111000000001
1111111010101111
1111110110001000
1111110000111110
1111101111010001
1111110010000000
1111110001001000
1111110011000111
1111101101010011
1111101111111101
1111110001000101
1111101111111100
1111111010011010
1111111100010100
1111110111010001
1111110011010101
1001001
1111101
1111110111101110
1011011
1111101110001100
1111110010010001
1111101000101110
1111101110011110
1111110000111001
1111101000110011
1111101001111001
1111110010000010
1111101111001111
1111110001111100
1111110010111111
1111110010001101
1111110010101100
1111100111010010
1111101100011101
1111101000110110
1111110100011001
1111110001010000
1111111011010000
11000000
1111111010101100
1111110101100010
1111110110111010
1111111011001010
1000111
1111111011001011
111111
1111111110001011
1111110001011000
1111101100111000
1111110000001110
1111110000101001
1111110100110001
1111110101111001
1111110111011000
1111110101000010
1111110110110011
1111111101010110
10101001
1111111110101011
1111111010011010
1111111011000001
1111111100101101
1111110001111110
1111110010101000
1111111101000111
1111101
10011110
1111111111000110
1111111011111110
101110010
1111110101001011
10100001
1111110101100111
110101001
110001010
1111110101000110
1111101111010110
1111110001111000
1111110010100011
1111110101000100
1111111011000110
1111111000100111
1111110111100001
1111111110001000
110100111
1001001100
111001110
1110000001
101111110
10110010
1100111
11101001
1001101001
111110100
1100100
1111111110011011
1111111100110100
1100001
1111111011000101
1111111111100011
1000100100
11111010
11111011
1111110010110000
1111110000010001
1111111010110000
1111111110010011
1111111111110010
1111110111010001
1111110010101100
1111111010100011
1111111100110010
1111111111000101
1111011001
1101011100
1011101000
111111011
1001101011
110010010
101010000
1001011010
1010011111
111111000
10
110111111
1111111011000101
1111111110110110
110101001
1000010101
101011011
11011101
1111101111000010
1111110110101100
1111110110000111
1111111010011000
1111111000110011
1111111011101110
1111111111000000
1111111101110000
1000011110
1011001111
10000111010
10111111110
1011011001
10001001011
1101110111
111011111
1111111111000101
1111111110010001
110100101
1111111010001010
1110100
1011101000
1101010010
10100001
10001011
1000100011
1011001111
10101110
1111111000011001
1111110110101011
1100100
1010101
1111111011000111
10001010
101111010
111000011
1000001111
1001100110
10000101011
100001001010
10100011011
1010001001
101011010
1010110110
1111111100100011
11011111
1111111011010100
1111111000100011
1001010011
11001010011
10000101111
100001000
1001011101
111011001
1101001110
1111111101100110
1111111101010011
1111111000011110
1111111110011010
1111111100110010
110011010
1111111101101010
110110011
101010001
110100
11100011
10000110111
11100011000
10000001110
101111011
1001001111
1111111011111111
11010001
1111111100100100
1111011
1111111110011011
1111111101110010
1111101011
1101111101
110000101
1000100010
101000110
1010111000
1000010101
1111111111111111
1111111101101100
1111111101101101
1011010001
1100001110
10101010
10000001
1111111101011101
1111111101000101
1111111110110110
1010010110
1101111101
10011000
11000011
1111111001111110
1111110101001000
1111110000010000
1111110010101111
1111110000001001
1111101000000000
1111101111110000
1100100101
10011011101
1010011100
11010111
1000010010
1111110100
1001111101
111011100
1111111111101000
1111111111010110
1011100011
1101001011
1010100110
11010100
1111110101001000
1111111010011111
1111110111111010
1111111110110101
1111111101010100
1111111011100111
100101000
1111110111001000
1111101111101011
1111110011000110
1111110001100010
1111110000101001
1111100110001001
1111110011100000
1101100000
10101101100
1000111110
111001101
1111111110011000
1110110100
1101100100
10001011010
1111111100111010
111111010
10000111010
1101000001
1100001101
1111111101101000
1111110101101100
1111110110000001
1111110011010001
1111110100100111
1111110111000100
1000100011
1001000101
1000110
1111110001010001
1111111000110011
1111111000011110
1111111011101010
1111111001000101
1111111100011101
11010
10001010100
11101010
10111
1111111011001011
1111111000111100
1111000010
10100011001
100011110
1111110111
1111011000
1101111001
1011100010
1110000
1111111101000111
1111110110000000
1111111011100110
1111110011101101
1111111100101110
101101011
1000011101
1111111111101101
1111110011011001
1111111000100000
1111111100001011
1111111110110011
10111000
10010111
1111110101010000
10100101110
11101101
1111111110111100
10011010
1111110101000001
100000101
10101000101
10000001011
111001111
1110100110
10110001010
1100101001
1011110010
1001011
1111111101010001
1111111110100000
1111111110001101
101100011
10101100
111111110
1111111110000000
1111111110100000
101100110
1111111101100111
10010011
110000
1111111010001000
1111111100111001
10101100110
100001101
1111111111001111
1111111011010101
1111110100100010
1111110110010000
10010010101
1100010001
1000111111
1100100110
1010010000
1100011101
1011100011
1111011111
1001100100
10000011000
1010000100
101100000
10011100
1111111000011101
1111110101111000
1111111100101111
10011010
10001100
11011010
10100000
11011000
100011010
10011011000
110011011
1100001001
1111111001111000
111000
1111111010011010
1010001001
1111001100
101011000
11111100
10010001
101001000
1011110000
110000011
1000101010
111111011
1001100110
1111110110001001
1111110011010011
1111110110111011
1111110010110111
1111111100110100
100001010
11000101
1111111100000010
10010011
1010100
111111100
1110111101
1101110100
1101000
101101011
101100110
1111111011011011
10010000
1111111100000011
1111111101110111
1111111111100100
110011110
11010
111010
100011100
11101110
100000001
1111111011010000
1111110111001100
1111110010010011
1111110010101001
1111110011000001
1111111011001000
1100000
1111111010111010
1111110110000100
1111111100100010
1110001000
10101110110
1100000011
111011111
1111111101111100
1111111101000010
1111111010100110
1111110000111000
1111110100000001
1111110001011110
1111110110100111
1111110011110010
1111110010111011
1111111001001111
1111110110001100
1111111111011010
1111111010100011
1111110101110000
1111101111111010
1111101011110000
1111110000110100
1111110101001011
1111110010111010
1111111011101000
1111111011111011
1111101111111001
1111110000001101
1111110101101100
10001001011
10101011011
111001111
1001001
10001001
1111111110011010
1111111110001110
1111110110001101
1111110111010110
1111110100011110
1111101111111101
1111101011111101
1111101010100010
1111101100000010
1111110001010010
1111101101011010
1111110010110111
1111101000101100
1111101111000001
1111110001110011
1111110001011101
1111101110101011
1111101100001111
1111110100000011
1111111100010001
1111111011000111
1111110100110001
1111111001000010
10101011011
10001001001
11111000
1111111101000010
110010010
10000111
1111110101011000
1111111001101010
1111111111110010
1111110111010000
1111110110111110
1111110110001010
1111110011001111
1111110001000110
1111101100010110
1111101010001110
1111110011011111
1111110010100011
1111110001111111
1111110110010001
1111110011011000
1111110100101000
1111101100011011
1111110010110011
1111111010010110
1111110011010100
1111111011000010
101000001
10100011110
10010010001
111110
1111111111000011
1111111101010110
1111111100110001
1111110111001010
1111101111111010
1111111001011100
11110
1100
1111110110100011
1111110101010000
1111110101111111
1111110010101100
1111110011101011
1111111000011001
1111110001110111
1111111000101101
1111110100101100
1111111011101000
1111111100001011
1111110101100010
1111110111100011
1111111111011100
1111111100000110
1111111011001011
10110010
1011110000
111010100
110000010
11000001
1111100
10101111
1111110111110101
1111111011100110
1111111100101001
1100001010
1111111101010001
1111111010000110
1111110111010110
1111111001100100
1111110101011001
1111110010001100
1111110101111101
1111110001100100
1111110100000010
1111110000101110
1111110100111100
1000001
1000100
1111111101100001
1111111111111100
110001100
100110100
10001001101
1010110010
10101110
100010111
11100100
1111111111010100
1111111010110111
1111111110110101
1011010011
101001011
111110001
1111110111001101
1111111011110111
1111111111110100
100111
1111110101101001
1111111100110001
1111111000101000
1111111010101101
1111111011000011
11110110
1010110
100110001
1001100
11110
1011010
10001011001
1111000011
10000110101
1010100111
1111111111000100
1111111100001001
101000
1100
1111111110100100
1111111100010011
1111111101000011
1111111001110001
10101011
1111111100010001
100001011
110000011
1010001010
100010000
101010100
110011001
1000110101
1011101001
10110110100
1011000011
1110101000
10001100010
10110000010
10011010111
10100111111
1110101011
10100110
101001
1011110
1111111100111001
1111111010111011
1111111110010001
1101000
1111111101000111
1111111100010011
1111111111010101
101001001
1000111100
10111101
11001011
1011111100
10011011100
10000100010
1110110111
1101011110
10100101111
1111010010
1100111110
1000100011
1001111100
1000001101
11011111
111110110
100110101
101100
1111111101111010
100
11000100
101000101
