1111111111110110
1111111011100001
1111111100110100
1010101
1111111011100011
1111111101010111
11111110
111
100101001
1111111010110110
11100100
1101101
100001101
1111111101001100
11000100
111101
1111111111011101
0
100111010
1111111101010000
1001100
1111111111010110
1111111111001000
100110100
10011100
1111111101101010
10010111
0
1010010
10001010
1111111100001101
1111111111001111
10001111
100010000
110101000
101100000
10000101
1001111011
101111110
100011001
11011101
110001000
1111111101100010
1111111001101010
1111111100111000
111
1011011110
1000010000
10001011
1100011000
1101110010
1100110110
1010100
101000000
1010011
100001110
100110100
10010111
11011011
1111110111110001
1111111101010111
1111111101000000
111100100
100011
101101100
110010110
1011011110
1110011100
1001100101
10101111
1000100011
1101111101
1001101100
1111001011
1010011101
10000000000
10100100000
10010111111
1100010110
1011100000
1001111000
1001000
100000000
1110010
1111111011110011
1111111100001110
1111110101011111
101011011
1101010000
1000110111
1010010001
1101000000
1110110010
10111111010
11010010111
10100000010
10101000110
111111110
10001101101
10001010011
1011011000
1001000000
1000011010
1110000000
1110111001
11000111110
1110000011
1111010011
100100100
1111111111001100
1110001
1111111011011111
1111111111111000
1111111110001100
1111111101111110
10000001
1100101010
1100010000
11011101111
11011110101
10110101010
100011010001
100000011010
10010100101
1010011011
11010110
1100101
111011110
110101000
10100000
100100100
10011010
111110111
1011101010
1000011111
10010100111
1111100111
1100101101
1010101
1111111111111001
1101011
1110101
1111111110100010
1111111
1101011011
1111001010
10110011101
11001011111
11001011001
10100100110
10011001001
1111111110101111
1111111001101111
1111110000111010
1111110100101111
1111110101110100
10101100
1111111100110101
1101010
1111111110010010
1000110010
11000000
1101100010
11010100110
11010101111
11000001011
10001111011
1011011101
1100110
11011100
100000010
1111111010100010
1001100001
10000001100
1111101110
1111110101
1100110100
1101101110
11001
1111110111001011
1111110101111010
1111110100010001
1111110000001000
1111111011101011
1111110101000011
1111101111101111
1111101101011100
1111110110000000
1111111100001101
100001
1011000000
10010111111
100001000100
10110111110
10101011001
111010010
1111111111010001
1100101101
1111111111100101
1101
10011110010
10010001011
10010111101
111011010
1000001110
110100
11000101
1111111101101011
1111111001111001
1111110000101111
1111111100001000
1111111010010101
1111110110000101
1111110011010011
1111110001101000
1111111100011111
1111111111101111
111001
111111100
1010011110
10011001111
10100111000
10010100100
1000011000
1111111110001011
10001101
10101111
100111000
10000000111
1110101001
111100100
1000000111
1000
101111000
110110000
110001010
1111111111110101
1111111010001111
1111110101100000
1111110110000110
1111111001100101
1111110110010110
1111111100100110
1111111110111110
1000110010
11110100
100100111
1011000111
1101111011
10110111010
1011001100
111111100
100101111
110100011
1011110111
1111111111010100
10001001010
1011010
1111111100111100
11110110
1111111100001011
1111111011111011
1111111101100111
101011101
1010011
1111111000010010
1111101010110000
1111110001010110
1111110010100001
1111110101110000
1111111100011101
11011011
1011111010
111100100
1011100100
10000100
1011011001
100001000010
10001111111
1111111010110100
1011000110
10100110
1000110011
110100000
101011101
1001
1111111011101011
1111110110011110
1111111111101100
1111111101001010
1111111000010111
1111110110001010
1111111010000101
1111111010000111
1111101111010100
1111110011101000
1111110011011010
1111111100111001
1111111011010110
11010001
10100110
1111111110010000
1101001
10100110
1010100001
11000011101
1010101010
1111110010110011
101010
1111111100110101
1011000110
1001110000
110001011
1111110111000001
1111111001000110
1111110100101100
1111110111010111
1111110110010010
1111110100101000
1111110111011100
1111111100111110
1111111111010111
1111110111110110
1111110111001011
1111111111001011
1111111011001001
1111110111011110
1111111100110000
1111110101010011
1111110111110111
1111110101001100
1111111000001101
111011100
10110011010
111101001
1111110110100111
11101001
11000100
11111001
1111111100111110
1111111000101101
1111101111100011
1111101011100011
1111110000111110
1111101110001011
1111110010001111
1111110100000111
1111111111000011
1011011011
11110000
1000001
1111111101011001
1111111100101110
1111111000101111
1111111011101000
1111111100010110
1111110110100100
1111110111100111
1111110010001100
1111101001100010
1111111001101111
1101100111
100010111
1111110011111101
110010
1111111000101101
100100111
1111111001110100
1111101101110001
1111110000100010
1111110100011010
1111101010011000
1111101011101111
1111110111100001
1111111011101100
1010000011
1010000110
1001111010
1000110111
1111111110110001
10000111
110011
1111111110100010
1111111011011011
1111110111100100
1111111010111101
1111110011110101
1111110110111000
1111111101011011
1111111111100110
11111011
10110001
10110111
111111001
11100100
1111111000101100
1111111100000001
1111110100111111
1111101110010001
1111110001110000
1111110011001100
1111111111001111
1101000
11011011
1110010010
1011011111
1101111100
101101101
100000100
1111111110101111
1111111000011100
1110101
1111110100110110
1111111100000010
1111110011001000
1111111001000100
11101001
101010001
1111110011000001
1111111000111100
10011010
110010111
1001011011
1100100
1111111111000111
1111111001010111
1000100
1111111000101110
1111111011000001
1111100
11101111
1100010101
1111100110
10000010110
10001101000
1001011010
1111111100000000
1111111011101100
10000101
101010100
1111111010110111
10001
100101
101100
1110000100
1010000100
1000110101
1111111011100010
1111111000011100
10001100
10111110
1001110110
100
1010100
1111111011011110
1111111111000000
1111010
1100100001
1000100100
1001110111
10010100001
10000110000
1110100010
1001100010
11011010
101100
1101000
1001000100
110111000
111010010
1110100100
1111000000
10100110001
10111010111
1111111111111100
1111110101110001
1111111100001101
101000001
1110110001
10001001000
111101000
110000001
101001110
110010100
110110100
1011010011
111010010
111111111
1001000000
101100101
1111111100100100
1111111111000101
10011001
1110110
1010000101
1100001011
10100001
1101001010
1100010010
10100010001
1011110100
1011001101
10011011
1111110100100001
1111111010000011
101011000
1101100011
11001100010
1100001111
1000000110
1110000010
1000100010
111011011
111111111
101001111
1110100
10110110
1000000
1111111101001111
1111111111010000
1100001001
1001111111
1010010100
1111110
1101
110100100
1011110001
10010100010
1000000000
111110001
1111111100000101
1111110111110000
1111111101000111
1111111001010010
101110
10111101101
1101001011
1000011000
1000000111
1100011100
1110110101
1100111001
110111101
110110101
1111111011001000
1111111100101100
1111111111001111
10000001
11110111
1101110011
11100011
1111111011001100
1000100000
111110000
1110001001
10001110111
1111111001001011
1111111101101101
1111110101001101
1111111010100111
1111111111001100
1111111110111001
11100
1100011110
111100111
11100101
1010010101
10000011111
1001101110
1100111101
10111000
1111100
1111111000100100
1111110111100111
1111111111001101
1101100
100010010
101001
100000
10110110
100110010
110010101
1001010010
1010101001
1111110001111110
1111110101010001
1111111010001111
1100110
1111110
1100011
100100100
1110000001
10111100
1111111010000100
1111111001111100
1111001
110110011
1111111111011000
1111111100100110
1111111011111100
1111111110100101
10101100
100111001
1000010
1010101
1001011000
1110010
11110001
1000010
101100011
10000011110
100011100
1111110101110101
1111111111011101
1010111
1111111011100000
1111111101001100
11000101
1100011101
1001000101
1001110110
1111110111001110
1111111100111111
1111111010010111
1111110100011111
1111111000010100
1111111010010010
1111
1111111111101011
110001001
1111111101010100
1000011110
1110
10011111
100101100
1011011111
101101011
11010110
101110000
1000111
1111110000111110
1111110111110000
1111111110110110
1111111101001100
1111111111111011
1111111101100110
1111001110
10011000101
10110110110
1011000011
101001100
1111111100010111
1111111100100110
0
10111111
1100011
1111111001100001
1111111010001111
1111111011101011
100100110
1111111100110100
1111111101011010
10110100
110100111
10010011
100101
1111111001110001
1111111000001100
1111110101100010
110010010
1000
1111111110011011
1111111111011010
100010101
10100011
1110101110
1101000011
1111111110110001
11100011
1000110100
1000011111
110101000
10010000
110001001
1100111011
1011100011
1101101000
11110011
1011000
1111111101101010
1111110111100000
101110
1111110110111110
1111111101001011
1111111001100111
1111111100111001
100101
101000110
100100011
100111010
1111111111000111
11011110
1101110
1111111100010001
1111111111110111
1111110111101101
10000111
1
100001000
101010000
1101001000
1100111011
111111010
1001111011
101010
11111011
1010000100
100010100
1111111100010111
1111111100010000
1111111000110011
1111111001000011
111010000
110100110
1111111111001011
1111111111011110
110111110
11111101
1111111100000011
1111111111100101
1100100
1000111
1111110011101000
1111110110000011
1111110000111010
1111101101011010
1111101111000101
1111101101001001
1111111001001100
1111111000101100
1111110010011010
1111110000111001
1111100011101101
1111101110011001
1111110011100000
1111110000110100
1111110000010100
1111110110001010
1111110001000110
1111110111001000
1111111110011111
1111111101001001
1111111000111100
101000100
1001001
1111111100011101
11001100
110000
1010
1111111111101000
111111001
1011110101
1111111100101110
1111110111001010
1111111001010000
1111111010100111
100010
1111111011111011
1111111100011101
10001011
1111110000000001
1111111000111111
1111111101011111
1111111101010101
1111111000100011
1111110111110100
1111110110111000
1111111101000110
1111111000011101
101101110
1111111110000111
100100000
1111111111101101
1111111101111001
