10000001
1101
1111111111010011
111100
1111111110100110
110111
100010001
1111111111101001
1111111111010111
1111111111111100
1111111111000000
10010010
1111111001111010
1111111011101111
100000
1111101
1111111111010110
11110011
1111111110101111
1111111011100111
1111111110001001
1111111011001000
1111111110111000
1111111011010101
101100
100111010
10101001
1111111111101110
1111111111100000
1111111100101001
1111001
1011000
1111111100001001
1111111010110101
1111111011011011
1111110110110110
1111110111001110
1111110100010001
1111110110001100
1111111100110100
1111111000100111
1111110011110010
1111111011011101
1110011
101101001
10000
1111110100011000
1111110101100100
1111110011100000
1111110100101010
1111110000111011
1111111111001110
1111111100000101
1111111101000111
1000001
1111111100011111
1111111111011001
1111111100000010
11000
1111111111110100
1111110101011110
1111111101110101
1111111000110110
1111101101111101
1111110000101101
1111110101110001
1111110010001100
1111101100111111
1111101011000011
1111110010111111
1111110010111101
1111110101101011
1111111000011011
1111111100100000
1111111100010000
1111110100111101
1111111001000000
1111110100111110
1111110011111110
1111110111011011
100000010
10001101
11000000
10101001
1111111011100011
11100100
1111110110110000
1111110111110010
1111111001001111
1111111010110111
1111110111100110
1111111100101111
1111111001110101
1111111011111010
1111110110000000
1111110
1111111011101100
1111110111101110
1111110100110000
1111111001010100
1111111101010100
1111111001000100
1111110110110100
1111110111010010
1111111010101111
1111111111010110
11111100
1111111110010011
1111111111110000
1000010110
1111111111110000
100110
1111111010111101
1111111110011110
1111111011101000
1111111010011111
1111110100101000
1111110101001101
1111111010000001
10001010
1111110101001001
1111111000111100
1111111110011101
111110110
1101011
1111111010110000
1111111101011000
1111111011010000
1010000
1111111101101110
1111111101101110
1111111111110010
1111110101100100
1111110101111101
1111111110111000
101110
1001011000
10010011011
111101101
1111110111111001
1110
100111010
1111111001001110
10011110
1111110100111111
1111111101000101
1111111011111100
1111111100100110
1111110111010111
1111111101001101
1101011
1010011010
10001010
1011000
1111111111011101
11110101
11100110
1001011001
110011111
1111111111000110
1111111100110010
1111111001101010
1111111111110001
1111110111110001
1111111010110011
1101110101
111101
1111111111000101
110110
1111111101010001
1010101100
1111111100000011
1111111001010110
1010
1111111110011010
10001010
11101110
1010110
1100010
101110110
1000001110
1000011101
101110110
111010100
100100010
1000000111
1011110000
1100110011
10011100
1111111010110011
11001000
1111111101100000
111010000
1110000111
110000110
1111111000011010
11010100
11101101
101000001
100000000
110011001
1100000010
1001101010
1111111110010100
101011101
110110000
1111111111001110
1010010011
110110001
111101011
10110101
1010101100
11101001
1001010100
1111010110
1101010100
11100111
1111111101100110
1111111101100001
1010000100
11010011110
10001011001
1000011101
1111111110100100
1111111111110001
1111111100010011
1111111111110000
101011000
1111111110010100
1001110111
1101000111
1111111110110010
1010001000
1010100101
1100010110
1011001110
10111110
1011010000
111101110
111001010
1001001101
1000011111
10001011101
1001001110
1110101000
1000110001
1010011110
11010111000
11100100111
10000111100
11010001
11101110
1111111010110010
1111111110111011
1001001011
101110
111101011
1100101111
1000010010
1111111110011001
10111101
1010111001
1100101101
1111110100
110110100
111111101
10010
1111111001100111
1111111100110001
1001001001
10010011000
1101010110
1100110010
1101110010
10010111000
10010101100
11100010001
10011001000
10100011110
1111111111011110
1111111101001001
1111110111100011
100001001
1110010011
1010101110
1000000010
100110010
10111010
11101101
1011110110
1000110011
1100100000
1001111000
100001110
100010111
1111110110001000
1111111100010011
101010001
10100010001
10011110101
1100100010
1110111011
1100101000
10111101010
11101011010
100000100010
1010110101
10000
1111111100110101
1111110100101000
1111110001001000
100001000
1111111110011011
1100001
111100010
1000100000
101110011
11010011
1100
1111111111110100
1111111100100110
1111111110010010
1111111111000001
1111110110010001
1111110111010000
1100011000
10110010101
1010100011
1111111111110010
10010000
11101011
11011110
11111010011
11111110101
1110100111
1111111111000101
1111111100000101
1111110000010101
1111101010111000
1111110011010001
1111111100011110
1111111110000011
1111111101000011
1111111111000110
1101110
1111111110001101
10110000
1111111011011101
10000111
1111111110011000
1111111000001010
1111110011000110
1111111000011110
1011100100
1101101110
1000111100
1111110110000101
1111101101101001
1111110000110011
1111101111000001
1111111100100101
10110010100
1111001001
1111111010010011
1111111001000011
1111110111011100
1111101001100010
1111110101001011
1111111001011101
1111110110100110
1111111011011101
101110111
111100
11000000
101111010
110101010
10011101
101000101
1111110110100110
1111110000011010
1111110010101011
100000100
1000000010
1111111110011110
1111110011101010
1111101010001110
1111110101000111
1111110000001011
1111110110110110
1000000000
11011100101
1001110001
111100001
1111111101000110
1111110100101010
1111110000100100
1010000010
1111111101100101
1100110
11001011
1111111010011001
1111111110101011
101110010
1111111111000100
10101110
1111111110110111
1111110000111000
1111110100000000
1111110000010110
1111001001
1001001110
1111111101100110
1101110
1111111011000010
1111111000100001
1111110001001010
111100
100010001
10001111101
110010110
10111
111000111
1111111001001010
110011101
10000010100
1111110111
1010011011
101010
1111110111111000
1111111001001110
1111111001001101
1111110100011110
1111111001101001
1111110001010001
1111101110000110
1111101110111101
1111111011001101
1010111100
1011101001
100110100
111111010
100010010
1111111100001010
1001011
100001000
100001010
10000100101
11001011
1111111011011001
111111
1111111010111000
1011001100
10101101100
10101111101
10001001000
1111111111110101
1111110111000010
1111110111011011
1111101101100000
1111110001010111
1111111001100001
1111110011000101
1111110001111100
1111110101100111
0
10011001000
1000111111
1011101001
1011010110
1001010100
1011010111
1001100011
1111001010
101000111
10010010100
1101000000
10110100
10101
10001010
10100001011
10010100001
11001110111
10100111011
1011001010
10100010
1111110111111010
1111101111011111
1111110101101111
1111111001101111
1111110110001010
1111110110101111
1111111000010100
1000001110
1011000101
111010100
1000110100
101111011
111110101
1001101001
1010101011
11000000
1111111111101100
110010000
1001101011
1111111011010011
1111111011010100
11101
1100110101
11000010000
11110001011
100000111111
11000110011
10111100
1111110001011001
1111111000000011
1111110101110110
1111111100010110
1111111110001001
100111
1111111110100110
1110
1001010
1111111111100101
100110101
10110
1111111111111010
111100
1000000111
1001011110
1111111100010000
10001011
101110000
1111111111001111
1010001
1100001111
1100111001
10010011001
11101001010
11100011011
10010101010
111001110
1111111011100010
1111110011001000
1111110011101110
1111111000101010
1111111100010100
1111111110110000
1111111100000001
1111111111010100
1111111011111001
1111111100110001
1111111011101010
1111111001111101
1111111111110100
1111111111100100
110100110
1111111100000001
1111111001111011
101111
1111111110010101
1111111100000001
11111000
1111111001
1111100001
1110110000
11000000001
1101001101
1101010001
1011011110
1111111101111110
1111110110111100
1111111000011101
1111110111010001
11000111
1111111101101111
1111111010001110
1111111001100000
1111110101100001
1111111000100000
1111111010100010
1111110110101101
1111111000011011
110111100
101110011
1111111111100101
1111111110110011
1111111100111100
1111111111011110
1111111101001111
1100011
101101000
11110011
10111110
100011101
10011110
10111000
110100011
1111111101110111
1111111011010011
1111111111000011
100101
1111111000111111
1111111010000110
1111111100001011
1111111101010101
1111111000110110
1111111000100011
1111110111100001
1111111011111000
1111111011010111
101011001
111011000
0
101100001
11101011
1111111100100110
10011011
1111111110101001
101110111
100101100
10001100
1111110011011101
10000101
1111111111000001
11010001
1010010110
110000101
110110110
11000110
1001000011
1111111111101101
1111111100011000
1111111000010011
1111110101011000
1111110001101000
1111110100011100
1111110110101000
1111110111111001
1000110011
1111110000
1001110001
110100
1111111000100100
101010001
11011110
1111111101001111
100100
1011100001
10110000
1111111010000100
111
101011110
1110010101
110001110
1111011011
10001000011
100000001
111011100
1111111110111011
1111111101001010
1111111010010010
1111110111010000
1111110011111000
1111110101011111
1111110110101001
1011010
1000010001
10000111010
1111110011
10001001
1111110111000011
11000010
100111110
1111111100110001
1111111010110111
1010111011
10011011101
1111111101111100
1111111111000000
110010101
1110101101
1010101000
1010001011
1000110001
10000100100
10110100100
1100110100
101101011
10000000100
101110110
11111001
1111111011001100
111010000
1111111101001111
1100010011
1111010111
10000110100
1111111001011010
1111111111010001
1111111011011010
1111111101000111
11001110
11101000
1111111011101010
111110000
1110000101
10011000000
10110010100
1110001010
1011011101
11010001000
100000100001
11001010010
100110100000
11010010010
11001010000
101001111001
100110011101
11110010011
100000001011
11011010100
1100110101
1111111110100011
11011001
1100001000
10011010
1111111111010010
1111111101000100
1111111101011011
1010010
1111111100001100
10001110
1000011011
11100011
100001101
1100101111
10101000001
10100011111
10010110111
11101010100
11111110010
100000010101
100110110101
1111010111
11001100001
100101111011
11011000101
10110010010
10001111100
1101110101
1000111011
101111101
101010
101110
10001100
1001
110111
10111001
10010011
1000000
1111111101111100
1111111111110000
11100001
111011100
11000110
100010101
1001110011
10101000
110101111
10000010
1101111011
11101100
111111
1111111101010110
10101000
1111110
10110011
1111111011011101
1111111011111111
1111111011100111
1111111111111101
1111111100010000
1111111011110111
111010
