1111111101001101
1111111110110111
100000001
1111111010111001
100110001
1100011
1111111100111110
1111111011111111
10100001
11111110
1111111100010010
1111111111111011
1111111110010010
1000000
1111111111011110
10001001
1111111110010111
100011110
11100001
1111111100100111
1111111100010000
100000100
1111111011101001
10101111
1111111011001100
1111111011001011
1100010
1111111011000101
1111111101110110
11110101
10101001
1111111110110001
1111111011001101
1111111111101100
1111111101010000
1111111100000110
111011
11010
1111111110111010
1111111011100100
1111110110011001
1111111101111111
1111110111010011
1111111000011001
1110111000
101111100
1111111100100101
1111110111000111
1111111000101001
1111111001100101
1111111010111000
1111
100111100
1111111111010110
10011100
1111111111000011
101001011
10111100
1111111101101000
1100101
110001100
1100111
1111111100010011
1111111000000001
1111110111110111
1111111011110101
1111111010111001
1111110010010011
1111111100010101
1111111010010001
1111111001101100
1111110010101111
111101
1100000110
11100000
1101000
1111111010010101
1111111100011001
1111110110000111
1111111111001110
1111010
10000100
100010010
1111111010110110
1110000
101000011
1111111110011100
1111111111010101
101001101
1111110111010100
1111111011101011
11100011
1001010000
1111111101111111
10101010
1111111010100100
100111110
111001
110
1101111
1111111001110111
1111111111011010
10110010
1111111111100100
1000110
1001101
1111110111001001
1111111010110000
1011011
1000100001
1111111010011011
1111111100111111
1111111110101001
100010111
1111111011011001
100111100
1111101110011011
1111111000011011
1111111110010101
11100
1111111001110100
11000111
1000011111
1111010111
1010111111
1111111111100011
11010110
1100111001
101010011
1111111111010000
1000110011
1111111110010001
1111111010101110
1111111100011110
1111111100110010
1001100
1011101100
1001101010
1111111100100001
1111110101011011
100001
10110110
1111111010101010
1111111111011010
1111101101000010
1111111001010000
1111111000101000
1111110011100101
1111111010101101
1000011
110101010
1000000110
110111100
1000011101
1001110101
1001111011
10100001100
1111101010
10000000001
1000111011
111101100
1111111101011110
100100000
1111110110100001
1111111111011011
1011011100
1111111100011110
1111111000100000
1111111110000101
1010010000
110101011
1111110111000101
1111101111001111
1111111101111100
1111110110111111
1111101111001011
1111110110010100
1111110011001011
1111111110101000
11000101
1000101101
1110100001
1110010000
1000011010
1011100000
1110001010
1010110001
1001000011
1000010000
1111111110011010
11100101
1111111110110110
110010010
1110101
110001111
1111111011100000
10111100
101000001
1111111101001010
1111110111111110
1111110000011110
1111111101011011
1111110100111101
1111111000001110
1111111000101110
100
100001001
110100
11101
1111
101111010
1111111101101110
11000001
111111110
1001001101
1101000100
1011010010
1111
1101101
1001011
1000000011
10000011010
1101011
1111111111011010
110101
10011110
1111111110001000
1111110100001101
1111101101011010
1111111001011110
1111110001101011
1111110111010011
100111110
100110100
111000
110111111
110111
1111110011010000
1111111001000000
1111111010100001
110001010
1100000101
1010100011
10000010001
1011111011
1010100010
1111000111
1001110001
1111110110
1000011100
1111111111110001
101101011
1111110111100000
1111111000001000
1111111111100010
1111110011110010
1111101101000001
1111101111011000
1111110100011110
1111110101010100
1111111110001101
1111111010111100
10001001
1100010
1111111001001101
1111110010000110
1111110101010101
1111110110101011
110101111
1001101101
1011100000
1011001011
1110011100
10001111011
10110001101
10110110100
10101011011
1101000101
10100010011
10000101
1111111101010011
1111111110010100
1111111010111011
1111110100000110
1111110100000010
1111110011111000
1111111111000011
1111111001011111
1111111111111100
1111111011110000
1111111001101110
1111110100110101
1111111101111110
1111111011101100
1111111100111011
1111111101000000
1000110001
110000100
1000011001
101000101
1000101001
1001001000
1011011110
11010010100
100100011010
11101111010
10100000101
10101111
1111111001111110
1111110110001100
1111111000101110
1111110010111100
1111110010001010
1111110011110111
1111111101100110
1111110111111001
1111110111010110
1111110011100011
1111110010010111
1111110011110010
1111111010111001
1111111101101011
1111111001101011
1111111011111100
1101100
1111111
1111111010111011
1111110111110011
1111111100111001
1111110111110101
10000010
10111111011
100001101101
100100010111
1111011100
1111111101000110
100011
1111111010000000
1111110111111000
1111110010101000
1111110100010010
1111110111001001
1111111000100001
1111111101100111
1111111101001110
1111111111101101
100010001
1111111011100001
1010110
1000010000
11101010
1111110111100100
1111110001010100
1111110010100010
1111110010011100
1111110000010111
1111110101111101
1111110001010010
1111101011111101
1111110010001010
110001011
1110110111
1110011011
1111111100110000
1111111000101111
1111110101000001
1111110000011001
10000101
1111111001110010
1111111100101001
1111111000000111
101010111
1001110
101000001
110011100
1010010000
10010000110
1100101111
111110111
1111110001101111
1111101011011111
1111101110000110
1111110011100011
1111110100010111
1111110110110100
1111110011001010
1111101110001000
1111101110100001
1111111011111111
110111110
10100011110
1011110000
110010
1111110011000010
1111110111010000
1111111111110011
1111111111011011
1111111010101101
110011110
1000110101
10010010
1000101011
1100100000
1010000100
111100000
11111011
1111111100111101
1111110100111111
1111101011111010
1111110011011010
1111110111111110
1111110110110011
1111111111011000
1111111011101110
1111110011000111
1111110101010010
110111
10101110
1110010111
101010001
1000100
1111111100000111
1111101101111110
1111111001111100
1011100100
1101100111
10010111101
1001100000
110011011
1011011101
11011101
101001
1110100
1111111000110101
1111110100010100
1111101000110001
1111110010001010
1111101111111011
1111111101001010
1111111100100001
100100000
111110100
111101
1111111111000010
10001101001
100011111
1111001101
101111011
1111111000100011
11111
11010010
1001110001
10101011001
11100011110
11001000000
1001101100
101111000
1111111110100111
1011111
1111110010101111
1111110110101000
1111110001001010
1111100101101011
1111101000000111
1111110100111111
1111111010001111
1111111010110100
1010010
111101101
110000111
111101101
10001001100
1001100011
110000110
1111100010
11110010
1111111111101000
1111111101110110
1000
10000100010
10110001011
100000100101
101000000111
11000110111
100110010
1111111110001010
1111101101100011
1111101101101010
1111101101101101
1111100110111000
1111101111100111
1111110000001101
1111111000010010
101101
1111111111001111
1111111110100010
10110000
111010
1011000101
11011001
110010110
1111111110101100
1011001
1011100100
100111011
1101100
1110010
1111001000
10111011101
100101100011
101000101100
11100100100
1010110101
1111111101011101
1111110000001001
1111101010110100
1111110100100111
1111110101000111
1111110111001100
1111110111000010
100010100
11100100
101111
10100110
10110000
1111111111011011
1011011011
1001101111
1110111010
1010101110
1111111001111010
10100
1111111000100110
1111111110001101
11101001
1101100011
11101100010
11100110010
11110110110
1111100110
10001111001
1111111100111000
1111110000110111
1111110011101100
1111111000100100
1111111001101010
1111111010101111
1111111010011001
1100110
101011111
11000110
101100011
1111101
111101001
111100111
10010011011
1101010000
1010011111
1111111100110000
1111111000110110
101110
11010001
1001010101
11010101111
11011001000
100101011001
10010001001
1110110110
1010100110
10111011
1111110111110101
1111110101011100
1111111010010010
11011010
1111111000001110
1111111101011111
1111111101110101
1111111011000101
1111111011001001
1
110101011
1001110110
1011000000
1100101111
101010000
1100101000
1111111111111010
1100110
1111111111101010
100110101
111010111
10001000010
1101011011
1001101001
110000100
110010100
101111001
1001001
1111111110111000
1111111011000100
1010101
1000101
1111111100000000
1111111101110100
10
1111111111001000
1111111111100011
111
110011011
11111011
1010011101
1010010011
1000110001
1000101110
101011010
1111111110001000
1111111101001100
1111111101000010
1000011000
1011000010
100010111
10
1111111110111001
111110100
1001011011
11001
10010010
1001101000
111000110
11101001
11010010
1111111100011111
10110100
1111111100111110
11100001
101001100
1001110000
101101001
111110100
1000001000
1101001011
111011111
100100010
10010111
10111100
1111111110001001
1100100101
1111011000
1110100101
10100000
10111001
1001000100
1101001101
1000110111
1101101000
111110100
1101001
10001
101010
10001100
1000010
1111111110110010
1111111001001100
1111111010111100
1111111111001001
10111111
110110101
1010011001
1100011111
101100101
11101010
1111010
100110101
1111111100100010
1111111111010101
1100010010
1011010011
1111111001110101
1111111000011000
10111
10100111
1011000100
1010100110
1011001
1001001110
1101110100
1001110100
100000010
10100010
1100000010
1000010000
100100001
111110100
1111111110100000
1
1010010001
1011010001
10101101
101010
1111111100011000
1111111111110110
1111111111111100
1010011100
110011111
1111111001011010
1111111101010100
1111111100100010
101100
1111111111001000
110101001
10000011
111000011
100110010
101110010
1111111011101111
100011010
1110010010
10001011100
1001011101
111101000
1000100111
110100010
1010010110
1110111010
1010110100
1001001110
11
1111111111000001
1111111011010111
10001011
11111111
100110110
1110001
10110110
1111111001101110
1111110101100001
1111110100000001
1111110100001001
1111111001100010
11011010
1111111011111011
11111001
1111111010001011
110001
1000010
1111111100100010
1111111010110000
11110011
111011101
1000000000
1100101
1111111010111000
11000100
1111111101011100
110000
1110100
11100110
110001
1111111101111001
1111111111011111
1111111110110101
1111111100010110
10111101
10111001
10000111
1111111101011111
11010100
1111111110101101
100010001
1111110111000001
1111111011000000
1111111001010101
1111111010111111
1111110001101011
1111110111101101
1111110100111111
1111111001110000
1111111101001100
1111111010110001
1111111101011001
1111111101101000
11100101
1111111110001101
11001100
