11000
1111111110010100
1111111100111110
1111111111100110
1111111110111010
1111111110110001
110010
10011111
1111111110000000
11100001
1111111101010110
10001101
10001100
1111111010001110
110001111
1111111111110111
110010
1111111101001001
10010001
100001101
11111110
11000101
111001
11101111
1111111100110111
1111111100001100
11100100
1111111111001010
1110010
1000010
1111111011100110
1001001
1111111011000101
1111111100000001
1111110100111100
1111110011010111
1111111000011000
1111110110001011
1111110010011001
1111110011010001
1111101010101111
1111110011011011
111010000
1011110
1111111010000001
1111110110011111
1111111000111111
1111110001100010
1111110010110001
1111111000011000
1111110100011101
1111111000100100
100111000
10110
1111111111000100
1111111011011010
1111111111111100
1111111101000101
1111111111101111
1111111001000011
1111110111111101
1111111101110110
1111110101111111
1111101110000001
1111101011111001
1111100110101111
1111100101001011
1111101101001110
1111110011011110
1111111011000101
1111111100100111
1111111100110110
101101100
1111111100011010
1111110111100000
1111110110101111
1111110011000100
1111110100111001
1111110001000101
1111110011001010
1111110011100101
1111111110010001
1111111010110111
1111111100010100
1111111111001001
11111010
111101001
1111110011101011
1111111110111000
1001
1111110000101011
1111101010110001
1111011111110100
1111100100000101
1111100000011111
1111101010110111
1111100111001001
1111101001011010
1111101111001100
1111111000001101
1111111000101001
11000
1111111011100001
1111111011000101
1111111100100101
1111110110010011
1111100111110001
1111100111110101
1111101111001110
1111111010101011
1111111111100101
1111111010111100
11000101
1111111111010110
1101000101
10011011
11110011
1010011110
11010001
1111111011000101
1111110100100000
1111101010001110
1111110010111010
1111110010110001
1111110001010100
1111110111011100
1111110000001001
1111110001101110
1111101111110111
1111110011011111
1111111100111100
1111111010011010
1111110110001000
1111110110101010
1111110100000100
1111110000110111
1111110111110100
1111110110111100
1111110011010011
1111110101111110
1111111100111000
1001110
1111111101111000
10001101011
1011111110
11001110100
1001000010
110101100
1111111100010000
1111111011000011
1111110101010001
1111111000111101
1111110110100000
1111110111001111
1111110111000100
1000101
1111111100110110
1111110101001101
1111111011011010
1111110111101001
1111110110001011
1111111001011000
1111111101001101
1111111111110010
1111111011001100
1111101100110101
1111110011011101
1111111000111010
1111111011110001
100010
1111111110010111
10100101101
10001000001
10000101110
10011101010
1111111111100101
111000100
1011010100
101100000
110111110
1111111100000011
110000100
11101010
11111100
11001111
1000011100
1100001010
1100000110
1001010110
101110101
1001
1111110010110110
1111110011110000
1111110000110011
1111110110000100
101
101000011
1000110010
1111111110101110
10010010001
1010000101
10001100111
10000111011
1000000001
111101010
1001001010
10011000
111101
110110101
1011001001
100111000
110100001
101001111
1100100011
110010111
1101100110
1101110100
1111111110101001
110011
1111110101010001
1111110001010101
1111110010001111
1111111011110010
1111111001100011
1111110101111010
11101111
11011100
1110010101
1111000100
10001010101
1101000010
111101010
1001111
10110
101101101
1111111111000001
1111111011010010
1001111
11101010
11100110
11101000
10111000
110000100
11001010
100100
101111
101001110
1111111110000001
1111110010000101
1111110101111111
1111110101000100
1111111000001001
10011110
110000001
110101011
1000110110
1110011011
10101010000
1001101111
10101111
101011001
1111111000001100
1111111011100100
101011011
1111111110000010
1111111001101010
100101011
10000100101
111010100
110110011
1010010101
1111100
11100000
1111111011101111
1010100010
1111111011101101
1111110010110001
1111101011110010
1111110110100011
101010110
1111111
1111111110110011
111111101
1111000001
1000001100
10011001000
100001000
110001000
1111111110001100
1111111110000100
1111110111101010
1111111100000100
1111111001010110
1111110101110010
1111111101110011
1011111010
1111110010
1000101110
1000000101
1111111111100010
101000111
1111111101001000
110111110
1111110010011101
1111101110001010
11001010
1111111101011000
101100
11111010
1111111100100000
1101000001
1001110011
10010000111
100001111
11110011
1111111011001001
10100110
1111000
10000011
101111000
1111110101011101
1111101110111100
1111111110000110
10000101100
1011110111
110001011
1100101011
110010000
1100010
1111111101100110
0
1111101111000110
1111100011110111
1111111011111110
1111111111000000
1011100
101001010
100100111
1010110110
11001011
10111001011
10110101
1111111101000100
1111111101011000
110100101
1111111111100101
1000100001
1111111100000111
1111110101111101
1111101010111000
11101101
1011001101
1000101011
1000110100
100010000
10011100
1111111100110010
1111111110101000
1111111101110001
1111101100111110
1111101001110000
1001011
10111010111
101100100
1111111100101100
11101001
11111101
1111010
10001100100
1100010000
11000100
100100
11111110
11101010
1111111111001100
1111110110100010
1111110011010111
1111110100011100
101100010
1001101110
101100001
1101000110
11110010
1111111100101101
1111111100011011
1111111101011111
1111111100110011
1111101111011100
1111111010001111
1000100010
10001011110
10010111
1111111011111000
1000101110
10100000
1000100110
10100010010
101100000
1101111001
1100010010
11011101
1111111110100010
1111110110011001
1111110110010011
1111111001010001
1111111101010000
111011010
110100000
1011011101
1001000000
1011010011
10011110
111001111
100011101
1111111101100000
1111110111011110
1111110110100011
101011001
10101011001
11111010
1111111100000011
1111111111110101
1100110
101010111
10001110101
1101111001
1001010011
100101101
10110
1111111110000010
1111111000010001
1111110101001101
1111111011101101
1111111100011100
111111101
10000011110
1101010101
1100100001
1010101110
111101001
1000010000
11011010
1111111110101101
1111111110010000
1111111111011100
1111111000010110
11100101000
111000010
1011010
100101000
1000100111
110011111
1101001011
110110000
1110010
11010
1111111100000110
1111110101010101
1111110010011011
1111101110000010
1111110101111100
10000100
10001110
111100100
1001100101
1010001000
1011011101
110101110
1000000001
10100110
10011101
1000000
1111111111111010
101111110
11100100010
1001010111
11011100
110001010
10001101000
10000111000
110110111
1111111100110110
1111110110101100
1111111001000100
1111110100001100
1111110101110101
1111110000101111
1111110000110011
1111111000000111
10011000
111000011
111001111
1000
11100100
100100000
101001101
100100111
101101110
11111110
1000100
1111111100100010
1111011101
11000001000
1111111000110001
110011011
111011111
1111001101
10001011000
110011110
11
1111110110100010
1111111000010111
1111110111101010
1111110001110010
1111110010001111
1111111000000011
1111110011101101
1111110101001001
100111100
10110001
1111111010111000
10101010
1000101101
11011011
1000001010
1000100000
1010110
1111111110000010
1111110100000000
100101111
1101011010
1011011000
10011111
11001110
1111111101001111
10011001000
10110001
0
1111111000100100
1111110001110000
1111111001101000
1111110101011111
1111110011111110
1111110100101111
1111110011111000
1111111000001000
1111111010101000
1111111110111110
1111111111101001
10001
1111111001101010
1000000010
1101011
1111111100010111
1111110110101101
1111111010101010
10000001
10010111100
10011011011
1000101010
11101
1111110111111111
1111110110100001
1111010011
1010001
1111111100111001
1111111110010100
1111110010001100
1111111010011111
1111110011101010
1111101111111000
1111110000010111
1111110000010011
1111110100000101
1111110110011011
1111111001110111
1111111111010010
1111111010111110
1111111100101110
11100011
1000110
1010010
1111111110010101
101110111
1100001110
10011011111
1011000111
10011010
1111111111111000
1111111111011100
1111111111110001
1110100100
1001000110
110101010
1111111000010001
1111110100110011
1111110111010110
1111110001010110
1111111001110000
1111110111101100
1111111000110110
1111110011100001
1111110010100101
1111110101111011
1111111011110010
1111111111010000
1100
1100100
1111111110111100
10010000
1111111110000001
10011001
10001000001
1011100
1111111000111000
1111111010010100
10111010
1111111110001110
100100100
1011110111
11011110
1010111000
11101001
1111111100010111
111111
1111111000011101
1111111111111110
1111111000001110
1111110110111011
1111110100001010
1111111010111011
1111111001000110
1111111111101001
1111111011111010
10110000
11000110
110100110
1101110000
110110100
101111001
1000111001
101110010
1111110111101101
11010000
1111111110000001
11101111
1111111100001010
1000111110
1011101111
1111110011
1010011001
1101000110
1111111101101010
1111101
1111111010111100
1111111110101111
1111110101010000
1111110110110001
1111111010000000
1111111000101001
1111110101100111
1111111101011111
1001001011
1010101111
1010100110
1101011110
101100011
100111010
110111010
1111111011101111
1111111110010011
100110011
1111111101010001
1111111011010001
1010011
1001110110
1101000000
10000111110
10000001011
10010000011
11010011
1111111101111110
1111111100101110
1111111110011001
1111111010011100
1111111001110101
1111110110001101
1111111000010001
1111111110011010
1011010100
111010100
101011101
1011001101
10000001010
11000110
1001010
1111111010111001
101111011
1111111111011010
1111111111100111
1111111101101110
1111111101000011
100001100
1110
1100111010
10111111010
10100011010
1111111111
11000010101
1100000111
101010000
10101000
1001101100
1001101001
1011000111
110110000
111010011
110011111
110101010
101111111
100000111
1110100100
10011001
10111110
10011111
1111111101010001
1111111001100000
1111111111110110
10001
100111101
100011
1001001
1000001000
1101000011
10010111111
10101111100
1101000011
10111011000
1100001000
101101111
100110100
1010001011
11001111011
10010101101
1111110100
10001101101
1010101011
110111110
1001100010
1101000011
111001111
1111111111101011
10000100
100001
11010010
10100111
1111111100110011
1010000
1111111110101011
111111
110111101
111101001
11011101
1110011
110111010
1011001000
1000111010
110000
1
101101001
1110101000
100011011
1001010111
1100011
111010101
111111100
10101010
1101111101
1100100000
110101101
10000010
1111111101000011
1111111011100000
100010111
