111001
10110011
100011011
1111111101010011
1111111110101101
1111111011000100
1111111011101011
1111111110100001
100110
1111111111000110
1111111100010011
1111111110011001
101001110
10011010
1111111010001101
1111111100111111
11111100
1111111101110010
1000110
1111111101100100
111001
1111111101110100
11111000
111
101001011
10101
100
10011110
1011111
1111111100010111
1111111011011100
1111111100101011
1111111111100111
10110
1100011010
1011011011
110110010
1100111101
1111101101
10001010010
10100011001
1010011110
1111111011101100
1011111001
1011111010
1101010100
10111010101
1011110101
10011010110
1000011000
1001011010
1010101101
1111111110010011
11111111
1111111101000110
1111111111011100
10011000
1111111100001110
110010110
1111111111111011
10000010000
111011001
10000110101
10101100100
1101000001
1111111011011101
1111111110000010
100
1111111010011000
1111111000001010
1111110111010111
1111111100010101
1111111010110101
1000010
1110110001
10100110111
1111011001
1100110101
1110111110
1000100110
1111111110001101
1111111100011010
100100100
1111111110010101
1111111101010011
1010111
1111110111001101
10011111
1110010000
1111110111100100
11011
1010011000
1111111111111110
1111110110100011
1111111001010000
1111110001111101
1111110010110100
1111111001001001
1111111011011101
10010111
1111111010111111
1111111111001110
10011000011
1000101101
1001111101
1110110101
1001110011
1010100010
1111111100011010
1111110110000001
110110101
1111111101000110
10100000
1111111100010111
1111111100010011
1111111100001001
1111110110010100
1111110010011100
1111111001011100
11100111
1111111101111100
1111111001001000
1111111111011110
1111110111010011
1111111101111000
1111111010001100
11010011
10110010
101100001
1111111111011011
100101101
1111111010111001
1111111111001011
110010000
101010111
10100010011
111110011
100100001
110111101
1000000110
1111111111001010
101
1111111000001001
1111110010101000
1111101110100111
1111110000110100
1111110101101001
1111111000111100
110110
1111111011001110
1111111010100110
1111111001011111
1111111000101010
1111111111001110
1111111111101101
101011010
100010011
1010101111
100111010
1111000
10101101
101001010
1001111001
1101001100
111010100
1001000111
10010001100
110000000
1111111011101111
1111111000101111
10110101
1111101101111011
1111110100001010
1111111100000001
1111110100001110
1111110110001111
1111111001101111
1111111110111000
1111111011000101
110010
1000101
1111111101111110
101001011
110110010
1110100110
100010010
10001001
1111111110101010
1111111100000100
11101
1110010111
10000000001
10111001111
1000110010
1111111110100000
1111111111001001
1111111101101010
1111110011111010
1111111111110001
1111110101001110
1111101010100101
1111110101101001
1111111001011100
1111111011100011
1111000
1111111110010000
110110
100010010
10010101
1011101
1001100011
1110011110
1011000001
10010011
1111111100001000
1111110111100111
1111111010101000
1001111100
10011000101
100011101010
100001001101
10100001001
111001001
10101000
100110111
110111000
1111111011010011
1111110101110111
1111101011111100
1111111000100010
1111111110001000
10010000
10101100
1111101
100101001
1101110
11101011
10101111
1010110011
1000011110
100101001
1111111011001010
1111111110010011
1111110111000010
101010111
10011101001
11000010011
100110000110
101011100001
11000000010
1011111010
1101101
1001111110
1010110101
1111111111110100
1111111111110010
1111110100010111
1111110101101111
100010001
1010110001
1010000100
1011011100
1101000111
1010000011
1011000001
1100000111
1000110010
1111110110100001
1111101110100010
1111111010011100
1111110110111110
1000110
1011000000
10111110101
100010111001
101000110110
100100110100
10111000001
1110110010
110100100
1000100
110111000
10101110
1111111010010111
110001000
10000101
1010100011
1111011101
10111000101
11110100100
11010010111
10110111000
1001010111
1110000100
10000011100
1111111010001001
1111101100110100
1111110011010011
1111110101011100
1111111110000100
1011111101
11111000011
100011111111
101001100010
100010101000
1110111110
1011110
1111111110111001
10001110
1011101111
1001100001
1111111110000000
1011110110
1111001001
100000001111
100011011001
100100100111
11001101011
10100110101
1001011101
110110100
10000101101
1111111111101101
1111110110101000
1111110010011000
1111111010001111
1000000
110010111
10000001000
10111011100
11111100101
100000010110
11100101011
1100111000
1010110010
1111010
1111111110000011
11001100
11011
1010111001
1100010010
10010010000
11101001101
100001011000
10101011111
1011000010
111000000
1111111011110000
1111110010101100
11001101
1111111011110011
1111111110000000
1111110111000101
1111111111000001
10101000
100111110
1110001011
1110010000
10010010001
1111011001
1111111011110010
1111110011111001
1111111000011110
1111111111001010
1111111101110111
110010010
11110111
110111010
1001011010
10000010110
10111011000
10000111110
1000101110
111001010
1111111101101001
1111110101100110
1111110001010111
1111111100110100
1111111110000010
1111111101010001
10000
1111111100011000
101100111
1000011011
1111111111011100
1111111101111100
111000000
1111111100001001
1111110010111111
1111101011010110
1111101000100000
1111111001001111
111001011
11110111
101010100
1111111111111000
1111111010010000
1001101100
1011111
1111111101011000
1111111000010011
1111111110000111
1111111001010001
1111110110100010
1111111001100000
1111110111101111
1111110110111100
1111111010000101
1111111011101100
1111111011100101
1011110
1111111101001011
1111111101000110
1111111111000101
1111111011001010
1111111110000000
1111111101000100
1111101001001111
1111101101101010
1111110001110000
100000010
100110
1111110011001010
1111111110100101
1111110100111010
1111111011011001
1111111010000110
1111111011001101
1111110111111011
1111111001000010
1111111010000010
1111111001011010
1111111111001111
1111110111111010
1111110111100100
1111110101101100
1111110001101100
1111111011110101
110001010
1111111011011100
1111111100011100
1111110110000010
1111111110000100
1111111010000001
1111111010001001
1111111010010111
1111101011100101
1111110110000101
1111111101111010
100110100
1111110101110111
1111110011010100
1111111000111101
1111111011101110
1111111001010101
1111101110101110
1111110101111001
1111111011110110
1010101
1111111110101100
1111111001001111
1111111000111110
1111101101101110
1111111000011110
1111111011101101
11010010
1111111100101000
1111111001110000
1000
1111110101111011
1111111111001011
1111111001101011
1111101110100010
1111110000110011
1111100111111000
1111111001101100
10111011
1111111110010100
1111110100001111
1111110100111111
1111111001100111
1111111111000001
11010111
1111111000100111
1111111111110010
10000100
1110111
1111111111001010
1111111111110111
1111101111101101
1111110110101001
1111111100011001
1111111110010100
110010011
1111111010011000
1111111011100000
1111111011111010
1111111010011011
1111110110010010
1111111101101010
1111111110000111
1111110001000001
1111101100111100
101110011
101000110
1111110100011001
1111110000011100
1111101011100100
1111101111000111
10000111
110101101
10000110
1001011111
1000000111
10010000001
110000000
1111111111110110
1111110100110010
1111110101110001
1111111111010100
1111111001110001
1001010
1111111101010001
11110111
10111000
1111110110001011
1111111011111000
1111111000100111
1111111100000101
1111110001011101
1111110100101000
1111101110011000
1111111100101011
1011011011
100001111
1111110010100110
1111110101000010
1111111011100101
100000101
1111111100110010
1001100010
1100000011
10100101100
111110110
111100001
1111111000110101
1111111010110100
1111110011010101
1111110111000011
1111111111011001
10001101
100101011
1111111101111011
1111111000101011
1111111010001100
1111111110011111
11110110
1111110110101100
1111110000101101
1111110101110101
1111111101010110
1001000010
1111111011000000
1111101100111111
1111110011011010
10111
1111111111010100
1111111111001101
110011111
100000110
1101101010
1001101100
1100000001
101110110
1111111111110110
1111110111111010
1111110100011010
1111111100010110
1111110100001100
1111111010001010
1111110111010101
1111110111101000
1111111111110111
10010111
1111111101010001
1
1111101111000100
1111111111000100
1111111111100010
1111111000000000
1111110011110111
1111110000001100
1111111100100000
1111111011110011
110101100
100000011
100101110
110101010
110110111
110001101
111110011
1011100001
1101101
111010
1000100
1111111011010111
1111111100000110
1111111100111100
11110
1111111100111001
11110111
100101
1111111100011001
1111111100001001
1001101
1111111110001001
1111111101101000
111001
1111101010010101
1111101001101100
1111111011111011
1111110100100110
1111111011100001
100010011
111000011
10010101
11011101
1011000110
1101011000
1011001011
1001110100
110110111
110101
1111111111010001
1111111101100010
1111110111111010
1111111010001111
1111110101011100
1111111101000001
101001101
101110110
1100100
111011100
100010110
11010101
1111111111110101
1111110110111000
1111111011101000
101011011
1111111110000101
1111111101001011
1111111101011011
100101001
10100011
11001011
100111001
111001100
1111111101110111
111010001
101100001
11000100
1000010
1111111010110110
1111110101101110
1111111101010100
1111110101001100
100011
101001111
1101100101
1111111111110010
1111111100001101
11000111
1111111100001011
1010
0
1111111110011011
1111111011100001
1000001010
10010000
100111001
1010001
1111111010010100
1111111101111000
1111111101001010
1111111111001001
1111010
1111111010000000
1010101000
10100
1111111111110101
1111111111101110
111100001
100110101
1111110110001011
1111111111101110
110101
111101
1111110100001100
1111110100101111
101000101
1111111101000101
10110010
1111110111011110
1100001001
1101011
1001101101
101101
1100000011
1010100
1000110100
1000010
1111111111101011
110101000
11001110
101111110
111010111
1000101100
1100011100
1110101111
10000101011
111111001
1100010101
110011001
110000000
1001111111
1111111100010001
1111111000000000
1111111100101101
11100001
1111111101011001
100000101
10101000
11100010
1111111111111001
10111100
1110101100
10111000000
10101000111
10001001011
10010000101
11000111001
11010100100
11101011000
11001100010
10011000110
1111101000
10101001010
10000100000
10101100100
11100101111
10110010001
1001110010
101011101
1111111100011000
1111111100011100
100101000
111111
11110101
1111111011011001
1111111010110110
1111111101010000
10011101
100110001
1101000000
1110111000
1110101101
1111101010
10000001011
1011000010
10001110010
10111100001
1011000101
1000011110
1100111101
1101011001
1000110101
110011001
1010100011
101101001
1111111111110001
10011011
101101
1111111011110010
111100
