1111111111010111
1110110
10101110
1111111111010011
11100000
1111111100111000
1111111010110111
1110001
10101001
1111111011000100
11100111
1111111101000101
110001111
100101101
111000
1111111100101001
1001
1101000
1111111111101000
11111111
1111111010111011
1111111100011100
1111111101111110
10100101
1111111100110001
10000000
10000011
1111001
1111111110001010
11001001
100101101
1001010
1110011
100011101
100101101
111001011
10101111
1000110100
1010110111
1101011111
1100001000
1010010010
1100110
1111111110110100
1111111101001011
1111111001000111
11000000
11011011
1001101
100111
100001100
111111111
1111111110110100
1111111110110101
100110010
100011110
1111111101001001
1111111110011011
1111111110111010
101011011
111100111
100101
11110000
1001100010
101110000
1111111111111011
1011001001
1001100110
1001000011
100001010
11000100
1111001
1111111000101000
100011110
101001101
1110000001
1001011100
1010010011
1101001101
101000101
1111111100110110
1111110111001011
1111111111000011
10001011
11011011
1111111110001010
1111110011111000
11000011
1000111000
11011101
1111111111010100
1011000
1011101011
1111111111100111
1110110011
1100111000
1101011011
1001110000
10000100100
1001000110
110101111
10000001101
10000010100
10011111101
10000101011
1101100110
1111011100
111010011
1111111011000101
1111111110111101
101101001
1111111100100101
10000011
10101000
1111110011011101
1111111010000000
10011011
1111111010110011
1111111011110001
110101110
10001
10011011
101110101
11011001
101100111
1001010110
10011000
1000010011
1101001111
1111011011
101001101
111111011
1010001011
1011010010
1101011001
1001101100
1010110011
1001001000
1111111110011100
100010110
1111111110101100
1111111011110111
1111110111001011
1111111010110111
1111110111110010
1111110111110011
1111111011100001
1111111000100101
1111111011001100
1111111100111101
1111111110010000
10110001
1111111111101010
1111111010101010
1111111111100101
1001001
1000011101
111010001
1011110010
1000101010
1111001100
1111111111101001
1010000111
1010101100
1010011010
111010101
1001111011
1001101000
100011100
1111111001100101
1111111000001110
1111110001001010
1111110101010010
1111110001110011
1111110001111100
1111110111000111
1111110111101101
1111111000010101
1111111000100010
1111110110110111
1111110111111101
11001010
1010101
110101001
1000001101
110110111
100100100
1000011101
10010111
11001000
1000000011
1110110100
10010111100
1011101111
1000010011
1010
10000101
1111110110010010
1111110100001111
1111101111010000
1111110000100011
1111110111110000
1111110010010001
1111110000110000
1111111001101100
1111110100101111
1111110110001100
1111111011011011
1000110
1111111010011100
1000100101
1000011101
101110111
1001110
1111111110010010
1111111111111111
1111111101100111
101100101
101000010
10011000010
10101100011
10010000111
110010
1111111100000000
110001101
1111110011010100
1111110011101000
1111101111000001
1111110010000001
1111110110011101
1111110011011100
1111110000100010
1111111010111011
1111111100010000
1111110110111111
1111110000111001
1111110010011100
1111111001111001
1111111011111110
10001001
110111
1111111100001011
1111111110000110
1111111000010110
100000
1101100110
1011101011
10101011001
11011000010
10100101100
10110001
1111111101010101
1111110100101110
1111111011011111
1111111001100101
1111110101111100
1111101010110110
1111110000111101
1111111000011110
1111110010000000
1111110110101101
1111110001110010
1111111100001000
1111111011111010
1111110101011100
1111111010110010
1111111001111010
1111111001011111
1111111000110001
1111111011001101
1111111011010000
1111111110101001
1010111000
1010101000
10011101111
10101111011
10011011100
1011010000
1111111011011001
1111110100110101
1111111100101000
1111110101110110
1111110011111010
1111111100101101
1111110010111111
1111110110010111
1111110010110011
1111110101101111
1111111010100111
1111111001111110
1111111101101111
1111111100010010
110001111
1011000
110001011
1111111101101100
1111111101001011
1111111101100101
1111111110100100
100101010
1001111000
1110110000
10011011000
11000001111
10111011000
101001100
1111111001110010
1111110001010100
1111111011110101
1111111110001111
1111111101010101
101100
1111111100101000
1111111101000101
11000010
1111111010011001
1100001
1111111111111100
101010110
101110110
10000101001
1010010010
111101
1111111010110101
1111111010001011
100100010
1010000
1000111001
10000001000
10010010101
10010010110
10010011110
1111100010
1100010
111111
1111111110001100
1111111101010111
1111111011110011
1111110111000001
1010011000
10100111
100100001
10110100001
111001110
1001011110
10010101011
11100010101
10011001010
1111101111
10010000001
10101100
1111111001010000
1111111111110010
11111
101010000
1000101111
1110110110
110111000
111111111
1110000111
1111111000011101
1111110000010001
1111101101101000
1111101110111011
1111111110000111
1111111100101011
1111111100101000
1100111000
10010000101
11100110000
11111000010
100110100000
100010110101
11100100111
11010000110
1111101011
1000101110
111100
10000001
1111111100110010
1111111100000001
11010000
100101100
10001001100
1100110001
110111101
1111111111101111
1111111110101110
1111110110001100
1111100000100111
1111100000110100
1111110111000001
101101001
111
1111111001111010
1001100101
1000111010
11101011100
100111000101
101100010110
100101111100
11110110010
11001001010
1000111011
1111111100000111
1111110011001011
1111110011101111
1111111001001010
1111111101000001
1111111110101110
100011100
1111111111101110
1100110
10001000
1111111011010110
1111111001101111
1111110011110011
1111100111011111
1111100100000101
1111111010111110
11010101
1010111
11100101
1110100110
10010100100
11100101100
11100100010
100100001010
10101000110
10101001000
1101110000
1111111011001110
1111110011011011
1111101100000100
1111110101110011
1111111010011011
101100100
101111101
1000111101
1000010001
110010100
10101000
1111111011100100
1111111100000001
1111111011011101
1111110110111001
1111101101000011
1111110111110111
1111111100100011
100110
1101110
1100000101
10001101001
11001000101
1101100011
10100100011
1001011011
1010110
11111101
1111111010000001
1111110011110101
1111110010110101
1111110010101010
1111111011010011
110001011
101001000
111101100
100101101
1000111
1111111101010111
11100111
1111110101011001
1111110110001010
1111110011110000
1111101001111001
1111111000111111
1111111111110111
1111111111110100
100011010
100110001
10001101110
10110001110
1101111011
1010001111
10011000
1111111101000000
1111110100010111
1111111011101101
1111110111000110
1111101100110011
1111110001111101
1111111011100101
1011100
1000000000
1111111
101111101
1111111101000100
1111111111011000
1111111110000010
1001010
1111110111111000
1111101111001110
1111101000101010
1111110000011111
1111111100000000
1111011
101001111
101111111
1001110111
1111000111
10100100111
110001111
11101
1111110010101111
1111110101011111
1111111101001001
1111111101010101
1111110110101001
1111111010100101
10010001
1000001001
100001000
1111111111010011
1
11110110
11011101
10110101
1111111100010101
1111110111000111
1111110111100010
1111101100011110
1111110111010100
1111111100110111
1111011
1011011010
11000110
1111111111011000
10111000000
10011010011
1000010
1101111
1111110011110110
1111111100100101
1111111011100111
1111111110001110
1111110111000111
1111111011100011
1111111111110000
1111111010110101
1100100
11000101
1010110000
111011001
1001011111
1100010
1111111101100101
1111111101001010
1111101111110011
1111101111110010
1111110101100000
1111111110110110
1001101000
11110000
111101100
1010110
10001101100
1001100010
101000101
1111111001111010
1111111110000110
1111111100001110
1111111100010011
1111111101101000
10111010
1000010
11100111
100100001
100010011
1111111111000001
11011111
100011101
1011001
100011100
110011000
1111111110011110
1111111100101111
1111110100100100
10100000
1110001
1111111110000010
1010001000
110100001
10001010
1100000111
10101010
101000101
1100000
11010011
10011111
11000110
11111011
101000000
101011110
11100011
1111111101100110
10111111
1111111101010010
1111111001010000
1010100
110000000
101000000
11011
111011000
101110101
100100110
1000000
1111111110010000
1111111011110001
11000110
1100101110
101100101
1111110111101010
100100001
100011011
1111111111000110
1001100101
11010011
1100000
11101111
1111111111010110
1111111110110000
11001101
1000001100
100
1111111110011111
1111111101100001
1111111101001110
10001111
1111100
1011010100
1011100
1111111101000010
1011101111
1111111111010001
10011001
10010
111000101
10101110001
1101001010
11111011
1111111001011001
10001
100111000
1111111100000110
101001010
1111111011001011
1111111110111011
1111111011101001
1111111111111000
1111111111001011
1111111001101001
1111111001101101
0
1111111001111111
1001111
100000
1101
111000100
100010111
11010101
1111111101100110
1111111111000000
1000
1111111011011001
100111001
10101001011
110000010
1111111100101101
100100110
110001100
110111101
111101100
10100000
110011100
1111111101110010
1111111101101010
1111111110011100
1111010
111101111
110110110
11010100
11000111
100110111
10101111
1101100110
1010001111
1111111001000010
1111110100000011
1111111110101110
111010
1111111011111111
110001
110110000
1111111000100011
1111111001000110
1101
101111
1010011
1010110110
1000011111
1111111000
1011110100
10111100
1010001110
101001000
11110110
10000000101
1110000111
10000001000
1111011010
100001010
1000111111
1110001110
1000101101
110000111
1111111010000110
1111111100110111
1111111011101010
11100001
110011
1111111100010111
1111111101101101
1011101101
1100011110
100101100
1111111010001100
1111111011001110
110101
1011110101
100110000
111111100
1100101111
1001111001
1101001000
1100000001
1010001110
110011000
1011011
110000101
110000001
110100100
110111101
110101100
1111111000000010
1111111111001111
1111111110000111
11101
110010
1111001
1111111100111100
1111111001001111
1111110011011110
111
1101100
1111111010101111
1010
1111110100111101
101100
1111111101101000
1111110101100101
10111001
1111110101011110
1111111011100101
1111111101111000
11100100
11011111
110110101
1000010
111101000
1111110111101010
1111111100100111
1111111100011000
1111111110101001
1111111111011101
