1111111011101010
1111111
1111111101010011
1111111101100011
1111111100101010
1111111100001011
1111111011111101
1100001
1111111110000000
1111111011001110
1111111111010011
1111111111110100
1111111011101010
10010111
10010110
101111
10101101
1111111010111101
100101100
1111111111110000
1111111111011100
101001010
1111111111110100
101000011
1
1111111101010101
1111111100100110
11011011
100111111
10010001
10100011
111101
11010001
11001010
1111110001001000
1111110100101011
1111111100101100
1111110011001100
1111110001010111
1111110111101001
1111111010110100
1111111001001000
1111111011110011
1111111011000101
1111111111100111
1111110111000101
1111110011111100
1111110100011010
1111110100101000
1111110010010101
1111111000001111
1111110110001101
111001
100110001
1111111100000111
1111111101000010
101000011
1111111110001101
1111111110110011
1101001
1111110010111001
1111111011100001
1111110110101001
1111110010111000
1111110101000001
1111111111110010
1111101110011111
1111101110111010
1111111000011011
1111111111010010
1111111001011101
1111111110000111
1111111011001000
1111110101110011
1111101101011011
1111110100111110
1111101111111101
1111111001101001
1111101111101000
1111111010101001
100110001
101011110
10001101
100111111
1111111101011011
1111111111000010
1111111101010110
1111111011011100
1111110011101010
1111111010100011
1111111010110111
1111111011110011
1111110011110010
1111110110000100
1111111000010100
1000000
1111110101110001
1111111010110000
100100110
1000000
11001001
1111110110110101
1111110011100001
1111110100100101
1111101000101011
1111101000011011
1111101100111101
1111110110100001
10001
1111111111000010
1111111000001111
101010
1111110
1111111011110001
1111111111111110
1111110110100010
1111111000100011
1111111101110000
110010011
11111000
1111111100011100
1111111101010001
1111110111010011
1111110111010110
1111111001001100
1111111111101000
1111111010101000
1111111001100110
1111111101001100
1111111110111101
11111
1111111111010000
100010011
1111110110000111
1111111001101100
1111111011101000
1111110011001001
1111110000101101
1111110100011010
1111110110110111
1111111110010000
11110111
1111111111111110
1111111101000110
100110001
1111111
11111100
1111111000011001
1111111100011111
1111111001100110
1111111100010100
1111111101000010
1111110101111110
1111111111100010
1111111111111110
1100000
11111010
1011100001
10001010111
1101000110
110010000
11000010
111100011
100010111
1111111110011111
1111110000000110
1111110000101101
1111111001111000
101001001
1111110111010111
1111111110101111
1100010
1001011100
1111111111011101
1010000
1001100
1111111000001100
1111111101011100
1111110101011010
1111111011001000
1111111000111111
1111110111101111
1111110101010010
1111110110111100
1111111010011000
1111111111101001
111110001
1000010011
11101101
1001111110
1010101001
101001110
1111110100010000
1111110011111110
1111111100010011
1111111010111001
1100110
1111110000010101
10100011
101001110
1000110010
1011100010
100110110
1111110111110100
1111101111110001
1111110110101101
1111111000010010
1111111001111111
1111110111000101
1111111010111110
1111111000000000
1111110000100000
1111111000100010
101100000
1100011000
101110010
1000111001
1010000010
111101001
1001100011
1111111001100010
1111110101000010
1111111100111101
11001101
1000111000
100010110
11101110
11001101
1001001001
111011
1111111001001011
1111110110101110
1111110011100000
1111111100011000
1111111011101000
1111111111011011
101
1101011
1111110101011111
1111111100011011
100111000
1010101110
101100000
1111000100
11010110
1001100101
1000111110
1001011111
1111111011010110
1111110010011111
1111110001001001
1111111010010011
1111111000100001
1111110101000000
1111111101011001
10001000
100001100
111100001
1111111011101100
1111110010100001
1111110100011010
1111111101111100
1111111111011101
1111110110100011
110100
1111111000101100
1111101001101100
1111101010111010
110000111
10000010111
10001001110
1101111001
1011100111
10101000
1111111111100001
1011111
1111111100100001
1111100101010001
1111101011000110
1111110011111001
1111111111000011
1111111010010000
1111111110100010
1111111110110000
1111011
1111111111111001
1111111000010010
1111110101000000
1111110110111110
1111111101000100
1111111000101011
1111111001101100
1111111111010110
1111110001001110
1111011101111110
1111100100101000
1111111101001110
10011110001
10000001100
1001111010
10000110
101101001
10000111
10101010
1111101110010010
1111100111100101
1111100100111011
1111111000110010
101011
11100001
1111110111000111
101
1111111110100000
1111111011100010
1111111101011001
1111110110110010
1111110101111011
1111111010100011
1111111111100101
1111110110011011
1111111001110101
1111100111001011
1111010110111011
1111100011100000
1111110100011011
1111111111101100
1001100011
101011010
1111111110001101
10010110
110001011
1111111010011110
1111110000001110
1111101000011000
1111100001011011
1111110111110001
1111110
1111111001111000
1111111011011000
101110
1111111100101101
1111111001100111
1101001
1111111110001101
1111111110010001
1111111001111111
1111111001001110
1111111001110001
1111111110110001
1111110001100101
1111011100111110
1111011110010111
1111110011110101
1111111100101110
100111101
1111111100010010
1111111101000110
111101000
110100110
110111110
1010011100
11000001
1111111100011101
1111111010111100
10010110
10101110
1111111111111100
101100
11101110
100010000
10110110
11111011
111000100
1111111110000011
1111111101000010
1111111011000001
1111110101011011
1111101011111100
1111100101100001
1111100010101101
1111110010000000
101000
10010110
1111111011011111
1111111010101111
1011110001
101001101
1011000000
10000101101
10001100110
1111110001
1010100011
1111111000001000
1111111011101110
1111110001010000
11010
111101000
1101000100
111110100
10001001101
111001001
1000110
1111111101110111
100100100
1111111100011100
1111101110100001
1111101001011110
1111101010101001
1111110001001101
10101110
1111111100101010
11000010
100011110
10110010
11101110
10111110
111001111
10001111111
1111110100
100101011
1111111010111001
1111111010101010
1111010
1111111111010111
111100000
100110100
11010000
110001100
1101011011
1010001001
1000110001
100000010
100100001
1111111000001000
1111101110000111
1111101110111110
1111111100000111
111100100
100100010
1011001011
111100100
110110101
11100111
1111111001111011
1111111011111110
1000001001
11001000001
10011000
101010000
1111110110001110
1111111011100111
10000
1111111100100010
1111111110011101
1111111100111011
101101110
111001110
11111010
1010110100
110110000
1111111111100101
1111111101100100
1111110111101011
1111110110011011
1011010001
1111000001
1101000000
1010110001
110101010
1011100100
1111111101111001
1111111011011101
1111111111110100
1111011100
100000000000
101000001
1111111100111001
1111111010110100
1010110
1111111000001011
1111111101100111
1111111110001100
1111111111110010
1100101
1010100
110100000
1001001010
1010011110
101110011
1111111011100000
1111110001001100
1111111000010101
1111101
101110111
111010010
1111111111110000
11001001
1111111110110101
1111111111000000
1111110100101010
1111110111110011
10110001010
1110100011
10101101
1111111001110011
11011
1111111111100111
1111110111111010
1111111110101100
1111110111010110
1111111101000010
1111100
1111111101101100
1010101101
1001010111
1010000101
110010101
1111111001111000
1111101110111001
1111110010111011
11101011
111000011
1001101010
1111111100100011
1111111000010111
1111111101010001
1111111110011100
1111111110011010
1111111110001101
1110101100
110111100
10001001110
1111011
101000111
1111111111010011
1111111101001111
1111111111110101
1111111000110111
1111111010000001
110010110
10010111
1011011001
1110100100
111110100
11010
1111110100111000
1111110001010110
1111111101101000
0
101000100
1000011010
1111111011001111
1111111010010001
101111001
111000010
1111111101101011
1111110110000011
110000010
1111111111
1010001011
1111
1010011001
1111111110110100
1111111111010100
1000001
1101100
1111111100100101
1010001101
1001010111
1111001000
10010101000
10010011100
11000001
1111110010101011
1111110011010100
1111111101010001
110110000
101101
111100011
110001010
110011010
11000110
1011011
1111111100100010
101011101
1100010
1100001011
10100101
1111111110011001
101001100
0
101100100
110010011
111001010
1000101100
1000000101
1111111111
10101011110
1101001111
1001111010
1111110110011111
1111110000110011
1111111000100001
1111111100010100
10101001
1000000100
11111000
1000011100
111001101
1101101100
1110001100
110101000
1000000101
1111111010111111
1001010001
101011111
1110110
100110111
110111010
1101010
1111111110100000
1111010010
1010001111
1110011001
10010111000
10010101011
1010001101
101111111
1111111110000110
1111111010111101
1111111000011100
1111111100100100
1111111010001001
101000100
10000011
1010011110
110000111
1001111111
1011010001
11110011
101110011
1111111010000111
1111111011101000
101100000
1111111110100101
1111111110001111
1111111111001001
1111110101110010
1111110100011101
1111111101100010
1011000101
1111111101
10110001001
10011001100
1011011011
1000100100
111011010
1111111111011110
1111111111100001
1111111100110111
1111111110011010
1010010
100001000
110001000
10010001
1000101011
101101010
1111111010111101
1111111101100101
1111111011110011
1101100
1111111101100001
1111111111111000
11000110
1111110011000101
1111101100101010
1111101110001001
1111110110000101
1111111110100111
1010100001
1001000000
101
1111111101000110
1001101
10101000
1111111000100000
1111110011001110
1111110110011011
1111110100011111
1111111001011101
1111111110100101
1111111000110101
1111111101010100
1010111
1111111011101011
1111111010000110
101000011
111001000
1001000110
1111111101010010
1010010
1111111011110110
1111111110000100
1111110010110110
1111110011110101
1111110111010111
1111110100101000
1111110010100111
1111101010100111
1111100100110100
1111100011110010
1111100000000110
1111011011011101
1111100001011110
1111100111001000
1111110001010010
1111101101110101
1111101001001111
1111101100101001
1111101010111011
1111110011111110
1111101011100001
1111101010110110
1111110101001010
1111110101010111
10111100
1111111111010111
1000101
10011100
1111111011111110
1111111110100111
111010010
1111111111100010
101100111
10001100
1111110010110100
1111110101000010
1111110000111001
1111101001100011
1111101000111011
1111101100010111
1111100110101100
1111100111000011
1111101010110111
1111100011001000
1111100000001011
1111101001100010
1111101010101010
1111101100101000
1111101111011101
1111110001110000
1110011
1111111111100101
1111111100111101
1111111011001101
11111
1111111110111110
1111111100101101
10101000
1111111101010000
1111111100101111
1111110011010110
1111111011111001
1111110111000001
1111110110010100
1111110011010000
1111110111001110
1111111001001101
1111111001000000
1111110011111101
1111110110010111
1111111001000100
1111111011010010
1111110101011001
1111111001111100
1111111101001110
1111111011101111
1111111011101100
1111110111101001
1111111000001011
11010111
100011100
11101001
1111111110100111
