1100
100010001
11011011
10001110
1111111011110011
10010101
100011010
100100000
100
100110001
1111111101000101
1101010
1111111110110110
1111111111011110
1111111010011001
1111111110000001
1111111100001010
1111111101101000
10001101
1111111011010001
1111111101100001
11100000
1111111011110110
1111111111101111
1111111100101000
10011000
1110000
1111111011101110
1000111
1111111101000100
1111111100010100
1111111111001011
10010111
100010001
1111111100100100
1111111011100001
11010
101010000
1010001100
1101100000
1101111011
1001101000
11011
1111110100001001
1111111001100111
10011010
1101111101
101010101
10100010
100001100
1111111011110100
1111111001000011
11111010
1111111101001101
1100110
1010111
1111111010111100
1101001
11101011
1111111111010000
110101010
11001111
111111
101001010
1111111
1111111101001111
1111111110001100
10011100
100000110
10010110
1000001011
1110001
1111111011110010
1111111111110000
1111111100100111
10010001
1111111110110011
11011000
1001100000
100100011
10000101
10111
1111111101101101
10011110
1111111010111110
1111111110110000
101101
1111110110111010
100010
1111110111001100
1111110111011110
1111111111100010
1111110101111001
1111110111001011
1111110011110000
1111111001100111
1111111001110101
1111111001111000
1111111110010101
1111110010010111
1111110010100011
1111110010001001
1111111010100000
10111001
1111111100111010
11000011
1100001000
1001111011
1101010101
1111111011011000
100011100
1111111111110011
1111111111101001
1111111010011001
1111111100100110
1111111110110111
1001101
1111110110111000
1111111011000010
1111111001000000
1111110000111110
1111101110111001
1111110101110000
1111110101111110
1111110101101010
1111111100111001
1111110111100010
1111111011110101
1111110111101010
1111111000010111
1111110100110111
1111111100100110
110001000
1011011101
1011010110
10001110001
1111111011110011
1111110111100000
1111110110011110
1111111110001010
100001011
1111111110111110
1111111100101100
1111111100111111
1111111101010101
1111110100010111
1111110100111101
1111111010110001
1111111010101110
1111110101110101
1111111010101011
10011010
1011010
100001011
10110010
1111111110100100
1111110110110100
1111111100000000
1111111100011010
1111110111111010
1111110111101001
1111111011101111
1111111011111111
1111111111010110
10010
1111110111001111
1111111010000000
1111111011101100
1111111111111001
1111110110111110
101110001
1111110100000100
1111111000011001
1111110110111000
1111110000100000
1111110101010001
1111111010111001
10110
1111111110011100
111101
1000000110
111011110
110000000
1111111111011001
1111111100010101
1111111101110011
1111110111010000
1111111011101010
1111111011000011
1111110110111110
1111111001100110
1111111010110110
1111110110011101
1111101111110110
1111111011010101
1111111100001000
1111111100011011
1111110010101100
1111
1111110000110101
1111101110001011
1111111011000011
1111111101110111
100101
1111111100111100
1111111011001111
100001
10001110
101100011
11000010
1111111111000011
1100
1111111100111110
1111111001011111
1111110111110100
1111111001000011
1111110110101001
1111111110011000
1111111011110010
1111111111001001
1111110110000100
1111110000101011
1111111110111100
1111110110111010
10100101
1111110100000011
1111111101111101
1111101100011101
1111110101100010
1111110110110000
10010
1111111010000101
1111111110111110
10010011
1111111110010100
1111111110101000
1111111100100100
1000100
10001100
10000010
1111110111000001
1111111110001100
1111111101110010
1111111001101010
1111111000111100
111110
1111110001010011
1111110011110001
1111111101111001
1111110111011100
1111110001001110
1111110010010100
1111111101011010
1111110100000001
1111111010100011
1111101010110111
1111101110110000
1111111001111100
1111111010011100
1111111010000000
10
1111111100001001
10010110
110011100
1111101
1010111
1111110111011010
1111110110000100
1111111010101011
1111111001001111
1111111111000101
1111111000101001
1111111100011110
1111111010110010
1111101111110110
1111111000010011
1111111110001110
1111100110000010
1111101000010011
1111110110100110
1111111100011011
1111111100010101
1111111001011011
1111110010011001
1111111110001101
1111111111111010
1111111111100001
1000011
111010
1010010101
1100011001
1110100011
10000010010
1111110110101101
1111110000100110
1111111000011011
11101010
1000010100
100010110
100010001
1111111010000100
1111111110101011
101010
1111111011101010
1111111100111000
1111101101011110
1111101010000011
1111110101110110
1111111001000001
1111111111010011
1111111110000010
1111111100110010
1111110
1001101101
10111100
110010100
1000010110
1111101111
10100110111
10101110101
1110110010
1111110110100100
1111101111110001
1111111011010011
1011011001
10011100101
1110000110
100011000
1010011101
1111111101
111000101
110010111
1111111011111001
1111101100010001
1111110000011111
1111110111100001
1110
1100111
1000011
100011011
1000010101
111111110
10100100010
10010101000
1111111001
1111110011
10110000101
10100011111
1101100101
1111110101101111
1111101011011110
1111111100110001
1011101011
10010000000
1101011101
110011110
1001000000
10010001110
11011100110
10111011111
1110011
1111101010010001
1111101110111100
1111110011101101
1111111111000011
100110110
1111111101001111
1010000010
10111100010
10100110000
10100111000
11000100010
10011000001
1110011101
10011111100
10001110101
1111111110110111
1111101011010011
1111101111111010
1111111111010001
10100011
100101111
101100000
1001001000
1100110110
10010000001
10111101101
1010111000
1111111011111111
1111101001011001
1111101011000011
1111111000011101
1111111000100000
101000
1111111001010010
1010000111
11010001100
10101000001
1111010001
10010001111
10000011111
1100111010
1100001100
1001011110
1111110010001001
1111101011111100
1111101100110100
1111110101000010
110101111
1001110
100110010
1111011
1011111100
1011100010
10000011001
110000101
1111111111110101
1111101110001100
1111101100110011
1111110101010011
1111111101010000
1111110111011001
1111111110000010
110000101
1001000101
10001110000
101010110
1101011000
1011010110
100000
1001101011
1111111001001110
1111110010100000
1111100010010001
1111100000100110
1111110110010101
111011111
1011010100
1111111110100111
11110111
1101000
10101100
1011100100
11100110
1111110110001101
1111110101001111
1111110010010010
1111110110000111
11000100
1111110110101100
1111110010111010
1111110111110101
1111111111000100
101000011
1000011101
100100001
1100110010
10110000
1111111011010001
1111110110110110
1111101011111101
1111011111101011
1111101000001111
1111111111000100
10101100
1001011
11010111
1111111010110100
1010
10110
1000011
1111110100000101
1111101110011100
1111101100110011
1111101110100100
1111111011101110
1111111110000001
1111110011101111
1111110111100101
1111101111000111
1111110101011001
101110101
1101101
10001111
10101001
111111
110101
1111111000100100
1111101101010110
1111100101001100
1111110101001010
111010011
101110111
101011000
11000111
1111111111000111
1001001
11001110
1111111000110110
1111110101011001
1111101010110010
1111110000010101
1111101111100010
1111110111111001
1111110101111101
1111111000111010
1111111011101110
1111101000011111
1111111011101110
1111111101000100
1100
100001110
100001000
111101
1111111011000011
1111110001011000
1111101101001111
1111110010110101
11011110
100101010
11110110
1110
1111111110000000
1111111100011110
1111111111001101
1111111100101000
1111110101001011
1111101111110110
1111110010001000
1111110011010101
1111110010110011
1111110111001101
1111111011111110
1111111101000010
11011000
1111111101011110
11111111
1111111100110000
1111111011100100
1111111101010000
1111111000111101
1111110101011101
1111110010000001
1111110011110110
1111111001111101
1111111000110001
111000010
100
1111111
1111111110011010
1111111010101101
11010101
1111111101001000
1111111001011110
1111110101111000
1111101111011111
1111111000101110
1111101111000110
1111111000000000
1111110111000011
10
1111111111100101
10101
1111111000101010
1100001
1100000
1111111001011111
1111110010000101
1111110111110000
1111110110011001
1111110010001010
1111111011001010
1111111001001100
100110011
1111111110011101
1111111111000110
1111111111011011
111111
1000111
1111111111011110
1111111011001111
1111110101010100
1111111000100111
1111101111111011
1111111011111010
1111110110101001
1111111001000101
100100110
1111111010101000
1111111110000000
1111110101100011
1111111001111011
1111111110001010
1001001010
1111111001110000
1111110110010001
1111111100100110
1111111100000000
1001110
1111111101001011
110111011
111010111
1111111111101110
1111111111011100
1111111111110100
1111111110010011
10101100
1111111100101101
1111111001110001
1111111110010000
1111111111111101
1111111001010101
1111111100100101
1111110100011100
1111111011101001
1111111110001000
1111111011100100
11111011
1111110100010110
1111111010100100
1111111010110001
101110
1111111010010010
1111111011000010
1111110110010101
1111110111100001
11011111
11010101
10100
1101000
10010
10100010
100001011
101001100
1111111101010010
1111111011111000
10101011
100111001
101110001
11000100
100101010
1111010
111101111
10100100
1111111011000011
1111111111110000
1111101101101111
1111111000101101
1111110011100111
1111111100000111
1111110111101011
1111111001101110
1111111010101011
1111111001111101
1111111100101110
1111111001011111
10100011
101001011
1111111110110111
11001000
1111111111100111
101101101
100110000
1001011
111110000
1001100000
1101100101
100000100
111100010
100001101
1111111010010100
100100101
1111111011011001
1111111110110000
1111111001111000
1111110110011111
1111111011010101
1111111011000101
1111111101110101
1111111110001111
1111111110111110
1111111011111100
1011010
1111111011110100
1111110110111101
1111111000101011
1111110011110010
1111111000111100
1111111110101000
1111111101001110
101000
1001101101
1100010000
10100100101
1101010000
10000111001
1111111110010100
1111111100011110
10110
1001001
111010
11100111
10111000
110000110
1111111101000111
1001000
1111111110010111
1111111000101000
1111110101101100
1111111000010111
1111111111011110
1111110111000111
1111111011110001
1111111110001101
1111111111010111
1111111101101001
1111
1111111001101001
11110111
11000000
1100110000
10010101101
110100111
1110101
1111110100110001
1111111110101110
1111111001111111
101000
100110
1110110
1111111101000000
1111000
1001010001
1000011100
1110101111
1011100101
1010001110
10100100
101010100
100000001
1011101000
1001111010
110010111
101001101
1010101001
10111101
110110100
1001101000
1000100111
1011101100
101110001
10000101
1001001
1111111010010000
1111111110110111
10100
1001100
1111111111100011
1111111011011100
11011110
1111111100000101
1111110001000111
1111111110000011
11001011
1000
1111111010110011
1111111000110001
11000100
11000
1111111000110101
1111111101011001
1111111000101000
1111111011001010
1111111010010000
111110100
1111111111001001
11000101
110001010
1111111111101110
1111110111101111
1111111111011111
10011010
1111111111010110
1111111111010111
