10111011
101000111
1100
11000100
101001011
100100011
1111111011011110
1111111011011001
1111111011111111
1111111110100110
1111111110100011
100101011
1111111001001001
1100
1111111110000000
100011111
1111111110001100
1100110
100110100
100001011
11001011
1111111101101000
1111111010110101
1111111101111010
10001
1111111100000100
11000001
11111110
1111111011111000
1111111101101000
1111111111010010
1111111010111001
1111111111011100
1111111100110111
1111110100101001
1111111000001111
1111111010011001
1111110100111110
1111111011000000
1111111000110100
1111110111101111
1111111100010010
11100
1111110101001001
1111110111110101
1111111001110010
1111110000100100
1111110010011001
1111110100101000
1111110010100111
1111111000010011
1111111000110101
11110110
1111111100101001
1111111110101010
1111111111010000
100000111
11111110
1111111001111000
1111110110001100
1111110000001100
100000101
1111111011110010
1111111100011101
1111111111101011
10111010
1111111110110100
10011001
1111111100011000
1000100011
1110101000
111010011
11110000
11110
1111111101111111
1111110101110110
1111110100001010
1111110001100011
1111110010011001
1111111010001000
1111111011001010
100001100
101010
11011001
1111111011100001
1111111110001011
1111111010101000
1111110110101010
100100111
1111111111011010
1111111000010110
1111111010110010
1111111000110010
111001011
100011111
1111111111110001
1111111110000000
1111111110100101
11010
1111111111001111
1111110110110111
1111110110111001
1111101110001010
1111110111000011
1111111100100001
1111111110001001
111011010
100000100
11100111
1101011
1111111110001010
10110001
1111111011000100
1110010
1111110101011101
1111110000111000
1111110110010001
1111111011101000
1111111101110111
110000110
110101
1010011011
110111101
101100101
1110101001
111100010
1011000110
10010000
111100011
1001101101
1111111101001010
1111111110011110
1111111110101001
1111111110000010
1111111110110010
101100110
10000011011
111110001
1111111001100000
1111111001001010
1111111101000110
1111111100001010
1111101
1111111001111011
1110101
1111110110010110
1111111010010001
1111111011001111
1111111110001101
11101000
101100010
1111111110010101
11010
10011001
1000000101
1100111
100101001
10111
1111111110110111
1111111101000001
10010011
101110001
1000001010
1011001001
1000000101
1110010000
11000111
11011111
1100110
1111111101010111
1111111001110101
1111110110010010
111011001
11100
1111111100011101
110001001
100011111
1111111110000100
1111111110100001
1111111101111001
1111111010000011
1111110101011001
1111101111100001
1111110001001101
1111101101111110
1111101101001000
1111101110000110
1111110000110011
1111110101000101
1111110010100000
1111111011101111
1000011010
1110011010
10011001010
10000110101
1001001111
1010000
1111111001111101
11100
1111110010101000
1010110
100111111
1111111100101001
10111001
10000
1111111010111001
1111110111101111
10111100
1111111001011100
1111110101101110
1111110001111111
1111110010000011
1111101111110111
1111110010110000
1111101010111111
1111110000010001
1111110101010010
1111110110100000
10000011
101111010
1001001110
1101010111
10000111100
111110001
110101010
110100
1000111
1111101010101110
1111110110000100
1111111011111111
1111111111010010
1111111111000111
1111111011110111
1111111111111001
1111111101010110
1111111101101000
10110
1111110110001000
1111110011011111
1111110011000101
1111110000001000
1111110010111110
1111110010011110
1111110101000110
1111111100010010
1111111100001111
1010111
10000011
1100110110
11000101110
10101010011
111101110
1111110111101101
1111111000000010
1111110111111100
1111101101111011
1111110101000001
10000011
1111111101110010
1111111110101110
11011111
1111111111111111
1111111110010100
11010
1111111010110100
1111111000101101
1111101010000110
1111110110100101
1111111101101000
1111110110100010
1111111011011011
1111111011000100
1111111110101110
10000010
1111111100111100
1111110
1010011011
10100010101
1010110100
1111111010001110
1111111110110011
1111110101100101
1111101111101000
1111110110000110
1111111111110101
1111111101001111
101000101
1111111111011110
100011110
110110011
11011011
110000
1111111101101110
1111101100001000
1111100111000010
1111110110011110
1111110100010001
1111111111111010
1111110111110000
1111111111111101
1111111010010011
1111111100000001
1111110111000011
1111111011000010
1010011000
11100000001
1010001011
1111111100101110
1111110101111000
1111110110110011
1111101001010010
1111110001100110
1111111001011101
1111111110001111
1000000101
101111111
100001001
1010001110
1110000
10101100
1111111011110100
1111101000000111
1111100010101000
1111110000100000
1111111001001101
1111110001101001
1111111000100000
1111111100101101
1111101100110010
1111110100000001
1111101010001101
1111110100100111
110101101
11110000110
10111100110
1111111010010011
1111111110010010
1111111001111001
1111110010110100
1111101111111011
1111110110010010
1111111100110001
101000101
1111111111101011
1111111111010100
101011110
10111000
1100101011
1110100110
1111111000111001
1111101100101110
1111101111001001
1111111010101101
1111111000001110
1111110100000011
1111111000011101
1111110101111100
1111111011011010
1111101110100110
1111110011100011
1111111001110011
10100001111
1100001010
1111111101000101
11011101
110
1111110010000011
1111110111011110
1111110001101101
1111111100101101
10101101
110000001
1010100000
1100011000
1011010101
10001011001
11000110010
1001001000
1111111000100001
1111111000000011
100110
1111111010011111
1111111100111111
10100101
1111111111011111
1111111111011010
1111111100110010
11110
111011000
1111110011
10111011010
1000010000
101100101
1111110101001101
1111111000111011
1111111011111000
1111111101110011
1111111101101110
100101111
111011101
110011001
111100011
110100011
1101110010
10000100001
1011111101
101111101
1000011010
101101001
1101001
1010001
1111111000111111
1111111110001100
1111111000111000
1111110110101111
1111111101011001
100
1110000111
10101111100
1010011100
100000110
1111111110011110
1001001
100011110
100111010
1011111
101111010
1010100101
1101011100
1101101100
11111111
10001000
100110000
1010010010
1110001011
1010011000
1000010101
1111111110011101
11000
1111111010100011
1111110101000101
1111111000010011
1111110010001001
1111110011111010
110001010
11011000000
10100110100
101101101
1111111000101000
1111110111001111
1111111110111011
101001111
100000001
1111111110100101
1101110
11111011
1111111100110100
1111111111001110
10110001
100100011
1101111111
10001101011
10010000111
1111101111
1000000110
101000100
1111111110011101
1111111101101110
1111111001101111
1111111111010100
110101
1111111011111010
111100000
100101010110
10101010000
1001001110
1111111100100001
1111110101010001
100011000
111011
111100010
101111010
101001001
1111111110111101
1110001
1111111100111111
1111111111011000
1111111111001010
111001110
1111000010
1110001000
1001110010
1010101000
1111111010011111
1111111110000101
1111111011010111
101000100
101000100
1111111101000101
100010010
101100111
10010000100
100010110
1111111010111101
1111111000101001
1000011
1111111100111110
1000100
11101000
1000101100
11010110
10000000
1111111100110101
1111111001110011
1111110101000011
1111111111101100
1011010100
10000100111
1010001101
101111
111110010
100011
1111110101111010
1111111100011101
10000110
100100001
10111011
1101010011
10011011111
1111001110
1111110110110111
1111011011
1111111101001100
1111111000111100
101110
101011
11100001
10000111
1111111110110001
1111111010000110
1111111110100100
1111110110101000
1111111011110001
1000000010
111110000
111110011
1001110111
1100100001
100101001
110111110
1111111101111000
1111111001000011
11000001
110110010
1101111000
1101010100
10000011
10001110
1000110010
1011010010
1100110
1111111011010011
100110111
111
1111111011011001
1111111101101010
1111111111000010
100000110
1111111010111011
1100001
1111111111001011
1000111100
110101011
10111011
1111011
10011100
111100100
11111101
111111110
1010000101
1001101000
10011010000
10110101010
1001010100
1111011
1111111101100011
100010100
100000100
11010011
110001110
100000010
1111111111010000
1111111100101110
1111111001011001
1111111010101101
1111111100000110
1111111110110001
11011111
11100
1000111110
110011010
1010001010
10011010
10110001
1111111111101011
1000101000
10001110110
1100010110
1011111111
10010100001
10111010010
10101110011
1000010110
1001000
1011100110
1111111010111001
1111111111001110
110
1111111011100011
111001
1111111101100001
1111111100101111
1111111000101100
1111111001110111
1111111000001001
101101
1111111110010100
11010010
1111111101111100
11111001
1111111011111101
1111111110001010
1000110
1001111110
1010110101
10001011000
10001111101
10010010110
10011001000
1110010110
111010110
1011000110
101001111
1111100
10111
1111111010111001
11101111
1111111101101001
1111111011010110
1111101110101100
1111101011001111
1111110001001111
1111110101110001
1111111001010000
1111110111001110
1111110110010101
1111110110000111
1111111010001000
1111111110000011
1111111101001001
11000101
10100
1001101101
1110111101
10001010100
10000011011
1100101001
111100011
11110011
10001101010
111100101
1111111100111011
11011100
1111111101110001
1111111001011000
1111110011101101
1111101001110011
1111101000100000
1111101000001111
1111011110011111
1111100011000111
1111101111000010
1111110000010101
1111110111001001
1111111001111100
1111111011111000
11100
1111111100001001
1111110111100011
1111110111010011
101110000
1001000110
100111111
1000001011
110000111
1000101010
101100100
1011000101
11110110
1111111011101010
1111111111111101
1111111110111000
1111111111010101
1
1111110010100110
1111100101111000
1111100111100100
1111100110010010
1111011111001001
1111100111001011
1111101110100000
1111101111110010
1111110101001010
1111110100011110
1111111000101101
100100011
1111111011100001
1111111010110101
1111110111000101
1111110010101110
1111110010100000
1111110110011101
1011010
110011100
101010010
1111111011101000
111100110
10001100
1000
1111111110101100
1001110
1111111110000111
1111111111011010
1111111000101101
1111110001000001
1111101011111101
1111101011010010
1111100111011111
1111101110010010
1111110101011101
1111110011000101
1111101011101000
1111100110001010
1111101101110110
1111101101010110
1111101110101000
1111101001110010
1111101101101000
1111110011110000
1111110001001111
1111110001110100
1111110110000101
1111110111100011
1010001
10110100
1111111111010001
1111111100100101
1111001
1111111101100101
1011001
1111111001110011
1111111001010100
1111111100111010
1111110101011010
1111111000001001
1111110001111101
1111101111100100
1111111100011011
1111111011110000
1111110001110100
1111101001100011
1111110001111100
1111110101011100
1111101100011100
1111101101101001
1111110011011100
1111111011110001
1111110110111001
1111101111011110
1111110111111001
1101
100010111
11100001
11100111
