1111111100011100
1111111101000011
1111111110010011
100011101
1111111111100111
1011001
10010110
1111111100010110
1111111100111100
1111111111000111
1100010
1111111100000100
11010110
11010010
1111000
11010000
1111111111101100
101000101
1111111111111010
101001
11010011
1111111010111011
10101110
1111111011110111
1111111
11011010
11110010
1111111100000110
100101
1111001
100010100
11011001
1011111
1111111011001001
11011
1001000
1111111001011100
1111111011001110
1111111001101110
1111111111111110
10101010
1111111110110000
100110010
110111110
1000101000
100010
1111110101010111
1111110110001000
1111111010010110
1111110101000000
1111110111010011
1111110110100100
1111111100110101
11110001
11100101
1111111111000001
1111111111110101
11001011
1111111011011011
11010011
1111111011010011
1111111010110100
1111110010110000
1111110110110010
1111110100000000
1111110111101111
1111111010110010
1111111010100111
110110011
100110010
10100110
1001100010
11000110
1111111010100010
1111110111100111
1111110100110010
1111110101101000
1111110000000100
1111110010111111
1111111101000111
101010
1000000100
100110001
11000111
1111111111011110
1001
1011001001
1111111101101101
1111110101010100
1111110110101111
1111110111101011
1111101111010001
1111110110101111
1111110101111111
1111101110111000
1111111000000010
111100000
10100001001
11110111
100001100
10001110
11110010
1111111111000001
1111110010111111
1111101101001100
1111101111000101
1111110011001001
1111111000100110
1111111011011101
1111111011001111
1111110100111010
1111111101100000
1111111111111100
1111111100010111
1010101111
1111111110101100
1111111000000100
1111110000001010
1111101100011100
1111110001111101
1111110111111001
1111111001101000
1111111101000001
1011011000
10011110100
10011000101
1101101110
1101000001
1000100100
111000
1111111001100101
1111111
1111111001111101
1111110101111001
1111101100111011
1111101111110110
1111101100100011
1111110101110100
1110001
1111111000110100
1111111011111110
1111111110000001
11101010
1111111111100101
1111110111111110
1111110001000100
1111110000011000
1111110101010001
1111110001111100
1111101111111100
10000001
10000111111
10000111110
10111001111
10000000110
111001000
100000100
11001111
110001
1111111110111001
1111111000000001
1111111010110110
1111110011010101
1111101111001000
1111101101101010
1111110110100011
1111110101110111
1111110010100110
1111111111101110
1111111100100101
1111111011001011
1000000000
1111110111000011
1111101111101101
1111110100000101
1111110010110010
1111110111110000
1111110100101011
111011
111100100
1111011100
1011000011
1111000101
1001001110
110100010
111011000
1010001
1111111101000000
101101
10111101
1111110111100000
1111101011110000
1111101100010111
1111111001111110
1111111000010010
1111111111101100
10010100
1111111011101100
110001111
1100010000
11101
1111101111011001
1111111000101011
1111111000101110
1111110111011101
1111111000000011
100
1010110
100000100
1010011000
10110001
1100001110
100001010
1111111111101100
10001001
1111111001011100
1111111111010110
1111111111010110
1111111100101001
1111110101011001
1111101110010010
1111110001111110
1111101111000101
111111
100011010
101101101
1111111011011101
1011100001
101101100
1111110110100111
1111111111011101
1111111011000110
1111111111011000
1111111100010011
1111111110110111
11000101
101000110
111110110
1010011011
1001100010
1110100011
1111111111011101
11
1111111101111100
1111111011010001
1111110110110011
1111111001110111
1111110100001101
1111110010001100
1111100111011011
1111111100100000
110100011
100100
10100110
1111111011111100
10001010010
1111111101101100
10001111
11101101
10000110
1111111100101011
1111111110100001
10111011
1111111100011010
11100111
1011010
1110000100
1000011111
1100000110
1010001010
1011110010
1111111111010010
1111111111000001
1111110110101110
110111
10000111
1111101110010000
1111110000101001
1111110110101010
100001011
101110100
10100111
1111101011
10000010010
1010011
1010100
1001011001
110110010
101101001
111001
111001110
11100101
1000111
1101
110001000
1011001000
100000111
1001101101
10010011011
10100011101
1110010111
10001000011
10110101100
10010010000
1111110111111100
1111101110001111
1111110000111100
1010000
110011100
1000000000
1100001010
100001010
111110000
1100110
1010111
110001100
111101111
1011100
1111111110111111
110110
1111111001010010
1111111111100111
1001110011
1111111111100111
1111111100011100
1100101101
10001111000
10101010011
11101101101
100101100101
100100000111
10111011101
110111000
1111110111001110
100110
1111011
1111111101100000
1001111000
1001001000
110110001
1001001011
10011110
11010001
101110101
110100010
1111111111110111
1111111101001101
1111110111100101
1111101110100111
1111110100000010
111011101
110101001
110110
1100001001
1010110100
11001111100
10111000010
101000011010
100111111011
100101100110
100011000000
1011010101
1111011000
1010110110
101100
1111111111111010
101110100
101010110
100110111
1111111001100010
1111111000010100
10000111
11000001
1111111001010110
1111111000010101
1111110111000111
1111110100011111
1111111000100000
1010001111
110000110
10110
110010101
111101000
1000010110
1011111100
1100111111
10011100111
10111010101
100001111110
10110111111
11010111100
101010100
1111111110111010
1001111
100101001
11010100
1111111000011110
1111110011010110
1111111000110011
1111111000010110
1111111010001110
1111111000011100
1111110110111000
1111110110000010
1111110001110011
10011111
111101001
1111111011111110
1111111110110010
1111111100011010
100100
1111111111001010
100001
10011111
1110110
1101000011
1001010110
1111110011
10010100100
1011100111
1111111011011011
1111110110101100
1111110001111010
1111111100100111
1111111010010110
1111111000101011
1111111000101100
1111111000001110
1111111001001110
1111111011010100
1111111100000100
1111110110010011
1111110101111100
1111111101000010
10111100
1111111111000000
1111111000110111
1111110111011011
1111111100010110
1111110110110001
1111110110111111
1111111010100110
1111110101010000
1111111000111111
110101000
10100100
101000000
110100111
10000000
10011
1111111111010110
1111110111101100
1111111111100000
110000001
0
1111111101010000
1111111000010110
1111111100101000
1111111100111000
1111110011110110
1111111000110100
1111111110000010
11100001
1111111101011001
1111111001111111
1111111011100110
1111110101001000
1111110101000010
1111110011011010
1111110110001001
1111110111000001
1111110111101010
1111111010111010
1011100
1010100010
10000000001
11110011
1111111010111000
1111111010000101
1111111000100111
1111111110010000
1111111111000110
101001
1111111100110101
1111111101001110
1111111100011001
1111111110100100
1111111110100000
1111111111000101
1111111010000011
100100100
11000101
1111111010110110
1111111011001110
1111110100000111
1111110011010110
1111110100000110
1111110110001001
1111111000111101
1111111100000110
10011
1101100100
10101010011
1110100100
1010011111
1111111110011100
1111111101110010
1111110111100001
1111111100001010
1111111100101010
1111111010101101
1111111011101111
1111110111110001
1110001
1111111110000000
1111111010010001
1111110101111010
1111111011001000
100010100
1111111110100110
1111111010001000
1111110111101101
1111111100000000
1111110011111100
1111110100101001
1111110110010001
1111111100001011
101000100
101011000
1101000100
1100010000
1001100000
10100011
1010010110
1111111001111010
1111110110100010
1111111001101101
1111111010011100
1111111010101110
101110001
100000
110101
1111111101011111
1111111101011000
11010111
110101110
110110010
1111111100010110
1111111010100011
1111110111100000
1111111001000011
1111111111110111
1111111000001100
1111111011110111
1111111101000000
101111010
1000010010
10000000101
1100011001
1000101001
10111
1001011101
1111110111011111
1111110111010000
111100111
10111111
1001001100
1110010101
101111100
11101101
101101
1111111111101100
10110010
1000001010
100111
1110110
1111111001110000
1111111010011000
1111110101100011
1111111011110011
1111111110100011
1111111011010010
1111111010000000
1111111110101011
1000101010
1001110110
1000001101
1110010
101001010
11101011
100001000
1111111110111011
1100010
10011101110
10010101110
10001111000
1000011110
111000100
1000110001
1111111010111100
1111111111111000
1111111111000100
1111111111000010
1111111010110010
1111111101011011
1111110111001100
1111111110010111
1111111101111000
1111111011010111
1111111010101111
1111111100111100
1111111001100101
1111111110101000
1111111110011010
1111111110110010
11010001
1111111100110011
1111111100110100
11001
1111111010111110
1111111110111110
1111011111
10010110000
1110100111
1110100100
1011101001
1100111001
11110010
1111111101011111
1001111
1111111101100100
1001100
1111111101110110
1111110110000111
1111111010001111
1111111000001011
1111111000111000
1111111010010000
1111111011000111
1111111000001000
1111111001100010
1111111000101011
1111110111000001
1111
11011001
1111111110111111
1111110111111000
1111110010111010
1111110101110100
1111111001100011
1111111001111000
1001001
110000001
11100
1111111101011110
10011000
1000000011
110011
10100110
1111111100110000
100111111
1100110
1111111101010111
1111111100011011
1111111010101010
1111111110101000
110100010
1111111110001101
11100100
1111111000111111
1111110011100011
1111111101011010
11100110
10000110
1001100
1111110001000011
1111110011001011
1111111000100111
1111110000101010
1111110000011100
1111110101111110
1111110110000110
1111111011001000
1111111010110011
1111111011000011
1111111011101001
1111111001110011
1111111111110000
1110010
1100010
1111111101100001
1111111011110011
10011111
1100110
1111111011011110
100000110
110100
1001000011
100001111
100011101
1111111110011110
1111111011000001
1111111111101111
1111110110101110
1111111010110001
10110111
1111111001010101
1111111001111010
1111111110110100
11100100
1111111101111000
1111111111010011
10111111
1111110110111100
1111111111011111
1111111110001001
1101000
100101010
110001110
10001011
1101110101
1010101001
1111110110110111
1111110111100000
1111111010000011
11001100
1111111110000101
0
1111111110000110
1111111100000001
100011100
1001010001
1010100101
1100101000
10111101111
11111011100
100010110010
11111000010
10110010101
10010010000
10011001100
10000000001
11010001100
1100100111
1111110110
10101010000
10111111111
1011100110
1000001011
10010010110
1001110101
101110000
1001111100
11111001
1111111111100000
1111111100110001
100010101
100
1111111110101110
100101010
1100100
100000
1011001001
1010100000
1110110010
1111100100
110011111
110100000
1000001100
1000011010
11100111011
10010000000
10010011100
1100011001
10111110001
1101101010
1000101001
1100110100
1110111110
100000011
100100011
11001111
1111111011010010
1111111011110010
