10011010
100111010
1101011
1111111101010011
1111111101100010
1000001
1110
1111111110000011
100110
1111111100010111
10001001
1111111101110000
1111111000011110
1111111100010100
10011
1111111011110101
11000111
1111111100000001
1111111100010100
100000000
1111111011001001
111100
1111111111111101
1111111110111000
10010001
11000
1111111011100001
1111111111110111
1111111101000111
10111111
1111111101001101
1111111110000110
1101010
1111111011000000
1111111000100011
1111110011101100
1111110010111000
1111110011000100
1111110101000100
1111110101101101
1111101101011001
1111101101101011
1111111001110111
1111110101101100
1111110101010111
1111110111001101
1111110100110110
1111110011010100
1111110101100100
1111111010100110
1111110011001111
1111111001011010
1111111011011000
1111111011111100
1111111110011010
1111111100110000
1111111011000001
1111111101101001
1111111100111101
1111110110011011
1111110101100110
1111111010101111
1111110000011110
1111101100110010
1111100110001110
1111100101011110
1111100000101010
1111011011011101
1111011101001000
1111101001100100
1111101000100110
1111101001110000
1111110010011110
1111111101010011
1111111101101010
1111111010000001
1111111001110011
1111110001001010
1111110010101011
1111110011001001
1111111101101000
11101
11010000
11011
100001100
1111111011011110
1111110110000010
1111111011100010
1111111000010010
1111110010100101
1111110100001010
1111111010101001
1111110011000010
1111100010110100
1111100011100011
1111100000111011
1111011001011010
1111011011001001
1111100101001100
1111101101101010
1111101100000010
1111110010111110
1111111011100010
100111000
1111110110100110
11111110
10
1111111000100000
1111110111011110
1111111011110011
1111111101001001
1111111011011101
1111111111111001
1111111101010100
1111111100101000
1111111010110100
1111111011010000
1111111001111100
1111111100011001
1111110100001011
1111110011001011
1111101001111111
1111100100011110
1111100110100000
1111100110101111
1111100111100101
1111101111110100
1111101010100010
1111110011011000
1111111010001100
1111110110000111
1111111010000101
1111111000110001
11011101
1000010
101001111
1101101011
1100001001
11110101
1111111000101010
100111001
1111111111000010
1111111111101011
1111110100010111
1111110011000110
1111111111000011
1111111101100011
10010101
1001111110
10010100
1111110001110100
111010
1111110110101100
1111101101000000
1111110000000000
1111101011011001
1111101110110110
1111110110111101
1111110111100101
1111110101100111
1111111000101010
1111111111011011
100000010
100011001
10101011
110111000
111100001
1111111110010100
1111111101110010
1111111111101101
1100011001
1111111000000010
1111110101101001
100111001
1111111111101011
11101001
10010110111
10010111110
1011000011
10111111
10000111
1111111101110110
101000
11110001
111110
10010110
11110010
1001011
1111111111011000
1111111110010101
1111111011110000
1111111110011100
100001001
1101000101
1011110000
1111111001100111
1111111110111100
1001
1010010110
111110001
1111110101001101
1111111000001001
110010110
1000110110
10001010100
1010001000
1010001111
1101110
1111111110011010
1111111111110001
1111111111101101
1001010101
111111110
11100100
100101111
1000111010
10010010
110111011
10100
100000011
101100010
1101011100
1111100011
110000
1111111101010011
11101001
11000111
1010000111
1111111101001110
11110000
11001101
110100010
10011110010
1010101001
1100010011
110111101
1111111101000111
1111111111010000
1100010
100110101
0
10100101
1001000001
100010100
101100011
101011011
110111110
1010000110
10100000001
11110000011
10011100000
1001010011
100100001
110001101
11100
1111111101000101
1111111111000111
1001101001
100001101
1010000011
1111101110
1010110111
1101100010
1110110010
1011010110
1111111101010000
1111110101110011
1111111111000111
1111111010011110
100100110
1111111111101101
1111111111110111
11101011
1000011001
1000100001
10000001110
1111101101
100000000001
10111100111
1001111100
111111011
1111111101111110
1111111001101001
10010000
10111010
11011100
110110101
1110111010
1010011011
1101011101
1010011000
1101100000
1011110
1111110110101100
1111110110111000
1111111101000111
1111111000110111
1111110101111100
1111111110000010
11111101
101010011
1010011011
1010010000
11000
1001011110
11101110011
10110000111
101110110
1111111111110011
1111110101000111
11110011
1111111111111011
1110101000
1110001101
1010010111
1111000010
10001000000
1111001101
10010010010
1011100110
1001010011
1111110111110010
1111110100001010
1111111001011011
1111111011101000
1111110110111011
1111111010000000
1111111000011111
1011
1111111010010010
100110011
1111111111010110
100001001
1110110101
10100101010
100001110
1111111101011001
1010011101
1100000010
10000001
1101101101
1001100110
101111
1100110110
1011110011
1110111111
1101000111
1111001100
101111000
1111111100010111
1111110100100001
1111111101110110
1111111101100001
1111110110110101
1111110111000111
1111111010000100
1111111010001010
11
1111111010111010
1111110101011001
1111101111111011
101110110
10101111000
10001011
1111111011101100
111101000
1011011111
110000000
1111111111110000
101011101
1111111111000010
1000010001
1010100010
1001001000
1011000010
1011101100
1000001101
11110001
1111111000100100
10101
10011001
110
11001100
1111111100000011
101011100
1111
1111111011100011
1111110011010100
1111110110001011
101100110
10000100100
1111111110111100
10100101
1011110110
11011101
1111111111000011
11001101
1111110011101010
1111111011000010
1111111010001001
1100001
100010100
1111000011
111110101
1101111010
110100011
1001010010
1000001110
11010111
1110001001
101001011
1111111010110111
1111111010100001
1111111100111000
1111111001111110
1111111110100000
1111110100001011
1111111010010100
111001111
1111111001001111
110100011
1111111111001110
1111110110000111
1110100001
1111111001110110
1111110110110010
1111110111111111
1111110101101100
1111111100010100
10110101
1101010100
1011011111
100001101
1011101000
1010110000
1011111001
100000100
1010001111
1111111111100011
1111111000111001
1111110110110101
1111111110111111
10000011
11001010
1111110000100011
1111110010010100
10000000010
10100111
1111111111010000
1111111000011101
1111110110100000
11111
1111101111111010
1111110100010011
1111111001011010
1111111110011011
1111111011001101
11010
1111111101111000
1111111101110100
1111110011
1110010111
1001111
1111101101
111011101
1111011100
101100011
1111111101000000
1111110101010011
1111111100000110
1111111100011000
10110100
1111111000010111
1111111001000010
1000000010
10110101
100100
1111111111011100
1111111001101111
1000011
1111110110000011
1111111001010010
1111111010001010
1011111
1111111011011000
1111111000011110
1111111001010110
1111111010101001
1001001110
1010101011
1111111111111000
1001001000
1000001001
1001111101
100001111
1111111001100011
1111111011110010
1111111100010111
1111111111101000
1111111100011101
1111111110011000
1111110110011000
111101110
1111110101101101
1101110
1111111100101000
10010100
1111111011010111
1111000
1111111110010101
10001110
1111111111101111
1111111001010000
1111101111001011
1111110100001100
1111111000101101
11101
1000011
1111110101101110
110000
101010
1111111011111100
1111111001010001
1111111011000110
10101110
1101110
1111111100000010
1111111001001111
11100010
1111110001010100
111001101
1111111101000111
1111111000001101
111100
1111111110100010
1111111101001011
1111111001000010
100101
1111111100000000
1111110011110110
1111110110001001
1111101001101010
1111101011011000
1111101110010100
1111110101010010
1111110100011000
1111101111100101
1111110110101101
1111111110100110
100011
1111111000101010
1111111010110110
1111111000000100
1111111110111101
1111111100000100
11111111
11010101
1111110101000011
1111111110000101
1110110
1111111111010110
1111110110111011
1111111100111000
1111111010011000
1111110101000100
1111110100100000
1111110101110101
1111101100100010
1111110000101011
1111101101100001
1111110000111111
1111110100000100
1111110000000111
1111110111111111
1111101110100010
1111110010101010
1111111001001001
1111111100011010
1111110110000101
1111111001111101
1111111110000010
1111111100111010
100111
1100111111
11110101
10011011
1111110111001111
1101111
1111111011100010
100100011
1111111101000001
1111111000101011
1111110110001010
1111110101001111
1111101110000010
1111110001010010
1111110100100100
1111110111100010
1111110011100101
1111110100000101
1111110101010010
1111111010011111
1111110101111001
1111110101110111
1111110011010011
1111111100101101
1111110100101100
1111111011101001
1111111000110110
1101010
100001110
110110001
1111111110101001
1111111010001111
1111111001111001
1010
1111111101111011
100010110
1111111011110101
1111110100110000
1111111001011000
1111110001111110
1111101111010010
1111111001001111
1111111010101010
1111110011101001
1111111000111000
1111111101011111
1111111101011110
1111110110100000
1111111100011001
1111101111111011
1111110100111101
1111110011110110
1111111001000110
1111111011101000
1111111110100000
10001101
1010110011
1001111010
1000111111
10101111
1111110111001111
10010011
11110
10111100
1111110111110011
11110111
10100111
1111111010111011
1111111010010101
11
1111111111000101
1111111010101010
1111
1111111111011010
1111111101111101
1111111100111110
1111111010000011
1111111110100110
1111111101110110
1111110100000111
1111111011111011
1000100110
1110000100
10101001101
1100001100
10001000110
1101111110
110110101
1111111000000100
11110110
1000110
11000000
11110101
1110000110
10010111011
110100100
10000010101
1100011000
1110011000
110101111
1000001010
1101111100
100001110
111010101
101111000
1000100111
1010001010
1111111110000000
1000110101
10110110101
100001010100
11100101101
10100011001
1100000010
1111111111110101
1111111000001110
1111110011000101
1111111011000110
10101000
10011
1111110110011010
1001010110
10010001100
11101100101
10111111010
100000111100
10101000010
11001001000
101001000001
11100011101
10110100110
10111100101
11100000011
100010101010
100100001010
11110011001
11000101101
1101111010
10101101111
1101001010
10000100000
1100110011
1001011010
1111111111011000
1111111011011000
11010000
1111111101110010
1111111101111111
10001010
1110101
1111111101110101
10001
1011111111
1101001111
1000001000
10001111010
1111101001
10011111111
10000010000
10111011110
11001000011
1111011100
1011100001
10000101000
1110001100
1000100101
1001010100
10001100000
111110101
1111111111111100
1111111100001010
10111100
1111111010110101
101111
1101101
10010011
101000000
101001011
1111101
1010100001
1000100
1111111001011111
1111111011010000
1111111101100000
1101110
111001000
1111
11101011
100011101
111010011
100101010
100100001
1101001110
100110011
110001011
1000011100
111000011
100010011
1111111101011011
1111111101101111
1111111100110101
1101001
