1111111111011110
10010111
1111111111011011
1111111111000011
1111
1111
11001111
11100101
1111111010111001
1111111111101010
110110
10101110
1111111110100000
1111111100001000
100010
1111111100011110
1111111101100100
1111111101001110
1111111100010000
1111111111000010
1111111110111111
1111111101110000
1111111111010101
10101100
11100111
1111111101011100
10111101
100010101
1111111100001110
1111111011101001
100000010
1111111101011110
11101101
1111111100111000
1111111001110001
1111111001011101
1111111111100110
1111111111010010
1110001
10100110
1111111110100101
1111111001000000
11000011
1000101011
1111111101100100
1111111110100101
1111111100011110
1111111111110010
1111111101110111
1111111101101000
100110
1111111010111111
1111111111000111
11110010
1111111100010010
1111111100101111
100110000
1111111100110111
1110011
1111111101001011
1111111101010011
1111111001101010
1100111
11011001
1111111010101010
1111110100111111
1111110010111011
1111110011010100
1111111000111110
1111111010011111
1111111110000010
1111111111010010
1111111000011110
1111110001111000
1111110011001100
1111111000111110
1111111011101000
1111101111011000
1111110011100000
1111111000000011
1111111000111110
1111111011010001
1111111110110101
100001000
100000010
1010011
10000110
1111111110111101
1100100
10000011
10001001
1111111101110011
1111111001100001
1111110011101001
1111110111100100
1111111010111010
1111111111110001
1111110100000010
1111111010111100
1111111111101010
1111111001111011
1111110100100110
1111111001010011
1111110110010011
1111110100011000
1111111010100101
1111110011100111
1111110111110010
1111110111110011
1111111100111101
1111110101111011
111000
1111111101100001
100111000
101110101
1010100010
111000000
101001000
101
110011
1111110110011011
1111110000100000
1111110011110011
1111111001111100
1111111010011000
10010
1011000
111100101
1111111000011100
1111110101000001
1111111010111011
1111111010110110
1111110110100100
1111111001000111
1111111101010111
1111110111101101
1111111000101111
1111111001101111
1111111100111011
1111110100100101
1111111111001110
1111111011011011
111101011
100010
1111111111110110
110011100
0
1111110111010011
1111101100010110
1111110011101111
1111110001000101
1111110101110011
1111111101000011
1000110
11011011
100011010
1111111011001110
1111111110100111
11100110
110001
110100
1111111010000101
1111111110010001
1111110101010010
1111110101100110
1111101110000000
1111110110111101
1111110110110100
10100010
11111001
11000000
1111111110010110
1111111011011011
1111110111000101
1111110010001010
1111110010010110
1111110110001000
1111101111010100
1111110101111111
1111111000100100
1111111000101001
10110011
110011100
11000101
100011001
111011011
101100111
100001111
100000101
1110100
1111111111111101
1111111101110011
1111111000100010
1111110001000001
1111111000101010
1111111010001101
10001
1111111101110101
1111111011010010
1111111101001111
1111111010010010
1111110010101000
1111101011100011
1111101101010111
1111101010110101
1111110010111011
1111110111010001
1111111001010000
11101000
1111111110110100
1101010010
101101110
101011110
110011010
10100101
1000000000
101111001
100001000
110001000
1110010
1111110011011000
1111101010100001
1111110101100010
1111111110001111
111011000
1111111010000000
1111110110000000
1111111000101100
1111111100100110
1111111001010101
1111110000000011
1111110100101100
1111110110011111
1111111001011110
1111110100011110
1111110011101100
1111111100001111
10100101
1100000
1000010101
1001101111
10101100
1111111110011010
1100001
1100001
1111111101110011
1111111111000000
1111111000011110
1111111001011011
1111111010000000
1111111110111111
1000001000
1111111011001000
1111110111100111
1111111101100101
11010000
1111111001011001
1111110001001110
1111110011000100
1111110110000101
1111111100101110
1111111101001000
101100
1111101111100110
1111110101111010
1111111111000000
1000100010
11110100
1001
1111111100100000
1111111100110011
1111111100101000
1111111111000000
10011
111011011
11000111
1100001100
10001011
1111110111100011
1111110110000110
1111110110001000
1111111011011110
1111111010111100
1111111100010110
1111110110001110
1111101011010110
1111110010101011
1111110110100111
1111111010101001
1111111101111010
1111111110100111
1111110010111001
1111110101011110
10011111
1011010000
1001001010
100101001
1111111111111010
1111111100111000
1111111011000010
1110110
1111111110000001
101010001
1001111101
10000010100
110010100
1111111100000010
1111111100111011
1111110101110110
1111110111001110
1111110000111111
1111110100101100
1111101101001100
1111110000110101
1111110010000111
1111110101010011
100111
1111111010101101
1111111110010001
1111111000010110
1111111001100111
10100100110
10010001000
1110010100
10010001
101001111
1001111010
11011101
1001100
11101101
1111111111001000
1000110100
1011010010
101101110
1010111011
101100001
1111111101011010
1111111100000110
1111110001011000
1111101010100001
1111110111101000
1111101101110101
1111110100111010
1111110110000010
1111111111111000
10010100
1111111100010100
1111111010000001
10011100
10100100001
10010111111
1110101000
101000111
111011001
101000101
1111111001100000
1111111100010000
1111111101111001
1111111101110100
111101
1111110111010101
1111110100000001
1111110011000111
1111111100011000
1111111110010010
1111110011101001
1111111000000000
1111110100011101
1111111010000100
1111101001000101
1111101101100111
1111110100110111
11001111
11001011
1111111010100000
1111111110101101
111001100
10001011010
10010001001
1100100011
100100111
111110010
1111111110011000
1111111001110001
1111111100010001
1111101111100111
1111110101000001
1111101110000101
1111101000000100
1111101101011101
1111101111010001
1111111100110110
1111110111111101
11101001
1111111001000000
1111110110100110
1111110011110001
1111101010100101
1111101101101111
1111110100010111
1111111010111010
1111111110001101
1111111111011000
1111111111000001
110011001
1101101011
1100011101
1000000001
110001011
1111111010101100
1111111001100010
1111110011001000
1111110011001101
1111111000000011
1111101100000001
1111101010010111
1111101000111101
1111101111000000
1111110011000000
1111111010010011
1111110101111100
111000
100101110
1111110110111001
1111111011100101
1111101011110101
1111101011100001
1111101001001011
1111101101000101
1111111001000010
1111111100001000
101011
111101010
1100010101
1000110000
1111111101111101
10
1111111100111110
1111110011010101
1111110100111100
1111101111100001
1111101100110010
1111110100110100
1111110101111100
1111101111110001
1111101111000000
1111110111010110
1111111101100011
1111111000110110
1000100001
1000110011
1111111000100000
110101011
1111111100110001
1111101111010111
1111100101010000
1111100110110011
1111101111111011
1111110011100101
1111111101111110
100101001
10110
1111111100011011
1111111010111010
1111111111011010
1111111000100101
1111111111001000
1111110101101100
1111110111010000
1111101110110111
1111110001111010
1111101111001110
1111110101011001
1111101101010111
1111110010100111
1111110111100000
1101110
1011111110
1101101
1111111111011111
110001011
1111111001101011
1111111000010001
1111101111001001
1111101011001101
1111100100111110
1111101000000001
1111110000110001
1111110011110011
1111110101000111
1111110101000000
1111111100100010
110001001
1011001000
1111111111111101
1111110110101000
1111110100010101
1111101010001100
1111101010100110
1111110010001100
1111101110001101
1111101111100110
1111111000101100
110111111
1111111010101010
110101010
100000011
1000001
1111111101011000
1001011110
10101001
1111111011000010
1111110110000010
1111101001001110
1111101101011110
1111101001010111
1111101010011001
1111110100000110
10100110
1001001011
111111010
1011010101
11000001
1111111001111001
1111101011001010
1111101111000110
1111100111000011
1111100100111011
1111101011000111
1111111100111010
1111111111110011
1111111110101001
111111000
1111111111010011
1111111001110001
1111111101110100
1111111100100011
1101100110
110000100
11111010
1111111101001101
1111111000110110
1111101110101100
1111101010011000
1111101000011011
1111110010101001
1111111111001000
1101010
1000010011
1110100110
111001011
1111111001110111
1111101101001110
1111100110001111
1111101011100110
1111101101110000
1111111000001000
1010010
1111111111111100
11101101
1111111110011011
1010101100
1111111000010100
1111111111100001
1111111100000001
10000011110
1101101110
110000000
1010111010
1111111101100011
1111111010111000
1111110111000101
1111110000110110
1111111101011010
1111111100010110
10100000
101100011
11011110
10101010
1111110000000101
1111100111011001
1111100011010011
1111101000011100
1111101100100111
1111110111101010
111101
100000110
100111000
1111111111011110
1111111110100000
1111111100001100
1111111101000011
11101001
1000101100
1101111111
10001001100
1000000011
1000010110
100101000
1111110111110011
1111110111111011
1111111000011010
1111111011101111
1111111011101101
1101101
1111111001101110
1111110101010101
1111100100001001
1111101101011000
1111100111110001
1111101001100101
1111110100110000
1111111010100000
11001100
1111111110011100
101010100
1111111101111110
10001111
10110000
101000
110001
101111101
1001000111
1010100011
110101110
10100010
1101011
10000001
10101
1111111011101111
1111111000101100
1111111010010110
1111111001011101
1111111000100100
1111110001111101
1111100101110100
1111100110100011
1111101101010110
1111101001011101
1111110101000110
1111110101111011
1111111010010111
1010111
1111111111001000
1111111010111001
1111111110000001
11010001
111111
1111111010000100
11011100
1111111111011011
101000001
111001111
111001010
1000010000
110110100
110100110
10110101
11111000
1111110111011100
1111111100001100
1111111010110001
1111101101001001
1111100010011100
1111100101001011
1111101001110110
1111101010010101
1111110101100010
111010100
1111111101011011
1100000000
100010101
10010111
1111111101110011
1011110
1100110110
1001011100
1010100000
101011011
1011001001
110100101
101010100
110110110
110010000
1001010
1000010
1111111100001000
1111111110010110
1111111011110010
1111110110000101
1111111001111100
1111110011011001
1111101100101010
1111101111000110
1111110100101100
101000100
1111111011101010
1111111100111001
1111001
1111111101100110
100110001
100000110
11001111
1111111011000101
1111111111101000
1010100010
100000111
1111111100110111
100101101
1000011111
11111111
1111111010110010
11100111
1001101
1111111100110010
1111110110011001
1110101
100100011
10000100
1111111100100010
1111111000000010
1111111100010101
1111111011110010
1000101
1111111101100000
10011001
1111111011101110
10100111
1000100
1111111011011000
100100101
11101110
1111100100
1000001100
101111100
101111001
10111000
101000100
100111011
1111111101110001
11110100
1111111101111110
110110001
1111010
101111000
110111011
110101001
100010101
111010101
1111111110101110
1111111100010000
1111111110000111
11001000
1111111100011011
101110
1111111100110011
11000110
11110110
10011
10010000
1111111101101000
1111111000010001
1111111001001110
1101010
11110
1111111001110101
1111111011100010
1111111100110101
11011110
1111110011011100
10100
100101100
1111110110000111
1111110111001000
1000101
1000010
1111111110110001
1111111100101100
1111111101001110
10010001
1111111111101001
1111111111111011
100001001
100011011
