1111111110100000
10001010
0
10110110
100101101
101101
11011010
11111111
10011100
1111111101010000
1000
1111111100001001
110000110
1000110001
1111111101011001
1000010
1101
1111111100010100
10111010
1111111101010010
1010001
1111111011100001
1011010
1111111011010001
1111111110010110
11110111
10100001
10010000
1111111100000000
1111111101100100
100100000
10110001
11011100
11000111
1101111001
1011010000
1001001111
1001001011
1001111100
110111111
10001010111
10011111111
110110110
110111011
1011001010
1101001101
1011110111
111011101
110001000
1001010110
100000100
111010001
1111111011101111
10101000
1111111110110010
11100011
1111111111100000
1111100
100001111
111
101011001
101111100
110110111
1001101101
10010100010
10110100100
10111000000
10110110011
10001111001
1001011001
1001000101
1001110000
1100011010
1001100111
1011001000
10110011010
1011001000
10010100010
1011101011
10010101010
101011000
1101111
1111111011000011
100111111
111001
1111111111000001
1111111100000111
1001011110
1011111011
10010101101
10101001000
10100100100
11101010010
11101001001
10111010100
11101100011
100000011011
10010110111
1000101111
1001100
1010100
10110001
11000100
1001000000
1011101110
1001000100
1000001001
101111011
111000000
1100101
1011101011
10100000
1111111110101100
101010101
1111111011010000
1010000
101101000
1111111101111100
1100100110
1101100010
1010000110
1010111011
1100101111
111001010
1111111111111100
1111111011111001
1111110010101011
1111111000100010
1111110101101101
1111111011010001
11101
1111111011010111
1111111011101010
1111111110001000
1101011
111011
11100111
101010110
10011010
1011101001
1111111100010111
1100101
1101110110
1111111101110010
1000001010
1111111110111000
1010111001
111001001
1110000
101011000
111110011
1111111010010011
1111110010111001
1111110000000110
1111110110111001
1111110111011000
1111111001110111
11001101
1111111110111101
1111111100000011
11000111
1111111101000101
110110111
100010011
111101111
101010101
10000001110
1011100100
1111111110011101
1011100010
110001
1110100
111011101
111011000
100111001
1001101110
1011000010
101101011
1111111101111010
1111111100101001
1111111110011100
1111111110001010
1110
1111111110100110
1001111
1111111100010111
100011010
11011110
101000000
1111111100100001
1000101100
110011101
1111101101
1111001001
1000101101
111111
1111111110001111
1111100000
11011
1111111110100111
111000110
100100000
10001001
1001000100
1001011111
11101110
1000010110
1110011100
1110001110
101011011
1010011110
1000000110
1111111110010111
111001100
11100010
100110010
11101000
101011101
111
1111111011101110
1000111110
1000000111
1111111111011110
100111100
11101
10001100
110010010
10111100
101001100
100001011
100000011
111110000
1001101010
111101100
10100100101
1101101110
1101110110
111110101
110010101
1000011101
11010011
110000101
1111111110011000
100111011
1111111111110111
1111111001111110
11111100
1111111100110110
1010
100001100
1111111111101000
1111111111111111
10111001
101111110
111010000
101
1000100001
1111111110011100
1111111010100010
100100011
11110000
1111100110
1000001001
111001001
1010100000
110011111
1001100010
1111111101110010
1111111111010001
1111111111011011
1111111101100101
1111110110010000
1111110111001111
1111111011111001
1111111100101010
1000101000
1101010010
10100100000
101100110
111101011
1010010010
1001101011
111001101
101100110
10011101
1111111111010111
10111010
100100101
100100011
1111111111010100
11011
1111111110010000
1111110101101010
1110100
1111110111111011
1111111010101101
1111110011010111
1111110011100110
1111111001010000
1111110101101001
1111110011101010
1111111011010001
1111111101110011
11011100
10110010100
10000001111
10010001010
10
111000110
110101001
1101110110
11000010
101111101
1111111101000101
1111111101100001
1111110100101010
1111110000011001
1111110110110111
1111110000111000
1111110010111011
1111101110111110
1111110110100101
1111110100001111
1111101111011100
1111101010010100
1111110011100000
1111110101011110
1111110110101111
1111110010101001
1111101100000100
1111101111110010
1100111
10010000010
1101101010
1000110001
11000000
1111111110100101
1001100101
110111011
1111111100011100
1111111001111111
1111110100001110
1111110101011100
1111110010110001
1111101101110001
1111101111001010
1111110100001001
1111110000010001
1111101100011111
1111110001100101
1111111010111011
1111110000010000
1111101010001010
1111101100110011
1111110100111110
1111110000011010
1111100111001110
1111100100010111
1111100111011000
1111111010101000
110001101
10000100100
10001100110
1001011111
1100110
1111111101110000
1000010001
1111111010011000
1111101111101010
1111110011010110
1111110111001110
1111110101001100
1111110100100110
1111110011000111
1111110010011001
1111110101111100
1111111101011000
11100
1111110110001100
1111110010100011
1111101101000000
1111110010000101
1111111010110001
1111110010111100
1111101100011100
1111100111100001
1111101010110111
111111101
10101110101
10110010011
10011110100
111010111
111011100
101011
111010011
1111110110010110
1111101000000111
1111101110010100
1111111000100111
1111110111100101
1111111110101001
1111111111011001
1111111110000010
10100000
110001
100100101
100111
1111111001001110
1111110100010001
1111110011101011
1111111000010111
1111110010001111
1111111001010001
1111111011101110
110010111
10001101111
11110110011
10011011111
1101010101
1001011011
111011111
101000001
11101110
101100
1111101101010011
1111110000011101
1111111110101100
11111
1111111110010100
110110010
111001111
100100000
1011000100
100001011
101100011
1111111101011010
1111111010010110
1111110010011101
1111111010111011
1111110100111101
1111111110001101
110001001
110101010
10010000100
11101010001
1101010001
1111011
11011010
111100
111001001
101101100
10100101
1111110100011000
1111111111000011
1111111001011010
1111111010011111
1111111111010101
100001101
1110011000
1110100110
11001101
1011101010
11000000
1111111001110000
1111110011100111
1111110001001110
1111111000101101
10000
1111111011110000
10101001
1000000110
10111101100
11010001111
10000101001
1010101010
1111111010011010
1111111111000011
1011010111
100001110
1010010110
1111111010101111
1111111100111101
1111110011101011
1111110110000110
1111111000110001
1111111101111101
100111010
110111111
1111111011110011
1111111101011100
1111111001101111
1111110101101010
1111110011010000
1111110111000010
1111111011111010
10000110
11000
1101110111
1101010100
1111100001
1101111111
10010100110
1110111
11111101
110000011
10111
111000100
1001001101
1111111011101001
1111111000001010
1111111100000111
1111110110110100
1111111001111001
1111110011110001
1111110111011000
1111110110001110
1111111011100011
1111111101100111
1111110010110101
1111110111100001
1111111100000011
111110010
1011111
1110011
1000011111
1111010001
1110110001
1011000001
10000101100
10011110010
1111111101011011
1111111000100110
1111111101101111
1001101
1000111100
1000011000
10000111
1
1111111101100000
1111111000001010
1111110110001110
1111110101010100
1111111000111110
10111011
111010111
1111111101101111
1111110111100111
110001111
110101101
1001001010
111100100
100000010
101101000
1010011111
1001100001
1101000110
1011101010
1101010111
1111111110111010
1111111111111101
1111111110111110
101100
101001010
1001000000
110100000
1010100
1111111000100001
1111111100011000
1010101
101001001
1111101
1100110100
1011100101
1011010111
1000111001
11110010
110111
11011100
1111101110
1000110000
1000100100
1100111011
111011100
101110101
1110000
101011011
101010001
1111111100111011
1111111100000111
1111111111001110
110110011
1101011000
1000100011
11000101
1111111100100100
1111111100010100
100010
1111111111010110
1111111111011000
1010100001
1000110001
10000001000
1101100000
1010000011
101101000
100111111
1010101110
111011000
11010100
1000100
101111100
101000100
101011011
101110010
1111101001
11100101
1111111111000001
1111111110011000
1001111100
1100011100
1001010110
101001110
11001
1111111001010000
1110010
1110
11011
101011000
1111001
10001100
1000000111
110101100
1010010110
101110111
101111011
110111000
1010101
1111111100100101
101101110
1111111110100110
1111100
1001010000
101010001
1111111110100011
1111111110011100
1111111011101000
1111000011
10010000000
11011111110
1111000111
1101010010
11100101
1111010
11101100
101000100
110010010
1100111
11110110
101011111
1001111001
1010100100
11011001
100000001
101110010
10101111
1111111100101100
1111111001001101
10000110
1000010000
10000011
1001000110
11110001
1111111
111111
110100000
10001011101
10110110010
1111100011
10000001010
1001010011
1000101111
1010100100
101010011
101101101
1100100110
1100101101
1000100111
1000110111
1001100
1001000101
10001110
1111111101101001
1111111011011100
1111110101111011
1111111101110001
1111111101000110
1011100100
111010110
110101110
10010
11111100
1111111011110000
1111111100111011
1001101100
10001001
110110110
111000111
1100110001
10101000011
10100000100
1010101011
1110011111
10010000101
1001100000
111111
111000111
10000111001
1101000101
1111110
111100000
1111111000101011
1111111111001111
11010000
1110100
1000011100
10010111
1000100110
100001000
1111111100000110
1111111100101010
1111111110100111
1010100
1111110111000001
1111110100111110
1111110100011111
1111111011111010
1111111011111011
1101110
1010100
1010101001
110001110
1001011011
1111111110000100
1011110110
111110001
110101
1111111100111001
11101111
111
1111111110111110
100011100
1111111010110111
1111111110100110
110100011
1111111110010110
11110010
100010011
11101111
11001000
100101011
11111111
1001101
1010110
100
1111111111101010
1111111111011101
1011101011
100110000
1101011101
10001101111
101001011
10101000
1000101101
1101100110
10111011
1111111101110011
1111111010101001
1
100100110
111010101
1001111
1100100
1010110
100101101
