1111111110101001
1111111100000010
101011
1111111100011100
1111111101101011
11010101
1111111011111110
101001011
1111111100000000
1111111111011110
100111010
1111111100001000
1111111001000110
1111111010010111
10110100
1111111100111110
1111111110000100
1111111110000000
1000001
11011100
100001011
1111111110001000
100111001
1111111101111110
100110
1111111100000000
1111111100110010
10011101
1111111100000111
1111111011101100
100010100
1111111111011111
11010110
1111111011111001
1111111110110000
1111111011001111
1111111100100010
1111111111110001
1111110111101001
1111111100110011
1111111001100000
1111110110100101
1111111001101101
1111111101010101
1000001110
1000100110
1111111101000010
1111110110110000
1111111010000111
1111111001111111
1111111010101010
1111111010001000
1111111101010001
1111111111001100
1011111
1111111100010001
101001000
1111111100010000
1111111110101111
1111110100100000
1111111000001010
10011111
1111111001000100
1111110101000100
1111110111011101
111101010
110000100
1010111
1100011
1111111001010110
100111
1111111101000111
1010100001
1000000110
10011101
1111111110100001
1111110110101101
1111110111011101
1111110000111111
1111111001000100
1111111101011010
1111111111101000
1111111100011011
11100110
1000110
1111111111001111
1110100
1111011
110001010
111101111
111101000
10010101111
10001100110
10010100111
10010110000
10101100100
10111100010
10010110100
1010011110
1001011001
1010011100
101000101
1111111100110011
1111111100100100
1001000111
100111011
1111111011010110
1111110110010111
1111111111110110
111001010
1111111100011100
110001
10000111
1111111101110111
10100010
0
1111101111010011
110000111
1100010000
10000010000
1001110101
1100001100
1111111110
11000011001
10000101100
1100001001
101111100
1011010000
101011001
111111010
1100101011
1101
11000010
1111111100110000
1111110111110100
1111110111111010
10111110
1001100111
1111111100101000
1111111011000101
10110010
1111111101110101
10011
1111000100
1111001
1010100101
110000001
10111101
100111010
10010111
1101101011
1100100011
1011011011
110000111
101100010
10010000
1100101100
1010100011
110101010
10100100
1100010
1111111110110010
1111111101011011
1111111110110000
10111000
10001110
1111111010100001
1111110110011010
100011010
1100
1111111011010100
1111111100111011
1001110
111010
100111101
1011
101101110
111100101
1001110000
10001110
110011010
1001001001
101101011
110001001
1101001100
1100000111
1100101111
101110001
1001100
101
1111111011100100
1111111011011000
1001110
1010111110
11110000
10011
1111111100011100
111000001
1111111100000111
1111111001001101
1111111100001100
110000
1111111111100000
1111111101100101
101101001
100101110
1111111100111101
11000110
101000
1010101
110000000
1111111111011001
101001110
1111111110111100
1111111101011011
11010000
1111111110011100
100000100
10101011
1111111000001110
1111111011101000
1010110000
1001001111
110001
1111111111010111
1111111011101000
1111111010111011
1111110100011100
1111111111010001
1000010
110110000
1111111110101111
1000100010
1011110
101101101
1111111010101100
1111111001000111
1111111110011001
1111111100110000
1101111
1111111011110000
1100110
1111110110111011
1111111111010111
1111111110001101
1101001
11111001
110101001
1001011000
1001010001
111110001
111010
1111111001110111
1111111101110110
100111010
1111111000011000
111100110
1000100010
101011110
110011000
1111111111111001
1111111110001100
1111110101111100
1111110110011111
1111111000001110
1111101111011001
1111110001010010
1111111010111011
1111111101101110
1111111110100101
1111111000111011
1111110110000101
1111111001101010
1111111011001100
1111011
111011000
1101101010
1010100010
1010110001
10011000
1111111010010101
1111110100110100
1111111010001100
101001110
11010001
111111001
11010010
1111111010110111
1111111011111100
1111110001101100
1111110000111111
1111110110110111
1111111001010111
1111110011000001
1111110100000111
1111110100111000
1111111100011100
101001111
111111
1111111011111010
1111111010100101
1111111000101111
1111111001101100
1111111100000100
111110110
10000011000
1111100011
100110111
1111111110110000
1111110011101001
1111110000010011
1111111101100100
1111111111111101
101000110
1111111001010001
1111110101000011
1111110001001110
1111101111110101
1111110000011101
1111111010000100
1111110111011111
1111110000110011
1111111011011011
100001
100111001
1000111
1000000000
11100100
1111111000010100
1111101110010100
1111101101011001
1111100100010101
1111110011100101
1111111110001000
111100110
1111111010000110
1111111110100100
1111110100110000
1111110111000000
1111111110111110
101000001
1111111100011000
1111110011010011
1111101011010000
1111110101011001
1111101101101011
1111111011110011
0
1111111111110101
10110100
1111111011010011
1000000
10000101
10011111
1101100111
1001000001
100001010
1111110011010011
1111101100100110
1111011010111110
1111010100110011
1111101011010010
100001000
1111111000011000
1111111000100110
1111111010011100
1111110010000101
1110101
1111111101010010
1111110101010100
1111101000000000
1111101110110100
1111110011101101
1111110010000111
110001
100011101
10101011
1100100110
100110110
1111111101000101
1111111001011000
1011110
101000101
1000000110
110110001
10001100
1111110001001011
1111011111010111
1111011111010111
1111101100100101
1100001101
1000011101
1000000111
1111110110011101
1111110010010110
1000011001
1000000
1111110010100000
1111110000000000
1111110001101110
1111110010001111
1111110100110011
1111110101010110
1111110101010100
1000
1111110111111010
1111111110100010
1111111010110101
1111111100010111
1111111101010000
1111111101100001
1111111011101101
11000001
1111111110101011
1111110100011110
1111110011010001
1111101110010100
1111110101010110
1001000011
10111110
10001001
1111111000010101
1111110101000001
111001000
110110110
1111110101100010
1111110111010010
1111100110101001
1111101010100110
1111101110111011
1111101011010110
1111110011001010
1111110101010000
1111110011111000
1111110010001101
1111111011010110
1111001
1111110110010001
1111111000010101
1111111101100001
1111110101011111
1111110100001111
1111101111011111
1111111001001001
111010100
100011100
1010110101
1001101000
1111111011011010
1111111010100000
1000000000
11000011001
10010100001
110111110
1111111011100101
1111011110110111
1111011101011011
1111011010110000
1111100011010001
1111011111000100
1111101011001010
1111111000000010
1111110001011111
1111111110000110
11010
1111111010101001
1111111101100100
1111111100111001
1111111010101010
1111111011101100
11001000
110100101
101101110
1100011000
1101101101
1011101100
100100010
1100
100100010
11011010001
10110110111
1111000001
101011111
1111110100111010
1111100101011011
1111100010011000
1111011100001001
1111011100101000
1111100010101011
1111110001111010
1111110010011010
1111111010111100
1111111101100110
100000000
11000010
100110111
1111111000101010
1011010
10110001
100010010
101001110
1000111100
10100
1001110100
1111111101000010
1111111111110000
100001011
11101010010
10110110110
10010101110
1101001111
10100111
1111111001010010
1111110101111001
1111111000011011
1111110101001111
1111110101001110
1111111011111011
10101011
110000110
100110101
10101011
1111111111100010
110110100
111011101
1111000
10001110
1001000101
10000111110
1000000101
10101000
100111001
1111111110001110
1111110100111000
10000100
10101001111
10000011001
10010011100
1001111001
1101110100
1001110111
1100111101
100000101
110100111
100110000
110100100
11011110
101110101
100110011
100001011
111111010
1011000100
100101101
111011100
1011001110
11101010
1111111
1011011011
1100100101
11110111
1111111110010101
1111111000011000
1000011110
11000010011
1111100010
10011110011
10001100111
1011100100
1011110001
10101111010
10100110101
10110101000
1000110010
1010001011
1010101011
1000010101
111111000
1110100100
1011001111
1101000000
1000010100
100011110
1000101100
100110010
1111111111100111
110100011
100000110
1111111101010111
110
1010
1110001010
1101100000
11010110011
10000111110
1101111111
1100011011
1101100011
1101111100
1001010100
1010110011
1001101110
100011011
111011110
1111111111000001
1110101
10011000
111001010
1111000101
1011101110
1100111111
1011010001
1011101011
111101111
101111
110100010
11001110
10001
1111111101110001
1010010011
10100011110
10010011101
1001100010
1000111010
11010111
100010010
101110100
100010010
10110000
110100010
1111111010111101
1111111001100101
1111111111011001
1111111101110111
1101000
101011101
1100001111
1101011110
1101100011
1011000101
10010110010
1110100100
1111111110100010
110010001
1111111101001011
1011001
1111111101000100
101010101
10111000011
1100011110
1010001010
10000111
11000110
1001011011
11111000
110001101
10011110
100110
1111111010011000
1111111101100010
1111110111111001
1111111011010010
1111111111010000
1111111111000100
1001011100
1111110100
10000111010
1101010101
1100111010
10111100010
1000010101
1100001
1110010
1100011
1111111011010110
1111111011110000
11110011
100010101
1111111011100101
1111111010101110
1111111101100001
1011100
1111111111110101
1000001
1111111011001010
1000111
1111111101001000
101000100
1111111111110010
1111111101101100
110111011
1011000
101010111
1110110110
10000100010
1111000100
1011011110
10011001010
1010011110
101101110
1111111100011001
1111111100101010
11010011
111000100
110101
1111111111001101
1111111101100001
1000101
1110111
1001
100001000
1010111111
1111111111110000
1111111111010010
110111111
1001100011
1001011010
1010100100
10001111
1000
110111000
1010011101
10000011101
1010011011
110001100
111011110
101100
11111000
1111111100001111
1111111010111100
1111111011001010
1111111100001000
10010100
1011011010
110010011
100100
1111111001100100
1111111010101000
1111111010001100
1111111111011111
1111110111010101
1111111101000101
1111111000111010
1111111110101011
1111111011011101
1111111010101011
1111110111011001
1111110010101010
1111110000101101
1111111111101110
1100011111
1000000011
1001101001
1101110
100000
1111111101010011
1111111101100011
1111111011100110
1111111011110100
111001
100010110
1111111110000110
1111111000111100
111101
1111111100000101
1111111110101010
1111111000010100
1111111001010111
11000
1111110111111101
1111110100010110
1111111101000101
1111111011101000
1111110110110001
1111110100010111
1111111000111110
1111111000001001
1111110111001001
1111111001100010
111001
1111111011001001
11000011
1001011
100010110
1111111110011001
