100111000
1111111111000010
1111111100011000
11001110
1111111011101101
1111111011010111
10010111
1100011
1111111100000000
1101001
100111111
1111111010111011
11011110
1111111110101010
1111111110000010
1111111010100100
1111111101110110
1110000
1111010
1111111010110110
10010011
1111111111111110
11000101
10100101
1111111111011100
1000111
1101
1111111110110001
1111111101001010
1111111111010001
1111111101011011
100110
10010
1101011
11001011
10000001
11011
1010010111
1001111100
10100000
110001001
100011110
10101111
1111111110110011
1111110101111001
101010000
110001011
10110110
1100
10101100
1111110100110000
1111111001101011
1001111
1111111110110000
1111111110000111
11
1111000
100011100
1111111101110001
100110
1101000
10101100
1101101
111110100
101100
1101011
10110001
1111111111100101
110000101
1001010110
1000111001
1111111011110001
1111110111101000
1111111011000000
1100
10111
111111100
10000000111
110111110
1101001
1111111110010111
1111111101100110
11010101
11110101
1001100
1111111110111100
100100100
10100
1111111101001000
111111000
1001001101
100100110
100001000
1111111110110101
111001
1111111110111110
10111111
1111111101000001
111101010
1110011
11000110
1111111101111000
1111111100001111
100
111011110
1110110
11011110
110011000
10111001
1111111010001111
11011111
1111111101011011
1111111101100010
101110000
1111111011111010
1111111111101110
1110101011
1111110001
100101110
1111111111011101
11010
1111111011000000
1111111001011111
1111111100111101
11100100
1100000
10111011
110
1111111000111001
1111111101100101
1111111101101011
1010001010
1001011011
100010001
1011110001
1100110001
1111111110110100
1111110001111110
1111110100100000
1111111001100000
11100000
1111111110101011
10111110
110101100
10010001101
1001100110
1100110101
11011110
100100011
11111001
1111111111111110
1111110111110011
1111111101110011
1111111101011001
1111111111111110
1111111000001001
1111111010101111
1111110011100011
1111111001010000
1111111100101101
1111111111010110
1101111
1000110011
10001110101
10010010
1111111001111000
1111110111000111
1111111111011111
111101
1000110000
1100000101
10010111101
10110101010
1110101101
111101010
101011110
10001000
100100111
1111110010110010
1111111000110111
1111110110011010
1111110100010111
1111110111000101
1111110011110011
1111101001011111
1111100111001101
1111100011000111
1111101100111100
1111101011001101
1111110010011100
110000010
101010101
11100
1111111100011100
1111111110101000
1111111111110100
110011001
1011010111
100000111
10101000010
10101110010
1110100011
1001000110
11000010
1111111100000110
1000000
1111111011101010
1111111001100000
1111110010111000
1111110011000000
1111101001110010
1111100101011010
1111100001100011
1111100101010101
1111100111100111
1111101011110111
1111110010111001
1111110110010100
1111111011101001
101000011
1010000
1111111101000001
1011010
1111111100001110
100110011
101111110
1010000111
10010100111
1101110011
1100000100
100111111
1111111100100111
1111110101111111
1111111010111101
1111110011110001
1111111000010111
1111111010111000
1111111010110000
1111110101001101
1111101100101110
1111101011011000
1111101100010011
1111110001100111
1111110111000010
1111111001011111
1111111110101111
1111111110010100
10010011
1111111101110000
10001001
1111111000000101
1111111101000110
1000001010
1010110110
1111010010
1010010000
1011010010
1111111011001110
1111111000011010
1111110101010110
1111111001101101
1111111010000001
1111110011110010
1111111100000000
101001000
1111111111100010
100011
1111111001110111
1111110111101101
1111111011110011
1111111111101101
100101001
10011010
11001101
1111111011101110
1111111101111001
1111111110110110
1111110100010101
1111110000100100
1010
110110110
1110001111
10000011100
111000011
1111111101100000
1111111111010000
1111101111001001
1111110111010010
1111111011011110
1111111101110010
11000010
110001010
1001110011
10001011100
101111
1111111110010110
100011001
1111111111111100
111000111
1000111000
111110111
1100110100
110011001
1111111000101010
1111110110110101
1111111101001010
1111111001110000
1111111100111010
1110010
1111001100
10101000111
1000010011
1111110111010010
1111110110111101
1111110011111111
1111111101001010
1111111010000110
101000111
1010000011
10101101101
10110000011
1110110011
1111111001001110
1111111110000010
1111111110011001
100011100
1111111111110011
110110101
10010110
1111111111100000
110101101
110111
1111110010001100
1111101101011101
1111110010010111
1111111101011011
1111111111101010
1001010101
1001001101
1111111110011100
1111101100101110
1111110001011001
1111111001001011
11111111
1100110001
1100011010
11001001100
11001011110
10111111100
1111111110011101
1111101111101000
1111110100011010
10001011
110000001
10010100
1111111011001110
1101
1111111111000101
1000001100
11010100
1111111111111000
1111110101101111
1111110010010111
10010111
10010111
1110010110
1010100011
1111111111110111
1111110101111111
1111111011111110
1011100101
1100111110
1011011001
1111100110
10101111001
10000011001
1010001001
1111101100100100
1111110001110101
1111111101101101
1111111100110110
100011100
110111
1111111110101110
1111111011110101
1000101100
101000001
10000010110
110100101
1111111000010111
1111101001010010
1111110101101101
100100010
1000111001
1100110111
110101110
1111111111010101
10000000000
111100111
1010111110
1010000101
10001010101
1110011101
100110
1111110111010101
1111110011011011
1111110101001010
10101001
1111111101101111
111010110
10110101
10011001
101011100
101100110
1011000001
1101001001
1001100011
1111110110111111
1111101100010100
1111111010010001
11110000
111100011
1010110101
1000011110
1111111111010001
101001001
111111000
1001011001
100100101
1011100100
101011001
1111
1111111001001011
1111101101011100
1100
11000010
100000100
1101011
1010011
10101001
110111110
1000111101
10010000001
1111000010
1100001
1111110001111111
1111110110010111
1111110111111100
1100100
11001110
101010110
11100110
1111111010110111
10001110
110001100
1000100111
100110001
100100100
1111111101000110
1111110000001001
1111110001011011
1111110101110111
1111111111001100
10011010
1111111101011101
11010100
1001111100
1101000000
1100100100
10100100111
1010101010
1011011001
11000111
1111101111001010
1111101111110011
1111111100101101
10000001
1001001101
1100011
1111110110101000
1111111111010101
1001111
1111111001011111
11011100
1000011111
1111111100000010
1111111001100101
1111101110010100
1111110010010110
1111110101011011
110010111
11010000
100010000
101010001
110000111
100111101
1001001111
1101101010
1100010101
111010011
1111111100110100
1111110001010110
1111110011111000
1111110001001111
1110010
1111111111000011
1001100111
1111101
1111010
1111111011110111
1111111001011110
1111111101101010
10001001
1000
1111110001011110
1111110101011110
1111110101010011
100000101
1001110011
1001111000
110010110
101011
1000011110
1111111011110111
1111111110100000
1100011010
1011110
1111110110011000
1111110110110011
1111101110111101
1111111011110111
1111110101111001
11101111
100100011
1011101
100101001
1111111101101100
1111111000101010
1111111100000110
1111111101111110
1111111110011000
1111110101100101
1111110111111101
1111111011010110
1111111111100111
1111111111010100
1000001001
1001001110
1000110001
1111111111111101
1111111100010000
1111110110010111
1111111100000011
1111111101101101
1111101011100101
1111101000100110
1111101100100010
1111101101111111
1111110010100100
1111111000100011
0
1010011111
10101
1111111010011011
1111111101110000
1111111001000101
1111110010101001
1111111000100111
1111110111110111
1111111001100110
1111111011101001
1111111011011111
1111111101011011
1110100
111010010
101111001
10110000
1000010
11101001
1111111110101000
1111110101011110
1111110000001001
1111110000001111
1111101001001011
1111101100110000
1111110000000001
1111111111010000
110101110
110100
10110111
11111001
1111111111001010
1111110010111011
1111111001000010
1111101111100010
1111110110101111
11011000
10101100
1111111011001011
1111111110001000
1111111111110110
1111111001000110
1111111011101000
1111111111111000
11000001
101110010
10011100
1111110110010111
1111110110100101
1111101111001010
1111110001000011
1111110011100001
1111101111011110
1111110010101000
101101101
11110001
10000100
1111111100111110
111001
1111111001001111
1111111001011111
1111111001101100
1111111101000000
1111111011101111
1111111110000001
1111111011000000
1111111110111101
1111111000001110
1111111000010010
1111110100110000
1111111100101011
10101011
10110001
1111111100111011
1111101
11111
1111111001001110
1111110001111100
1111110001111001
1111110100011101
1111110001010010
1111110110100010
1111110001
1111110
1111111110000010
1101011
10001000
1111111000000101
100011000
100011
1100011001
1011111100
110110
101000111
100001
1111111010100010
1111111010110111
1111110100111011
1111111000010010
1111111111110111
1111111111011100
111011
1100011
1111110111110110
1111110111001110
1111111000101100
1111101100111011
1111101011110101
1111110010110000
1111111110101100
1010010011
1111111011111110
1111111011100000
100010011
1001101101
1111100111
111110101
1000111010
100001111
101011010
1111111000100001
1111111101110010
1111111111000011
10000101
1111110011011000
1111111010010010
1111110111100001
1111111001000001
1111111000100101
1111111101010011
1111110110100110
1111111110110010
1111111010101111
1111111110111100
1111111110011111
1111110010110011
1111111001100001
110110
101000001
1010
1111111101001100
1111111011100001
1111111011100101
1000110111
100000
1111111100001011
1111110111111100
1111110010101000
1111110100110001
1111111000111101
1001110
1111111110011100
1111111000101110
1111110001111001
1111110001100001
1111110101000011
1111110101100010
1111111001100100
1111110001110101
1111110110000010
1111110010001101
1111110101011000
101001
1111111001011000
1111111101111001
1111111001100101
10111101
1111111111000000
10011001
11001100
11011011
1111111001110101
1111110011111000
1111111011011101
1111110111011101
1111110101011000
1111111011011111
1111110100001010
1111111000000100
1111110010001101
1111101110010110
1111110000101010
1111101011100011
1111111101000001
1111110101011000
1111110010011100
1111110100111011
1111111001010100
1111111100001010
1111110011011000
1111111101110110
1111111101000100
1111111101010000
11111110
1111101
1001111
11111010
100111011
10110000
110001
111011011
1010101100
100110110
1111111100111011
10110011
101011
10101010
1111111100001100
1111011
1111100000
1111111001111100
1111111110010010
101111000
100011
1111111011000001
1000110
110000001
1000000101
1100100011
1010101110
1111111111010011
1111111111101101
1111111110100001
11110
