100001011
1111111011011000
11010011
1111111100101000
11101111
111100
10000
1111111100010100
1111111011010100
11010000
1111111100101001
1111111111100100
100001111
110111
100101001
1111111110100111
100101010
1111111101111101
11000000
1111111011111011
100100010
1111111011010001
100
1111111110110101
1111111011001001
1001101
101111
1111111101001000
1111111110000100
1111111111011011
1111111110110100
1111111110000000
1111111111001011
111011
110110101
10000111
100111111
100111101
11101
11111
1111111101011110
101011
1111111101101010
11001100
100110111
1111111110100011
1101100
1111111110001010
110011000
1111111111100111
11000001
1111111101110000
1111111111110001
1111111100110101
1111111110000001
1111111011011011
1111111110010110
1110001
101011010
10000101
1111111101100000
1101110
1011110001
1110111
1010000101
10001111001
10010011001
1110010101
1100110000
10010010011
1110111110
10111101011
11101011
1000110
100110001
1111111110011011
110
1111111111010101
1111111100101111
1111111011001011
1000111001
10100010
1111111111011111
100111101
10100000
1111111010111011
100000111
110101111
10000000
110010
1101100
10101
1111111101011100
100010011
100101011
1111111110010111
1111111001110000
1111110110100100
1111110111010011
1111110110001011
1111110111100001
1111110011110001
1111111100000011
1111111000010101
1111111000011001
1111111100010000
1111111101000110
111011011
10110101
100001001
1111111101101101
100101001
10111000
1111111110101111
1111111101011100
1111111011011111
1111111101011001
110110000
1111111111000101
1111111111010011
1111111111110100
1111111011111111
11001111
1111111010001111
1111111110101010
10011110
1000010101
1111111110110101
100010100
1111111101110001
1111111010110011
1010000
1001000100
1111111011101001
1111110111100011
1111111101111011
1111111010000111
1111111111000001
1111111010110001
111110000
1111111101101101
1111111011101110
11010000
1111111100111111
100
1111111001011011
1111110010000101
1111110111000001
1111111001001100
1111110101111110
10100100
1011000111
1010100111
100110110
11111110
100001111
1001010
100101
1111110111011001
1111111000001111
1111111110010110
1111111111100011
1111110100111110
1111110100000111
1111110101101110
1111111111010111
1111111111011110
111010001
100001
1111111100111001
1111111001001010
1111110001001111
1111111001101010
1111101111111100
1111110110110001
1111111001011111
1111110110000010
1111111110111011
1111111100010010
100010001
1111111111010100
1111111111100000
111010100
100111101
1111111111100001
1111111101010000
1111110110111100
1111111110000000
1111111111111011
1111110110011000
1111110010101001
1111111000111101
1111111101011110
1111111101010110
1111111001000111
1111111100111110
1111111110101011
1111111000101000
1111110100101110
1111101101111001
1111111011101100
1111110011111001
1111111001101010
1111110100101011
1111111001011001
1111110111001011
1111111111001101
1111111010101000
1111111011101001
1111111110101001
1100100
11011001
1111111110001101
1111110110000000
1111111000110110
1111110011001000
1111111000010110
100101
1111111010100100
1111111011001000
1111110111010011
1111111100011011
1111110010110010
10111110
1111111110101010
1111111000110100
1111111000011110
1111111001110101
1111111101001100
1111111010101000
1111111100110011
1111111000100101
1111110101100011
1111110110100001
1111111100001111
1111111001101110
1111110100011010
1111110111010001
1111110101101010
1111111000111111
1111111110011101
1111111010010111
1111110001101110
1111110101010000
1111110100100100
1111111100101111
1111111001111110
1111111011010000
1111110101000100
1111111001010101
1111111011111001
101000001
1111110110110100
1111111101000111
1111110110010000
1111111001100111
1111111010101101
1111111100111000
1111111001010110
11101
1110010
1111111101000011
1111111001100101
1111110100010111
1111110100001001
1111101110010110
1111111001111010
1111111100001010
101111101
1111111110001100
1111110110100101
1111111111001001
1001111
1111111000101000
1000110
1011000
1111111000100000
1111110101101010
1111111111110111
1111110110101001
1111111100011111
1111111011001111
1111110110111011
1111110100111011
1111110100110110
100101001
11001010
101001001
1101100
10011100
1111111000101110
1111110011111100
1111110111001100
1111101101100110
1101111
1000011010
1011001100
111000001
10000
1111
1000011
1111111111101110
1111111101111110
101101101
1111111001010010
1111111000000001
1111110010100000
1111110111011101
1111111001101110
1111110100101000
1111110010010101
1111111000010000
1111111101000101
10010011
100010001
110110001
11100011
1111111011111001
1111111011010001
1111110100010010
1111111001111111
1011001
10001101100
11001010010
10001010101
100111001
1111111011011111
11001100
1001111010
111010100
10100001011
1110101010
10000010
1111111101001011
1111110110111110
1111111100111011
1111111110011000
1111110110010101
1111110101000000
10
1111111110010001
11111000
1111111100110010
1111111100101111
1111111101110000
1111111001101110
1111110101100001
1111110100001100
11001110
10011110101
11000011111
10111111010
10000111010
101101011
10100010
110101000
1100111001
10010001110
11000011011
1100101100
101101111
110111100
1111111011101111
1111111110100100
1111111111011000
1111111000110110
1111110111010111
1111111110101010
1000000011
110101011
1111111110110001
1111111001111000
1100111
1111111001011000
11010
11111001
1101011010
10100100100
10010110010
11000100110
1011001110
110111111
1010000
10000011011
1110011001
10001110011
1000001000
11011011
11011101
111001011
111111
1001010000
1111110110010101
1111111000001001
1111110001111010
10101100
101101000
1111111011000011
1111111100001011
1111111100110010
1111111100010111
1000000
101111010
1101010101
10010101110
10111000101
10001111100
1000111000
1111111101
1001001010
101001010
1110001001
1001001111
110100101
1111111111111001
1111110111110000
1111101111101111
100101111
10001110110
111100
1111110110101000
1111110110110111
1111110001110001
1111111010101111
1111111101111001
1111111011110001
11001001
1111111111100100
10011111
101000001
1000001011
1001010110
1100111011
10100101000
1010101110
1100001000
1100000011
1000111000
1011011
1000110
110010
1111110110111000
1111110111100011
1111110010000101
1111101111001001
1011000110
11101110
1000111100
1111111100000011
1111110110000100
1111111000000110
1111110101011011
1110000
100100
101010110
101110011
111101111
101110110
1011010001
1001100000
1010100000
1000101100
1100001000
10000101
1011100111
100011110
110111100
1111111010011100
1111111010011100
1111110111000100
1111110011001001
1111110010100101
1111101110011100
10010110111
10011110100
101011111
1111111111000000
1111110101100011
110111
1111111001000010
1111111100111110
110101000
1010101001
1100000011
10011111110
10010001001
1111101100
10000011100
11000011001
10000011110
10100101110
10000100000
111100011
11101110
1111111110110011
1111111111011101
1111111011001110
1111110110100110
1111110000111100
1111110111010000
1111111100101101
111001011
1001010011
1111111101001001
1111111001100101
1111111101101101
1111111010100001
1111101110100000
1111111100000000
1011101011
10000111000
10110110000
10000011100
11000110100
10001011010
10001010011
11010110100
11011011100
11000101001
10001010011
1011011000
1111111110101001
1111111100000011
1111110110001000
1111111100001111
1111110000110011
1111110000010100
1100000
1111111110010110
1011101111
111011010
110010001
1111111101111001
1111110110010101
1111111000011110
1111111000101001
1111111001010001
110001111
1111011101
1010101001
111000101
10011010011
10001011110
10100010000
10100100010
1101100010
1010000101
1011011110
100100110
10100101
1001101
10110
1111110011011100
1111110101110101
1111111000101100
11
11111
1101000010
1111001110
1010110111
1111111110010110
1111111111100011
11000001
1111111011100100
1111111100010101
11001001
1000001110
1111001
110110111
101011111
11000001
1111111100011000
10101
10
1111111111101010
1111111111001101
1111111100110000
11001100
11111100
1111111010011010
10101010
10110100
1000000
1111111010111011
1100000110
1100001000
1111111110110100
11000000
1111111101101111
1111111100101111
11111011
1111111011011100
10000
111101100
111110001
1000010
11000010
101000111
1111111100010000
1111111010011111
1111111100111101
1111111010011010
1111111111010101
1111111110110000
10000001
1111111101111111
1111111000011011
1111111111000110
1111111001100011
1111111110111101
1111111100010111
1111111101100010
1111111111000111
1001100011
1111111110110001
1011100
11111010
110011
1111101
1111110111111101
1111111011011111
1111111110100000
1111111101001010
1111111101010100
1111111110110000
1111111100101011
1111111111001000
1111110110001010
1111111000101101
1111110111011110
1111110111010101
1111111000000111
1111111100001100
1111111010001001
1111111001000010
1111111011000111
1111111111001010
11101111
1111111001101101
1111111111001000
101001011
110101010
1111111111011101
11101010
1111111011110111
10111101
1111111001000110
1111110111001010
1111101011010110
1111110000101010
1111101110110101
1111110100101110
1111110110110001
1111110110001011
1111110101110110
1111110000000000
1111111101101001
1111111101001110
1111111111000001
1111111001101000
1111111000101010
1111110111101011
1111110110001110
1111111010110000
10000000
110011000
1001101101
1001101001
1000110011
1010001000
1111111100000100
11010111
1111111011011111
1111111100111000
1111111000100010
1111101110000011
1111011111000101
1111011110011011
1111101110101101
1111101000111111
1111101101101111
1111101011000001
1111101110010100
1111111000000110
1111111100110010
1111110011110011
1111111011110000
1111111011111000
1111111110001101
1111110110100100
1111111100000111
1000100011
111010100
111110000
111111001
1010001111
1111111110111110
1001011000
1111110110100111
10100000
10010101
1111111011111000
1111111110101011
1111110000100101
1111101011001100
1111110111001100
1111111000101000
1111110000111000
1111101101110110
1111101111000101
1111111011011111
1111111101011000
1111110101111010
1111111110011100
1000110
10000101
1111111000000011
1111111000011100
1111110101101011
1111111001111011
11100001
1110110
1111110110111000
1111111110000011
1111110100011011
100001110
1000000
1111111011011111
1111111110011011
11011101
1111111111001011
101111000
101101111
100010
1111111110010101
1111111101010101
1111111010010001
101001000
11010100
1111111110001001
1111111110010100
1111111100001011
1111111011100011
1111110110010110
1111111100010001
100111110
1111110110001111
1111110000011010
1111111010111011
1111111001011001
1111111010000100
10100010
11001100
1111111011101010
100101011
1000111
1111111111010110
1100100
1111111110010110
1111111110110110
1111111100110101
1111110011100000
101100
10001001
1111111000101111
1111110111110010
1111110111101100
1111111001000110
1111111011011111
1111101010001110
1111111000110101
1000000
1111111100110110
1111110001011100
1111110111111111
1111111100111011
1111111100000011
1111111101111110
1111111001000101
1111110110010001
10110001
1111111101111000
1000110
1111111011010010
