101
1111111011110100
1111111110110011
111011
1111111100010000
1111111111110000
10101111
100000001
1111111
100010110
1111111101010001
10111001
1111111000011110
1111111011111100
110001011
11010000
10110010
11101
100011011
11010100
1111111110110101
1111111110000010
1111111011000011
1011
110100
1100100
100110110
100110011
1111111111000101
1111111101110000
1111111101011111
111010
10001
1000100
1111111111000001
1111110100010000
1111111010110101
1111111000011000
1111111001011111
1111111011000110
1111111000010111
1111110001110100
1111110111101101
1111111011100000
11100000
1
1111110000111011
1111110000100010
1111110001000011
1111110111000101
1111110101101000
1111111101101010
1111111011001100
1111111011100010
1010101
10110000
1111
1111111101011001
1111111101111100
1111111010101011
1111110100101011
1111111000011101
1111110000010001
1111110011000010
1111111101011110
111011010
1111111101110000
10010
1111110101100110
1111101001100011
1111110001001110
1111110101011110
1111111110000011
11101101
100010
1111111111111101
1111110010010000
1111110011000101
1111110010100100
1111111001001001
1010101
101001110
11000101
10011011
1111111111100101
101110
1111110100110101
1111111110000010
10100001
1111111000111101
1111111000000110
1111110100001111
1111110101011111
111110101
110001011
100010011
1111111011101110
1111110101111000
1111110010010000
1111101011010000
1111101100010011
1111110001010001
1111101010011111
1111101111011111
1111111001010011
11001011
110110011
100100011
1001110000
1010100001
10010101
100110001
11111000
1111111001101100
1111110100011111
1111110111010110
1111110110101011
1111110011101011
1111110111110011
100001
1111110101010001
1111111011010110
1111111001011100
1011011
10001001
1111110111111101
1111110011001000
1111110001110010
1111110010001011
1111110000101111
1111110001000011
1111110011101010
1111110111011001
1111111110010110
111100000
10100100001
10010111111
1000001000
1111111110011101
10111100
1111111101010100
1111111111001001
1111111100101100
1111110110001001
1111110010110110
1111101100100010
1111110100001000
1111111000001110
11111110
11011000
111011010
101111001
101000011
10011001
1111111100111010
1111110110000001
1111110111100001
1111110111111111
1111110110000010
1111101111100001
1111110001111011
1111110111101011
110000010
111000101
1111001001
111010110
1111111101101001
1001100110
1111111111010010
1111111100100010
100111001
1111111111000101
1111111010111111
100011001
1111111011101001
1111111011110000
111010110
1000100110
11101000
100010100
110
10100010
10000000
10001001
1111111101001111
101001
1111111000011001
1111010
1111111111101101
1111111010001110
11101101
101011110
100010110
1111111011001110
11010110
1111110100010001
1111100
1111111011000100
1011100011
1111111110010111
1111111011101000
1111111110101101
10111101
10111010
111010011
101101111
110100001
11011
1111111100101010
1111111011000011
1111111101011110
1111111100001001
1010000011
100101101
111111
110010111
1100000
101000101
1111111101011010
1110111010
10100010000
10010101111
1111111000001101
110
101111010
1011100011
1101100000
1011011
1111110110111000
1111111111001101
11110100
10011101
1000000010
1011100011
10101100
11010111
1111110010001010
1111101111110001
1111110110010111
101100000
11111100
1001101111
10001010
1111111011001110
1111111111100100
100011011
1111111011010100
11010001110
11111101001
10110110001
1111110110000011
1111111010010100
101111000
1001011100
110010010
1111111101100111
1111101110110100
11100001
1111111100101011
1111111101010000
110
1010001111
110010110
10
1111111011011110
1111110110010000
1111110011111000
1111111000010001
100000010
100101001
1111111111001011
1111111011101111
1111111100001010
1111110100110111
1111111001110010
10001111000
100011000100
1011111110
1111111101111100
100111110
1010101010
1101111110
11110100
1111110000110101
1111111010111001
1101101
10100111
100011010
1111000001
10000101011
1001011101
110010110
10011
1111101100110110
1111110001101000
1010101
10100100
1111111100000111
1111110110000000
1111110011001000
1111110001011101
1111111110111001
1111111101110010
10111010111
110000111111
11001001101
1010111101
10011010
1011001011
10100101
111001101
1111101101100110
1111110111011011
1011111000
1100111000
1111101001
1111000011
110010010
101110111
1000010011
1111111001001010
1111110010011000
1111111010010001
1010111
1111111110010111
1111110101111110
1111111001101010
1111110010111010
1111111110100111
100011010
11001001010
11000001110
11010110111
10010100101
1001001010
1111111100000111
111000001
1100011111
1011001100
1111111110000011
11011001
1110101001
1111111100
1001110011
1101100010
111011001
110010110
111110100
1111111101010011
1111110011111100
1111101111100001
1111110111010010
1111110111011000
1111110111010000
1111110111101010
10110001
10010001111
11000000011
100110001011
10111111110
1111101010
1100001011
1100001010
10100101
1111111101001101
10100100
110100010
1111111000100001
1101001101
1010100010
1001111000
111000011
10011101
1001001111
10010011100
10001011100
10001111
1111110110100001
1111110010010101
1111101111000100
1111101111100110
1111111110000101
1000001101
10011100000
10111110000
100001011001
11101011101
10010000010
10001100000
101111000
10010100010
1010001001
100110100
1111111100001000
1111111010101000
1111111100000010
1001110100
1101000101
1100000010
10000111110
1111111111111011
101100100
10110010100
1111110010
110000100
1111110110011011
1111101011001001
1111110000010000
1111111110011111
1010011010
10010011111
10111111101
10000010001
1110111011
10010010111
111010110
10100001
1111111110000001
1100111110
10001010
101101010
1111111011101001
1111110011000000
10101
111011101
1001111100
11110011
11001110
1010100
1011001
1011111001
1010101000
1111111001111110
1111101011000101
1111101000010010
1000001
1000100100
10111111101
10111011000
1100110011
1100001110
1001011011
1111111100000001
1111111110111110
1111111010011010
1111
1010101111
1110101
1111000
1111110111110001
1111101111011110
1111110111001110
1111111110101100
1010111111
10000000001
11111000
1010100
101100
111011000
1111111001010000
1111110100010001
1111101010011000
1111110110110011
10000011101
10110010011
11101110110
110101110
1100011
100110101
101111101
1111111011001010
1111110010011011
1111110010111100
1010000011
10110100000
1101011111
1111111101000011
1111110101000000
1111111110011101
1111111000111000
1111111011011011
1010000111
1110000011
10011110
101010010
10010101
111010111
1111111011101011
1111110100011100
1111111101101000
1111111000
11001100110
10010001110
1011010100
1000000101
1111111111001111
10010110
1111111001001100
1111111011000100
1111110100111010
1111111000001110
1101111000
10000100111
1011101011
101111000
1111110101000111
1111111000000001
1111101101011110
1111111110110101
1010110011
1000010001
100001
1010110
1111111110111010
1111111010010110
1111110010110111
1111111100100000
1100010110
10011001100
110101000
1001001000
1111111111100100
1111111011110100
1111111010110000
1111111010100001
1111110010100011
1111111001111011
1111111011110001
1111111100101010
1000
1100000100
1111111110001010
1111111000010000
1000011011
1111111010000110
1111110100101111
1111111000010110
10011010
10101
101011110
1111111011011010
1111111010100001
1111111010101101
10100000
1000100100
1010111110
110110100
10100101
1111110111100101
1111110110100100
1111110110101110
1111111000001100
1111111010011110
1111110001110000
1111111011001100
1111111000001011
1111111101111111
1111111100110001
110101011
100000001
11001010
100110011
100100
1111110001011110
10011011
110000000
10111
1111110111010100
1111111001101111
1111111110011000
1111111110001101
111011011
1100110010
1000000110
1111111010001001
1111110100010111
1111101101111011
1111110101011110
1111101101010100
1111110001110110
1111101100000100
1111110011011011
1111110110000100
1111111001110000
1111111010100010
1101
111101100
1111111010111111
1111111010101000
1101011
101111
1111111101101101
100111010
100111001
1111111000010011
1111110101111101
1111111111101110
10111011
111001
11001011
100101110
1110011
1111111001100111
1111111000001000
1111110101110101
1111101111010001
1111110001111001
1111110100100000
1111110001101010
1111110101101110
1111111000111111
1111111110101111
10100101
110100
101101111
1111111101101000
1001100
1010000
1111111101000111
1111111010101110
1111111001110011
1111110111010010
10000101
1111111111110001
1001010001
1001101101
100011101
11011010
11000100
11001
1111111000011110
1111111010101111
1010010
1111110110001010
1111110111000000
1111110111000111
1111110100101001
1111111010011101
1111111101111001
1111111110111010
1110101111
110011101
1111110110100101
1111111101101100
100111101
100001101
1111110001100101
1111110001110101
1111111001000001
1111111100101110
1111111110101010
1111111010011001
1001100
1111111110111000
11001100
1111111101001001
11111110
1111111110001100
1111010
100001010
10011
1111111100000001
1111110001000001
1111111001001101
1111110110100100
10111100
1001000001
1011011011
10110001
1001000010
1111110111101110
11110001
11101001
1111111100001111
1111111111110111
1111110011000101
1111101011001010
1111111011110111
1111110110100110
1111110111110010
1111110100111110
1111111010000110
1111110100101111
1111111011011010
1111111011011000
1111111100010110
100100111
1111111111000110
101011110
101110100
110011
1111111111101011
110110000
1100000001
1100111010
1010100001
10001101011
10111111
10010111
101100
1111111011001001
1111111101011001
1111111010010100
1011100001
1111111111011101
1111111001100000
1111111010100001
1111110101100010
1111110000101111
1111110000110000
1111110001011101
1111110101111000
1111110010100011
1111111100100001
10011001
1000111110
1011001110
1011111
1111111111101111
1111110111110111
111111011
1001001011
111100010
1100111010
1101111110
1100010111
111011100
10110101
1111111110010110
1111111100110001
100010000
110001001
110010011
1100001100
10000110001
101000110
1011101
111101100
10011111
1111111110101001
111010001
1111111111000110
111101011
10110110
1011000
1111111100101111
1111111101001010
111101
100100110
101011111
100000111
1001
1111111011001110
1111111110001000
1101110
1111111111000011
1111111011100001
11011000
1111111110110011
1111111100111001
110111010
100110101
11100011
1111111111010010
1111111110000011
1100010000
101010000
1110000000
101101010
111111010
1101001100
101010000
1001001111
1110111001
1100101001
1010010111
1011101111
100110010
1111111110111100
1111110111110110
1011
1111111010110101
11000011
1111111110001111
