101000110
1110011
1111111011001110
1110111
10101000
10010100
1101111
1111111111110011
11000000
100101010
11101010
10001
1111110110111011
1111111111000001
1111111011111100
1111111101100111
1111111110010101
1000011
100000101
11000110
1100011
11010001
1111111011110011
100001111
10111
100110011
1111111111001001
1010
1111111111010100
1111111111101010
1111011
1111111111110101
1111111101010110
1111111101011101
1111110011110001
1111110000011001
1111110110000000
1111111001101110
1111110011010101
1111111010101110
1111110010100101
1111111100110000
100010111
1111111001101100
1111110010111010
1111111100011010
1111110101010000
1111110110100001
1111110001110101
1111110001000101
1111110110010011
1111110110011110
11010
11100000
1110010
1111111110111100
1111111101111100
100010110
1111111111011010
11111010
1111110111110101
1111111001001001
1111101101011100
1111110010010011
1111101110000001
1111100010000111
1111100101110010
1111100100100110
1111101101011000
1111111100010110
1111111011001101
1111111110100000
1111111000101100
1111111000110100
1111111100000001
1111111100000101
1111110110010110
1111110001110001
1111111010000001
1111110000010101
1111110101101100
1111110100010110
100101111
1111111101011011
1111111101101011
100111000
1011011100
10110101
11110
1111111001111010
1111110000111011
1111110001100100
1111110001010001
1111110000100110
1111110100010011
1111110101000100
1111110010101001
1111110111000001
1111111101111000
1111111111110101
10110110
1111111111010111
1111111100010110
1111111101110101
101110100
1000000101
11000000
1010000001
101001000
1111111110110100
1111111001111100
1111111100100011
1111111111111000
1111111111000001
110101010
1000010000
1111111011111000
1111111011010010
1111101110011011
1111111011011000
1111110111000100
1111111011100111
1111110110111110
10001000
100011010
101111111
111011100
1001111101
110110000
1010101000
110011110
1111011001
1011000110
10001010111
10111110101
11010000011
10101101101
111110010
1111111011000001
1111111011110010
1100111
1111111111000010
100010101
101100
1111111100110010
100001010
100011101
11000001
1111111100101100
100001
1111110111110001
1111111101100111
111100
10101101
101110100
1011100010
1111111110010011
1110001
1111111111101111
11011110
1010011111
10001111110
10101010011
11010110100
11111100011
1000001101
10111101
1111111010010111
1111111010111101
1100011
1111111111111100
11111
110111
1111111110110110
1111111111010110
1111111111101001
1111111011111001
1111111111101110
1111111100111010
1001100
1111111100010001
1111111001100110
1111111001001110
1111101111001010
1111110000110011
1111110010001101
1111111001110010
1111111101100101
111110110
100100101
11010110011
100110000011
11010000110
110011011
111100000
1111111100111000
110100100
1011010011
1111111101111010
111110101
1111111110101000
110001000
1111111111111010
101100010
10010
1000010011
1000010101
100110
1111111111101011
1111111001101001
1111110010010000
1111110011000010
1111101111011000
1111
1111111111101011
100111001
111010111
101011000
1000011110
11111011101
10110110110
1010011101
10011101000
1000001101
1000110110
1111111100110000
110100111
111011101
1111110111000000
100010
1000010110
101001010
111010110
100010111
1111111111101010
1111111000111111
1111111000101110
1111110110101010
1111111001110011
1101
1111111101111001
101101010
1010110110
111001101
1110100
1111111100000010
1111111011111100
10001110110
11110000000
100000011001
10111111010
1000001110
1010000010
100100000
1101110
11110011
1111111000110100
1111111111101001
101111100
111101101
1111111110101111
1111111100011010
1111111110111000
11011011
101011010
10101011
1111111101000011
110110010
1101111110
10001011111
1011011010
1111111111100110
10000110
1111111011100010
1111111001111001
10001010
10111100011
100010011011
1011101011
1000000101
11101011
101100011
1001100101
1111111100101010
1111111101000000
1111111010000000
1111111001110000
1111111110101011
1111111101011000
101110001
101011110
11001
1010000001
1010100010
10011000001
11101110000
11000100010
1100010110
1111111110010111
100111
1111111001010111
1111111011010101
1111111111000000
1111111101011101
1101001001
10010100001
1000101110
111011100
111111
1001001010
111100111
101011101
1100010
1111111011110001
1111111110010101
1111111111101001
101011111
101111101
1100101101
1011011001
10110011111
100000101110
11011100110
11000101011
100101010
1111111111001000
1111111010011000
1111110110010010
1111101110011010
1111110001001101
1111110011110000
1111110101010101
1100101
111110010
10011101001
101110101
1111111110100011
1010111111
10101010
1111111110011100
1111111011111010
10110110
100111010
1000111001
101111111
1010010100
1011100111
10001100101
11111011100
11011110110
1110000010
101101011
1111111110010111
1111111010110011
1111110101100010
1111110110001100
1111111000110011
1111111011100110
1111111000011111
1111110100100111
1110101
1111111001011100
1111111111010011
1111111011011111
10011011
1110010101
11010001
111101
100110
1111001111
1101101001
1110100001
1100000101
1011011001
1001010111
10011011001
10000001101
1000001001
1100100
1111111110100000
1111111011000010
1111110110001001
1111111011100010
1111111011010001
1111111010000101
1111111011011100
1111111011001000
1111111010001001
1111111001010010
1111110010100100
1111110110101100
1111110110101101
1001001101
1000011000
1110100100
1111111101111110
111000001
1110111111
110000111
101100011
1001000000
1010010001
101001111
101010011
100111011
1111110110001100
1111110100010110
1111110110010100
1111110001111011
1111111111110111
11000011
1111111110101010
1010111
1011000
1111111011100101
101000110
1111111111001010
1111110001000110
1111101110010101
1111110101000000
10111011
1001000
10101010110
1111111110011001
11011010
101110
1111111001100101
10100000
1100111001
1101010001
11010111
110100100
1111111111100000
1111111010011110
1111111001101001
1111110101011101
1111111011011111
1111111010010100
1111111111111111
110010101
1111111111100011
100110010
11
1001001011
1111110111010111
1111110001011010
1111110101100011
1111111010101001
1111111100001101
1010111011
10110011
1111110110000011
1111110111100011
1111111100110011
1111111010101110
1111111111100110
1101101010
111100111
100101001
1111111011011011
1111101111101101
1111111011111001
1111111100111101
1111111000101101
1111111101110111
1111111001101110
101110
10001101
10110010
101100101
1111111111011111
101011101
1111110101111101
1111101011011010
1111101101001010
1111111010000010
1111111100101000
1100111111
1111111111110001
1111110110110100
1111111000000010
1111110101110111
1111111110101010
11001000
1100000
101111010
1111111111100001
1111110011110000
1111110000000000
1111111011100001
11011100
1111111001000001
1111111000101001
100000
1111111100010100
1001010000
10000001000
1100101001
1010111010
110001100
1001101
1111101011111000
1111110010110011
1111111011101000
1111111001011001
100001101
1111111100101001
1111110110010010
1111110001000100
1111111110101101
1111110111100010
1111111001010011
10100100
1000100101
1111110110110100
1111110110100000
1111111010101011
1111111110001101
1101010
1111111001011011
1111111000101001
1111111011010001
1111111101000011
101011001
1011100010
1011110101
100000001
11000110
1111111100010000
1111101111010001
1111111101100100
1111110101010111
1001001010
1000001000
10000000
1111111110111010
1111110100110101
1111111100110000
1111111000101110
1100
10011010
110010111
1111111101101101
1111110110101111
1111110110110110
1111110111100011
1111111001011011
1111111111011110
1111111010100011
1111111110100111
10011
1001101011
1010010100
1110100110
1010010000
1111111111101001
110001100
1111110011001100
1111111100010011
1111111100010100
1001001
110101101
1111111110110100
1111110101111111
1111110010101000
1111110111010011
1111111010101001
1111111011011101
101101101
101010101
10000010
100001
10011001
1111111100101001
1111110111101111
10011101
1111111110010100
1000100000
100011010
10111000
110100101
1011011001
1100111000
11100100
1111111011100001
1111110111111111
1111111111101000
1111111111001111
101001101
10000001
1111111011100100
1111111001101000
1111110110000110
1111111111100110
11110111
10000110
11011001
11000
1000100110
10110000
10111101
1111111001011001
1111111101000001
101000100
1111111100110111
101001110
100011111
100011001
1101110101
111000010
101000110
1111111100111101
1111111100101000
1111111100100010
111111101
1111111111111100
1100101
101100111
1111111111000101
1111110110001010
1111101111011001
1111111010111111
1111111010110001
1111111110010111
1101110
10110100
1111111110111110
1000110100
111111001
111000101
101100110
1100100110
1001001110
1001100000
10101011
0
111010100
101100000
1111111111001001
1111111001101001
1111111100000011
100010110
1000111010
11111100
1111111011100101
1111111110110000
1111111110000111
1111111001111100
1111110001110010
1111111001100011
1111111001001000
1111110111101101
1111111001011111
10000110
100001001
110110100
1110000010
111101000
1010101110
110010001
110010100
101000011
1111111101011000
1111111101110010
1111111010101010
1111110100111111
1111111000111111
1111110111100000
1111110010111000
100001000
1110000001
100100000
1010001
1111111101001110
1111111110010001
1101011110
1111111010110110
1111111100100111
1111111110110101
1111111001000101
1111111010100000
10111100
1111111011000111
101111000
11101110
101111011
111110111
10000000
1111111110001111
1010110
1111111011100000
1111111110111101
1111110101011000
1111110100011011
1111111001011101
1111110101110100
1111110110000000
1111111000011011
1111111110100011
100010110
1111111101000111
1111111101111010
1111111110101111
110000100
1101011
1111110111011010
1111111100110101
1111111011011111
1111111011010111
10010
1111110011101000
1111111010001011
1111110100001001
1111110100101001
1111111000000001
1111111110001101
1111111001101111
1111111010001111
1111111101110000
1111111100110100
1111110010001000
1111110101100100
1011100
1111111111110010
100001011
1111110111111101
1111110110111101
10110000
11110101
1111111011001110
1111111111000110
1111111011110100
1111111001100001
1111110100010010
1111111010111101
1111110011100010
1111110100001011
1111101010101001
1111101110101010
1111101111010001
1111101110000110
1111101100010110
1111100111111000
1111110101010011
1111110111101000
1111110110001110
1111101111011011
1111110110000100
1111110000011110
1111110110110000
1111111001011111
1111111100011111
11000
1111111111001010
1111111011110010
1111111101110000
10001111
1111111011011111
100110011
11010001
11110011
1010011100
1001101
1111111001101111
1111111101011001
1111111101110011
100001
1111111110011011
1111111011100000
100000001
1111110011000000
100001001
11100
11111111
1111111010011101
1111110111010100
1111110101101011
1111111001101000
1111111000011110
1111
1111111100100111
1111111101100100
10111100
100011111
