1111111011010011
1111111100010100
1111111111101011
100000
11110010
1111111010111010
11010111
10101101
1111111100011110
10010100
1111111110010101
100101000
1111111100100010
1111111110111011
1111111010111101
1100100
11100100
1111111100000101
1111111101101100
1111111100000001
1101101
1110000
1111111111111110
1111111100110011
1111010
10000110
11110001
11100001
1111111011001111
10101010
110111
1111111101001111
10111111
1111111101011000
1111110101111111
1111111000000101
1111111100111011
11000101
1111111011001011
1111110110111111
1111110110110101
1111110111000010
110000010
1111111010101011
1111110101010011
1111110100110111
1111111011011111
1111111001101101
1111110110100000
1111111000000110
1111111011100110
1111111011101101
1000100
1111111110001010
100011110
1111111101001010
11001100
1111111100110010
1111111101110000
1111111000001000
1111111000010000
10110011
1111111110111101
1111110101000101
1111111111110101
10101110
11111101
11001011
110001010
1011010111
1111000101
10110011001
10011100110
1110010010
110110011
1111111011
1000000111
1111111111000010
1111111110010011
1111110111010111
1111111001001110
101101101
1111111110110011
11011
1111111011100000
1111111111011110
111101100
1001010000
110100110
101111010
1000000111
10001101000
1000100110
10011
11001011
100001000
1011111010
10100010
1001101100
1011011111
10110010
111011101
100110001
110011101
1110110111
101100111
1111111101011000
1111111010100001
1111111001001000
101010011
11101000
11100101
1111111101010010
10001
1010100001
110101111
1001001101
1110101000
10001110011
101100101
11100000
1111111110100011
1111111111111010
101011000
1111111111111010
1111111100111011
1111111010101010
101001011
1111111110010000
1111111010001001
1111111101111001
1111111101110111
1111110111001111
1111111000000101
1111111001010010
11101111
10111011
1111111011000100
1111111110011110
1111111001111111
1111111110000111
1111111011101100
100000010
1000001111
100100011
1101101001
11011000
1111111101101010
1111111111100111
1111111110101110
111000111
1111111110110110
1111111101110010
100011001
1111111110111100
110111110
10111111
11001
10100000
1111111111100111
1111111001000110
1111111010100100
11001101
1011000011
101100010
1111111111110000
100000010
1111111101011100
1110111
100100011
1111111110000101
1111111010010100
1011100010
101111000
11110101
1111110111100100
1111111011111111
1111111101101101
1111111001010001
1111111011101001
1011011
1111111110000111
110111000
1111111111010010
1111111111101011
1111111111001101
110000
1111111011010001
1111111011110000
1111110100011111
101110
1000100101
1110100000
11101100
1110101111
101011
1111111011111000
1011011100
1111111010100010
1111111010011100
1011001001
1100001001
1111111111111110
1111110101001001
1111110011011101
1111111000010101
1111110001110001
1111110111011111
1111111111001100
1111111101111101
11111011
1111
1000111
11010111
1111111011001111
1111111001001100
10000101
1111111110000101
1111111100111001
1101111
1010010010
1011001011
1110111001
100111010
1111111001011111
1111111000100110
1111111100000111
1010010
1001010111
100000110
1111111010000011
1111110100011100
1111110010100011
1111101110101101
1111110011000110
1111110101101010
1111111000000100
10011111
111000000
101101
1111111001100101
1111111110100001
1111111001110001
1111110100101011
1111111000011011
1111111110000110
10011
1111111011110011
101001000
1101110001
1010101010
1111111011100110
1111111101011101
101011
1111111001000101
1111110110001100
11100
1111111110000110
1111110101000010
1111111011010011
1111110011111000
1111101110110010
1111101001101100
1111101101110010
1111111010001000
1010001
1000010100
1010111100
1111111000110001
1111110111001000
1111110000000111
1111110011001111
1111110011110010
1111111110000010
1111111011101001
1111111011111111
110101101
10110111111
11010111
110010011
1111111011001110
1111111000101110
1111110100000000
110011
1111110101110000
1111111000010110
1111101110010111
1111101111110011
1111101100001110
1111101100110010
1111101101110100
1111111000001011
1111111101011001
11111010
1000001111
1110010
1111111000010110
1111110100011110
1111110000111001
1111110010100010
1111110010001011
1111111000111101
1111101111110010
1111110010101101
1101011010
10101100010
101100111
11111111
1111111111001001
1111111110000000
1111110100001000
1111110111110110
1111110101010001
1111101110010001
1111101001110011
1111101010000110
1111101100111001
1111101011110100
1111111001100010
1111111110010011
1001010010
110010011
110011111
10001101
1111111101110111
1111110001101101
1111101110000001
1111110000101110
1111101100010110
1111101001000000
1111100011011011
1111101100000101
1111110100010000
110000000
11011011
11011101
1111111100101110
1111110101000000
1111101111110101
1111101110111000
1111110100011110
1111110000001111
1111110100101010
1111110100000100
1111110110010011
1111111110001111
10011011101
10011001101
10100001001
10010101011
1000010100
1111111110100000
1111110011110111
1111111001011011
1111110011110110
1111111001110010
1111101011001101
1111100111101001
1111100001111011
1111011010100010
1111011101110010
1111111110010101
10010101
10101
110010
1111111101011000
1111110011000001
1111110000001110
1111101110100110
1111110101110001
1111111000110110
1111111001100000
1010001000
1001100111
10110010010
1100010001
10100000000
1010100010
100101010
1111111000101010
1111111110011100
1110100
111011
1111111010010001
1111111011010101
1111101111011011
1111100011110111
1111101101110110
1111100111010111
1111111001001110
1111110111011101
1111111101000001
101101000
101000100
1111111100010101
1111111111111011
1111111100000000
1111111001100001
1111111101100101
111010
1010011010
111100110
1011000101
1010011000
101101110
1111111010101011
1000100
1111111100101110
10100010
1111111011111100
100111
10100111
110011010
10010111
1111111101010011
1111111110110100
1111111101011001
1111110100101111
1111110100111000
1111111100101010
100111010
1101011
1110000000
11110100
1011011110
1000110000
1001111101
1110011
1000110
1111111001001000
1111111001010011
100001010
10110000
1111111011001100
1111111000001100
100010
1111111111000001
101110
1111111111111110
101011101
111111010
1001111111
101011111
111001011
1100010101
1111111011010011
1111111110011110
1111111101101101
1111101
1011000010
1111101000
1100011101
1011111111
1000011001
1111111111101110
1111110110000011
1111100111110100
1111100110000011
1111101111101100
1111110110000110
1111111000101000
1111111010010100
1111111111100000
1111110111100100
1101100
110000
1100001111
1110001111
1011001010
1100010111
1101011010
1001001011
10001101100
101001011
10010001
1111111100101100
100011101
1110011001
10011100001
10011011111
1101011011
10001111100
10110000
1111110111100000
1111101010101001
1111100010100100
1111100110001111
1111101100111010
1111101110101010
1111110111001111
1111111111001110
1111111110101111
1111111111101101
1111111101111000
110010000
1101011111
1000100101
1010111111
111000110
10000111001
1111111111100111
111110
1111111101011010
1111110111010101
1111111001100011
11011111
1000010010
11110101111
11010010001
10000010011
1011000010
1111111011001001
1111110101111101
1111110110010101
1111101101100111
1111110001111100
1111110000010111
10000000
101010100
110111011
100111101
1010101010
10001010
110100000
1001010100
1010100001
110110101
11001111
11101101
10110100
1111111010001001
1001100
101111111
1111110101010011
1000011001
10100000111
10001101100
111000110
1010001011
101011
100000110
10101010
1111111011110110
1111111110001000
11100100
100000010
1000111011
1110111111
1000111010
111101
1011011110
100011011
1100101
101011011
11110110
1111111111010011
1111111110001011
111110000
10000000
1111111111001100
1111111101111101
1111110110010110
110110000
10111011100
1111100000
111001010
10001100
110100
1010111001
101100111
1111111111111001
1000110000
110000100
101011011
1101110011
10111010
1001011001
1001001001
1100010111
100000001
110000110
1111111011111100
101111011
1111111111011011
1000011111
1111101110
110101101
101000101
10000011
1111111101000111
0
10000100100
10011
1111111011100101
1111111001100111
1111111101001101
1000100001
110010000
1001011011
11011101
1111111110011100
1111111111010011
110000011
11111101
1111111000010111
1111111000000001
10100000
1111101
1111111010111001
100100001
111000010
1001001101
110100001
101110100
1010111100
101011
1111111111101010
110011010
111000100
1100100100
1111010
1111111100000110
1111110111010111
1111110110010100
1111110110101111
1111111111011011
0
1111111111101001
1111111011001100
1111111001011111
1111110111000010
1111110111111001
1111111011001000
1111111010110111
1011000
10110
100010
100101010
1111111110111000
101101110
101010110
10100100
1111010001
1111111111011110
1001011
10101000
1001001010
10011011110
10000000100
111111001
1111111011001001
1111111001100100
1111111111000001
10010110
100101010
100101
1111111111100111
10110001
1011
1111110101100010
1111110110001100
1111111000110010
1111111001000100
1111110111011111
10110
1111111111100000
1111111110010111
1000101
1000100101
101001111
1110000000
100000101
1111111110010101
1111111011010001
10111011
1011100101
1110011101
111010011
110111111
10011101
10000010
1000011101
1100010001
1111111110000011
1111111100101111
1111111111010100
1001000
1111110010101000
1111110110011011
1111111100101010
1111111110000100
1111111100011011
1111111100100110
110001010
1100111110
1100010111
1000101100
1111001000
110011011
11100110
10101000
1111111011101111
1010110001
1111111100111100
1111111111100011
10110000
1010100010
1001110000
1000000010
111011010
1111111111100001
1111110111101101
110000
1000000
1111111001111100
1111111100000001
1111111000110111
1111101110010011
1111110101110110
1111111011011111
100110100
11101100
111110100
10001110011
11011011
101000111
11101111
1111111101001011
1111111100001010
1111111110111001
100101011
11001001
1111111100010101
1111111000101010
1111111000100101
1111110110111110
1111101000010101
1111101001111011
1111110100101010
1111110001000100
1111110000101000
1111101100110001
1111110000110110
1111110010111101
1111111000100001
1111101101011110
1111101111010000
1111111000010101
111101111
1010100
1111111011000001
1111111000111110
1111110111000000
1010100
1111111111101010
1110011
1010
1111111101110101
1111111100100110
1010111
1111111001110010
1111111100100101
1111110101000110
1111110100001110
1111111001010110
1111111001111011
1111110110010101
1111111011101000
1111111000010001
1111111010110111
1111110001001011
1111111010010001
1111111001101010
1111110100011101
1111110111010011
1111111001000101
1111111100100001
1111110100101011
1111111010101110
1111111111011000
1111111101001000
1111111101000010
110001
10010111
