1111111111011111
1111111101000010
1111111011100000
1111111101110000
11100000
1111111101101111
100111
100011100
100000
1111111100001100
100010100
1001111
1110100
1111111111010011
100010111
1111111110110111
1111111101001111
10101010
1111110
100010
110100
1111111110100111
100111101
1111111100000101
1111111110100001
10011001
1111111101100000
1000
11111100
100000111
1111111110110010
1111111100110010
100100110
10110010
1001110010
1110011100
110011001
11110010
101111100
110010110
100010000
101110110
11100011
1001111110
1010001111
100100011
1100011001
1100000110
110001000
101101111
1011110111
1001111110
1000011
100110001
1111111011011101
10111010
11110010
1111111101111110
101011011
1111111100001011
1111111101111110
100111111
1100010100
1100000010
10010111110
10010111111
10011100101
10100100100
10110000110
111100101
1100100011
1001111011
111010000
110010001
1100110000
1010010011
1100101101
10001011001
1100011110
1010001101
1101010011
111101101
10101000
10011100
1111111100000011
1111111100110010
1010010010
110110111
1000111111
101011010
1110011111
1110001110
10001010001
10011011100
10111010000
1110011110
10010110000
10111101110
1110001100
1100101111
10000110
100011011
1000001011
101110100
110110
101000110
10100010
1001000011
1100011110
1111111101001011
101000111
100000101
100111
1111111001010100
11111011
1111111100110100
11001001
111100010
1110101101
10100111
1110101011
1100101011
1010100000
111000101
1110010
11100011
1000010101
1011101011
10100011
1111111111011011
110110001
100001
1111111010001110
1111111001011110
1111110100010101
1111111111100000
1111111100100011
1111111010010000
1111110101001001
100011100
1111111101110100
1010101
1000010011
1111111101101110
1011101000
101111011
1000000001
101101000
100101110
11001111
10
1111111011001100
1111111100111100
10101010
1111111111110101
100100110
1111111111000101
1111111000001011
1111111110001010
1111111001001101
1111111000111111
1111111111101010
1111110110010011
11111010
111101011
1000011
110100110
101110010
1111111110111111
100001001
1111111101110111
100110111
111001101
1111111111010111
1111111100000101
1111111000101110
1111111001111100
1111111100000110
1111111000001011
1111111101100111
1111110110000110
1111111000111110
1111110111101110
1111111100111010
1111111001001011
1111101111001111
1111110100011110
1111110100000010
1111110010111110
1111101001111000
1111110010101001
1111101111111100
1111111100001010
10011000
1111111110000111
1100110
11010011
110111011
1111111100100101
1111111011100011
111000001
1111111100010101
1111110110001001
1111111000000100
1111110101110010
1111110011100010
1111111000011011
1111111100010010
1111110010011001
1111101110001100
1111110011100111
1111110001110010
1111101111000011
1111101110010000
1111100111110001
1111101001101110
1111101011011100
1111110000011011
1111101001011011
1111100000000101
1111110010100111
1111111010001100
1111111101111100
100110001
1111111101001101
1101001000
1111111111000001
1111111000000111
11011100
1111111110100110
1111111011010100
1111110111010110
1111110111110110
1111110001100101
1111111111001100
1111110111100101
1111110011000010
1111110100100011
1111110011101110
1111101111011101
1111101000101110
1111101111101100
1111101010110000
1111101111001010
1111110000100011
1111110000110110
1111101101100011
1111101011010100
1111100101110101
1111110000011000
1111110111101010
1111111010001110
1110110
1111111111010110
1111111001010101
10101011
1000011011
1111111100011110
1111111000001100
1111110100000001
1111111001001000
1111101111011101
1111110101100101
1111110010100000
1111110001010000
1111101101110111
110101
1111111111011111
1111111010111100
1111110100001001
1111110001000101
1111101101110011
1111111000001101
1111111110001000
1111111000010011
1111110011111000
1111110000011011
1111111110100011
10000101
10100110
110111011
10010011
1111111110001001
111000010
101010010
1111111010101110
1111110110101101
1111110110011100
1111111000110011
1111110001010001
1111111001101000
1111110000000011
1111110001010110
1111111001111110
1000100010
111000000
1010111
1111111011011101
1111110000011111
1111110111110001
1111111111111001
10010
1111111101101111
10101101
101101000
1100100100
1001100010
1111111001001101
1000100011
1111111100001011
100100110
100010000
1111111101010111
1111111000010011
1111110100011000
1111110001001010
1111110001111100
1111110001010011
1111101111001011
1111110000011001
1111110000010101
1111111000101000
1010011000
10100101
11011001
1111111001101000
1111111001111101
1111111101001011
10001101
101000110
1111111101010111
101110000
1100100000
1110000001
1111110111001111
11011101
100001000
1111111001100001
11010011
1111111110101100
1111110111110011
1111110001100110
1111101011001110
1111101101111010
1111110110100010
1111101011111001
1111110001110010
1111110001110000
1111110101010010
101110001
1010011011
1000011101
1111111111000100
11100101
111
1111111110100101
1111111100100000
10111111
1111111101000100
100111011
111010101
111011101
1111111110010000
1111000110
110101010
1111110110100111
101001100
11010000
1111110100100001
1111101100010010
1111101101011000
1111110001010010
1111110001100001
1111101111100111
1111111001111011
1111111001100011
110110100
10100010111
10010011000
101011101
1100001010
1111111110101011
1111111001001011
101001000
1111111111011010
1111111111011111
1111111101100001
1100011111
1110001110
1001000010
1111001000
111110111
1100100
1111110111111111
1111111011011100
10000100
1111110010101000
1111110100000001
1111111000101110
1111111001110011
1111110111010111
1111110111001000
1111111000110101
1111111111110011
1101001010
1101000111
1111001110
111011000
1101010010
1111111000110010
10000110
1111111110111101
11100101
1001010
1000101100
101011011
111001111
1010011010
1101111000
111101011
1111111110011010
1111111100000010
1000011011
1011001001
1111111100000100
10001100
10110110
1111111010101000
1111110111101110
1111111100010001
1111111001110000
111000
1101100010
10001111001
10101011010
1001001011
101000101
11001001
101001100
110100001
10110011
110010100
11110100
1000011111
10000011001
10110000011
110010010
110011100
100011000
1111111101101100
10110110
10101000111
1110000100
1100100100
1100111101
101011
1111111001001001
1111110111000010
1100001
1011110
111000100
1111000111
10010010101
101110010
11000001
101000
100000001
1000001101
111001110
1000010110
1010011001
1111110
1101110100
11010110100
10101101011
101010110
110110
1111111101000010
11101010
10001101101
1111111010
1010110111
1110100110
100101001
101001111
1111111110100011
11001011
100100101
1111111100101100
11001110
111110111
101001111
11111101
1111111111111000
101100010
110101
1010100
101110111
1100000
11110011
1011100011
11000001110
1100010010
1111111111100111
11100111
101100001
11000
11000101000
1110010000
1101111111
110001110
1100001110
1001010101
1101100
111011110
1111111101110011
101000010
1100011110
1100000011
10100111
1010100110
1100101101
111010001
10110000
1111111010001011
101110110
100001100
111001011
10000110100
100000100110
1001100010
10000100010
10011000
1111111011111011
1001000
10001110001
1010110000
1111111101000010
1100100101
1010111101
1101100100
10010010000
11100010
101110101
11010100
110000101
11100010
1010110110
1100101001
10000000000
100100011
1111111011000100
1111111000110011
1111111011101001
100001011
110011111
111000100
11011101011
1101110001
110110001
1111111111111011
1111110111110111
1111111101111010
1101010000
1000110000
1001011101
1100111100
1111011110
10100110101
1001101101
1011010010
1100100111
10000111
1101011
1001100100
100101001
1100010101
100011011
1011101110
11101111
1111111011110010
10101010
100
1111111100100000
100110100
1010110001
110010000
1111111111010011
1111
1000010000
1000111011
10101100100
1001000000
110010000
11000111
101000010
1000110110
1100101110
10000010110
11010001
1000010010
101010011
1001110101
1000111010
1101100
111010001
101111100
10000101
10000011
1111111110011011
1111110101111110
1111111100010101
100111111
10001010101
1110110
1111111100101101
1001011
1110101
1100101101
1011111101
1110101111
1010001110
1111111011101100
1111111010011000
100001100
10110011
1111111110111101
1111111001011111
1111110101101010
1111110101111111
1111110001100011
1111110010110010
1111110001101110
1111111001110111
1111111101010011
1111111110000000
10001000
1111111001011011
1111110100101010
1111111001111101
1111111010011000
10100100
1111111011111111
100001101
101000101
111101
111110000
1110
11011011
1000011
1111111100011111
1111101101000010
1111110011111001
1111110101101001
1111110000010111
1111101101000100
1111110001001010
1111100101010100
1111101001111001
1111101100010001
1111101001111001
1111101000010110
1111101101100111
1111111001100010
1111111110010011
1111111001101011
1111111000101100
1111110100011101
1111111010001000
1111111110101100
1001010101
11110110
1111111111000000
10011
1111111110000110
1111111000011011
1111110001100011
1111111000110000
1111110010110001
1111100110001001
1111101001000001
1111101011001101
1111101101000101
1111100100001100
1111101101000101
1111100011100000
1111100011010111
1111101000101001
1111100110001010
1111101000110101
1111100111111001
1111101000101000
1111111000110011
1111111010111000
1111110110010100
1111101001111001
1111111101100100
1001000110
1011010
100100001
10001011
1111111101110110
100100
1111111001011111
1111101011110111
1111101001110100
1111101111101101
1111100110101001
1111101000011110
1111100100101011
1111101001010111
1111110001101000
1111110000101000
1111100101111101
1111100001011010
1111100010101001
1111101000110100
1111101010111011
1111011100101000
1111101011010011
1111110000001111
1111110001110011
1111110010010110
1111110101010100
1111111101000111
111100000
100110111
1100000
100001010
100011
11010111
1111111110111000
1111110110100011
1111101111001000
1111110110001110
1111110000100101
1111110100000000
1111110011111000
1111110111111101
1111110100011110
1111100111101010
1111100110101111
1111101100101011
1111101010100110
1111110001001111
1111101101010000
1111110111101101
1111111001100100
1111111101100010
1111110100010010
1111111100011100
1000111
1111111011001010
1111111110110001
1110100
1001011
1111111111001001
1110101
1111111101010100
111100
100101010
111001010
1111111100110100
1111110110001010
1111110100100100
1111111110011101
1111111100101100
1111111000100011
1111110011010100
1111110100001100
1111110001111101
1111110101101011
1111111101110110
100
1111111001110001
1111111011100101
10001
100010011
1111111001111100
10110010
10000110
10000100
1111111011011000
1111111011101000
