10
100110010
11100111
11010111
1111111111011000
1111111111000100
1111111110110110
1111111111001000
11000010
100111100
1111111011101001
1101011
1111111101010111
1000100
1111111010100100
1111111100100000
1111111111110010
100100001
1111111101011000
10001010
1111111011110010
101110
10000000
1111111111111111
1111111110111011
1111111111111001
1111111100110100
11100100
1000000
10000
1111111011000100
1111111111110000
100110101
11010001
1111111111001111
10100000
1111111110110011
1000110
11101
100000010
100111001
11011011
1111111001011000
1111110101101001
1111111110100011
1111111001111011
1001110
1111111110001011
10110001
110101001
110010
110110100
1010100
11110110
1111111101000111
100111001
1111111111110110
110100
101011010
1010101
1111111111111110
1111011
100100100
110110111
110001100
10010110
11100101
1001111111
1110000001
11110110
101101111
11010000
1111111111000110
1111111100011101
1111111101011111
1111111111010101
11101
1000111100
1010111001
100000
1111111011100101
1111111101000010
1111111101110110
1111111110001100
1111111011101101
11111011
1111111001110011
1111111011001000
1000111
1000000111
1010011111
100000110
1111111011001010
1111111101110100
110101011
1111111111011100
1111111010100000
1001111
101011011
11000110
101
1111111000001011
1111111010000001
11010010
1111111011101000
11100100
1100000100
1010110010
10010111
10101001
110100110
1111111111010011
1010001
1111111011011001
1111110010110111
1111110100110001
101001000
111010011
110000111
1111111100101110
1111111010000000
1111111110010000
1111111000100001
1111110001011100
1111110110001101
1111111010100100
1111110000011000
1111101100111001
1111110011010110
1111111100010001
1111110110111001
1111111111000011
11010000
10101001
1111111101111100
1000011100
1111111011001101
1111111000000100
1111110011110101
11000000
100100111
1111111100010100
1111111001011111
1111111001100010
110010111
1111111011101000
1010110
10011
111111000
11110101
1111111110101000
1111110001001001
1111101111010000
1111101010111010
1111101100011110
1111110001010110
1111101101111111
1111110100110010
1111110111000101
1111110001110010
1111101110001001
1111110101101101
1111110101011111
11100000
1111111101111101
1111110111111001
1111111101101110
11010111
1111111100011001
1111111010000110
1111111011010001
1111111000101011
110101101
1111111010000100
1111110101101101
1111011
10000011
1111110111111011
1111110000100000
1111110110100101
1111110111110111
1111110011001111
1111111100101010
1111111010110011
1111111100100001
1111111011101011
1111111100101110
1111111010010111
1111111001010110
1111110110000111
1111111010110101
1111111100000011
1111110101101100
1111111101000000
1010000
100100111
1111111100111100
1111111100100101
11011101
1111111001111011
1111110110110011
1111111011011100
1111110101100110
1111111001101000
1111110111110110
1111110110100011
1111101110101100
1111110100111100
1111110111101111
1111111101010001
1111111110010110
1111111101100010
1111110101111101
1111111101000011
1111110111110111
1111110000010111
1111111001100100
1111111000111011
1111111011010000
1111110101100010
1111111010000100
1111111100011011
1111111011111011
1111111011010010
1111111011011010
1111110111010000
111110000
1111110101000001
1111111010000000
1111111100100111
1111111001101011
1111110011110010
1111111011110101
1111111001001111
1111111100001010
1111111011110100
1111111000001000
1111111101100011
1111111100011110
11000
1111110111101011
1111101110000100
1111110010101111
1111110110110110
1111110000010101
1111110100011011
1111110010000110
1111110001010010
1111110001011101
1111111100011011
1111101111111000
1111111001010010
1111111100111011
110010011
1111111111111100
1111110111110110
1111101110111100
1111110111101111
1111111011000111
1111110110111100
10101001
1111110101011100
1111110110110001
1111111000001010
1111111000110001
1111011
1111111011011001
1111111100101110
1111110111100001
1111101110100110
1111110110011010
1111110101111111
1111110111111101
1111110101010000
1111110010101111
1111101110011101
1111101101100101
1111100010100001
1111101101011001
101001100
1111111110000010
1111111010110000
1111111010101001
1111110100100100
1111110000011001
1111111110011010
1111111110101010
11010010
1111111111011001
1111111000100101
1111111000100010
1111111011100110
1111111100111011
1111111110110011
1111111000100010
11000
1111111110000010
110
1111111111011010
1111111100001000
1111110110110101
1111110110010010
1111110100010001
1111100101001000
1111100011111110
1111101110111001
1111101100001110
1111111001001001
1111111100100100
1111110101010110
1111101111101011
1111111010001000
1111110010000000
1111111010001101
11100001
1111111111011111
10010
11100
10010111
101000110
1001011000
100000001
1111111100011110
1011000
1010101100
10111001
110111010
111010110
111010111
1000000101
1111111110000010
1111101100110101
1111100110100001
1111101001011001
1111100010001001
1111110100000110
1001101
1111111000000011
1111111110110100
1111110110101000
1111111000000111
1111111110011101
110010110
110101110
1001000101
11000111
101110101
10101001111
10010101111
1010100111
101100
11110101
1111110011
1101001100
1010010110
1100101010
1000111
101011000
110100010
110001100
1111110010101101
1111111010101001
1111110110110101
1111110111011011
1111111011110010
1111111100100010
1111110100001101
1111111010000011
1000000
1111111111011101
111010110
101001101
1001010100
1001010110
1111100111
10101010101
10000110110
1000011010
110111010
1000010001
10010000001
110110111
1001000011
11100000
110110110
1010111011
1010101001
1000101000
11000010
111111
1111110011011101
1111110111010100
1111111100001100
1111111110000010
1111111001100000
11111
1011100
1001001001
1000111010
10000001001
1101001010
101010111
10000001001
10010011011
1000110001
10110000
1111111010001010
1101001000
1101011000
111101001
1001011001
1100000101
1111111100
1011001010
1000111101
11101001
1001000111
111000000
1111110000100100
1111111100011011
1111111000111000
1111111100011101
1111111010001110
1111110110000110
1111111010001011
11001011
110000001
1110111001
1101111001
101000001
1110010010
1101100000
1111111110101100
1111111000100101
1111111101110111
10001010100
1110010001
1111010011
1011110101
1000001110
1011111101
1000101011
1100101010
110101100
1111111100101010
111010010
1111111001110001
1111111101001111
111111011
1111111101111110
1
1111110101001100
1111110010000011
1111111111001001
111001111
10010011001
1100010101
1100100
101111101
1100010111
1111111111111011
1111111100001110
11101101
1100000000
10000011101
1111111110
1101100110
1000111010
101101101
1100111001
11000100
10001010
1111111001101100
110010011
0
1111111010000000
1111111011110001
1111111011100001
1000101000
1111101010010011
1111101011011101
1111110010000011
100010101
1011100101
1100111100
1000110111
1011100000
101110100
1111111010011111
1001010
100111010
1111100010
1110111100
1011000110
111100100
100010110
11101
101101101
1000111110
1111111111111100
1111111100010101
1100000000
11001
1111111111000101
1111111001101101
1111110111101100
10001100
1111110011111010
1111111001111111
1111101101101001
1111110001011011
110111001
1010001101
1000100111
110001
1111000
1000001
1111111111011010
1011101001
1010100110
1010010000
111101
1010111
1111111010001010
1111111110111101
1111111100111100
1111111110100101
1111111101000101
1111111111011000
111110101
111011111
1111111111100001
1111110111111001
1111110110011101
101011011
1111111110001111
1111111110111100
1111101100100100
1111101100111110
1111110110011101
1111111001010100
1111110001100001
100
11100101
1100110
1111111111111000
110011
100011000
1111111100100000
1111110110101101
1111111100000110
1111110100001001
1111110100101110
1111110111100001
1111101110010001
1111110100000011
1111110111110001
1111111101011110
1111111101111001
10001100
100111110
1101
1110101
1111111010101000
1111111010011001
1111100111010011
1111100110010110
1111110001001001
1111101101001010
1111101100011111
1111110001011111
1111111110110111
1111111011101101
1100011
1111111110111000
1111111011101001
1011110
1111110011001011
1111111001011000
1111110001100001
1111101000010010
1111110000100110
1111101101100111
1111101011000111
111
1111111100100010
1011111
1111111111100110
1111111010111111
10100111
1111110111011100
1111101011111000
1111110001100001
1111101110001010
1111011101101101
1111100101101001
1111110100111001
1111110111001001
1111110011001101
1111111010011011
1111111100100110
1111111110101100
1111111011001011
1111110011011110
1111111101010011
1111110011001000
1111110011111100
1111101101100110
1111100101101110
1111110001110100
1111110001000100
1111110100001101
1111111100001001
1111110111100101
1111111100011011
110110
1011000
100000100
1111111011010110
1111110111110111
1111101110010101
1111011110001010
1111100001010111
1111101010110111
1111110101110001
1111110101100100
1111111010100001
1111110011010100
1111110101010110
1111101110001001
1111110000101011
1111101101110010
1111110100010011
1111110000000101
1111100110111000
1111101010111011
1111101101100101
1111110011111011
1111101111111111
1111110010101010
1111110111100101
1111111011000110
1111111101100110
1111111100000101
1111111111011000
100111101
1111110110111101
1111110001111101
1111100111000111
1111110010101011
1111110110110010
1111111101100001
1111111001000111
1111111010101110
1111111000011100
1111101101010001
1111110010101010
1111101101001010
1111110010110011
1111101100011010
1111110000111101
1111110011110011
1111101101101000
1111110111111110
1111110011001101
1111111101000011
1111111010101001
1111111010110010
1111111110010011
1111111000000001
1111111001101100
1111111011100000
1111111100111011
1111111100101100
1111111000110101
1111110110110001
1111111011100110
101101101
1010101001
1101100010
1000000100
1111111110010011
1111111111100100
1111111001001100
1111110010011111
1111101101010011
1111101111110101
1111110101101011
1111110101000100
1111111100000010
10100000
10100001
1101011
1010100101
10011010
110011101
1111110111110001
10100101
1111111111011000
1101100
10110110
111100
11101100
1111111001111000
10010010
1100110100
111001010
1111110110
111100101
11000100
11010101
1000111111
1111111100110110
10010111
1001110011
1111111110000001
1111111010011111
1111111000000010
101110011
1111111100101011
100001010
11110111
1111111011110101
101101010
1111111000011111
101001000
10010110
1111111100011001
10101
1111111111100001
1111111111001101
1101
1001110101
10100010101
10011010000
1010111101
101010001
1000110110
111100101
1100111
1111111101101010
100010000
110101011
10001101
1111111101111101
1111111111010110
1111111110100000
1111110110111000
11010110
101100100
1111111100110010
0
100010100
1011101
1111111011000011
100100111
10010101
101111
1110010
100101111
1111111000101010
1111111011101000
1111111110110001
1111111111010110
1111111011010010
1111111010100100
1111111000011000
1111111111111100
1101110
1111110010011000
1111111110111111
1111111101010101
1111111000101110
1111111011101000
1111111111000111
1111111111000110
11110000
1111111000101110
10000
1111111100000111
11111010
1111111100000110
11011111
1111111101111110
