1111111110111000
1111111011110101
1111111101110011
1111111100100000
1111111111000111
100101111
11110100
100000110
10
11101011
10101100
1111111111011100
100100100
101100101
100000011
1101101
1111111111001010
101000000
1111111011100111
100101010
1111111110000111
111
1111111100011110
1111111101101000
1111111110001000
110101
1111111111001110
10101010
1111111101111010
1111111111110001
100110110
1111111011111101
11100110
110000100
1100101000
1101101101
101010100
1101111110
1110010010
10010101101
1010101011
1011001010
1111111111000100
10100011001
1000111001
110100011
1010101001
1010000100
10101000
101010111
101011101
11101101
1111111101101010
1111111011101111
100000110
1101000
101001
1111111110001110
110110000
1110001
111111000
100111011
1111111000
1110100100
10111010101
111011010
1010111001
1010010011
1010101100
1000101001
1001110011
101010001
1010101011
1000000101
1101011101
10001010000
1100110010
1101111001
1111000111
1000001110
1111111111111100
11001
1111111100011000
1111111011011111
11101110
1111111100001110
10111000
1011100111
1111111110000110
110010010
1010001101
1000001110
1011011000
110010000
11011001
100011100
1111000100
10010010111
111011011
1001000101
101011
111110011
111001110
10000010
101110110
101001111
1010110101
1100101100
1110101110
110100100
11000111
1111111100010101
10100001
100010010
100101
101110001
10110100
11011010
1111111110011111
1001101001
101100101
110001100
101001000
101110000
111010
101111100
1011010110
1101111001
110000001
1011011110
11110010
111100010
1111111101111011
101011100
100011000
1111111111101011
1111111101011110
101101010
1110011101
1101101101
11010001
1110010
10101111
1111111101010100
1111111100101011
1111111000100110
1111111100111000
10011
1110101
100111001
110000111
11111011
1011100101
1011111101
111000011
111001101
11110110
111010111
111101100
10001000111
1100110001
11001001
110001001
1011010
101000010
1001100001
1110001110
1100011010
1111111110010101
1001101110
1111111101111101
111110100
1110001
1111110110001110
101100010
100010011
111100011
1011010011
1011100100
1100000111
101110011
10001000
111011011
100100101
110000111
11111110
111
1100001
1000010101
110111
1111111110110000
1111111111000011
101100110
101111010
1111111001101001
1001100100
10101
101001111
1111111011010110
100001111
111001100
1111111101111100
100
1010001101
100111011
11101011
111001100
1001000110
1111111101110110
1111111110100000
1111111010101110
110001011
1010111
1100110
1001000001
10101
11001000
1111111111001011
1111111110001001
11101111
1111111101100110
1111111001011010
1111111000011111
1000001001
11000110
1000100100
1111111101010000
110100011
1000111101
1001000101
100101110
1101110111
1011100100
1001011110
110011111
1000010
1111111111000110
10101100
1110110
1111111111110001
100011000
1000110001
101010111
10010001
1111111110000010
1111111011110111
1111111000010101
1111110111010000
1111111110111010
1111110001000111
11011110
1010001001
110110111
100000110
1000100000
111001010
10011110001
10000101000
1110011001
1100001001
1001001
1111111111010001
1111111011101111
1111111100000110
1111111101101000
1111111101000100
1100011
11110
1111111100110001
1000100
1111111010101001
1111111010110101
1111111010101001
1111111011010111
1111111100010001
100000000
10100110
111101001
10101010
1111111011011101
10010000
101011000
100110101
11010100
10010100110
10010000111
1000100110
111111111
1111111111111111
1111111100101000
1001001100
11110111
1111110111111111
1111111110100000
1001011110
1111110110101100
1111110111001100
1111110111100111
1111111101001110
1111111000111001
10100011
1111111111100001
101101111
1010001000
11111100
1111111010111001
10001110
1111111101000001
100010100
1010111110
10000011001
1100101111
10001101101
10100011100
1011010
10001011
11111100
110011111
11011000
11110010
1111111000100101
1010101110
111100100
1111111000010111
1111111000100011
1111111101100000
1111111011010110
111111
11001101
100100010
110100010
1110011101
10101010110
1111111101001100
1101011000
10001000100
1111111101111111
101011100
1111111001
10000100110
1111001110
1011101011
1010100001
101101000
1111111100011010
1001000
1111110101011110
1111110101010010
1111111000101011
1111111110000001
1111111001011111
1111110011000010
1111111000100111
1111111100100101
1111111100100011
1111111010001110
1111111001111000
111001101
1001100000
10110110001
10011101100
1111111111100110
1111110110000111
1010100101
1000010011
110101010
10000110111
1100011100
110101000
10101110
1111111010111001
1111110011011111
1111110101111100
1111111000111111
1111110010110011
1111101011000100
1111110101001110
1111111000000000
1111110111110100
1111111101010010
1111110101010111
1111110111001001
1111111011011001
1111111100101110
1111110111000001
1111111011011110
1111111111110010
10100001010
1101101000
1111111100000101
1111101111001111
1111111100010101
1111111111111000
100110101
1011100000
1111111101101000
1111101101110111
1111111011011110
1111110100101101
1111101110110010
1111110101100110
1111110010111111
1111110110110111
1111110111111000
1111101110111011
1111111100010111
1111111110001001
1111110011001101
1111110010010111
1111110110011010
1111111000101111
1111111000000110
1111110101100101
1111111101111001
1010011000
1010001000
110100110
1111111000010011
1111111000110101
100000010
100111011
11100100
1010110010
1111110001111010
1111100010111000
1111110110100100
1111101010011100
1111110001000011
1111110011010001
1111110110111110
1111111011000001
1111111000100100
11110001
1000100100
1101101
1111110001111110
1111101101110010
1111110000110011
1111101101111101
1111110100110010
1111111110000000
1010001100
10100100
1000110111
1011011011
110100
1111101110110111
1111111101001000
101010011
1001000001
1001111000
1111111001011110
1111101001101111
1111101111001100
1111100110101010
1111101101110000
1111110010010001
1111111110100000
101010001
10111
1101010
110101011
11000001
1111110011100011
1111101011101101
1111101101010100
1111110000101000
1111110110011111
1111111011101000
1111111110101001
1100110
110110000
101110001
1111111001001010
1111101011110010
1111111011001110
1111111100011010
110001001
1010111
1111111100000110
1111101100011101
1111101010101101
1111100100110001
1111100111011000
1111101101100110
1111111010000101
101001010
10110100
1111111101101010
1111111110101110
1111110011110101
1111101010101010
1111110010110101
1111101101000110
1111101111100100
1110010
10000011
1111111111110000
10001001
1000011
11001101
1111111010110100
1111111000011111
111101
1010110
100111011
11011101
1111111111101000
1111101100010111
1111100110100000
1111101111000010
1111110100010110
1111110101011101
1111111101010001
1111111101110110
1111111011100111
10100100
1111110100110111
1111101010111000
1111101001000101
1111101111111111
1111111101111001
11111101
1000101
11101111
1111111010101001
110011000
1111111011001000
1111111110010111
1111111101000100
1111111110001100
1111111101100010
110100
1101101010
1000100100
1111110101101110
1111110010000100
1111110010101110
1111111011010100
1111111101110100
1111111010100110
1111111001000100
1111111111101111
1111111011100101
100001
1111111011000010
1111111010100100
1111111101111110
1111111110110001
101010100
1010101001
10101111
1011
101011
101111101
1111111100000010
1111111001000011
1111111111011011
1111111001101000
1111111011111010
1101110
1001000011
1111111101000101
1111110101000110
1111111101000111
101100011
111000010
1011111110
1000011110
1000101100
111001111
11000010
10000011100
1010101111
1110101010
10000111111
1110011110
1001111001
1110111101
1100111111
1011100111
110110000
110110000
1110111
1111110100001111
1111110000101011
1111111010110110
1111111111110001
10000111
1111111111010000
1111111010101101
1111110101010111
11111011
1010101010
10111010011
11011101001
10100010110
10010010100
10001111000
1111110001
11001001111
11001111000
11010001110
10101010000
10010111010
10100001010
1111111111
1111101011
10000011101
1101100
110110101
1111111100000101
1111110101011101
1111110110111000
101100110
1111111110110010
10000001
100001
1111111100010110
1111110110101011
101110010
11010101000
11110001001
10101111001
10111001011
10011110011
10110010101
10010100111
10100110010
10011010011
11010100001
11011001101
10011011010
10001110011
10001110010
1010001000
1110111010
111010010
10101101
1111111011101101
1111101010110011
1111111000110100
1101100
1111111111010110
1111111100010011
1111111101000110
1000100001
1111110111100011
11000001
1110000111
1100011100
1000011010
1101110000
10001001100
1000110111
10000111001
1110001000
1111110110
10011101001
10110100001
10011011100
10010011000
10010110111
1000010101
110000011
1111111101000100
1111111011101011
1111111101000111
1111110110011101
1111110101111110
1111111101001010
1101001
1100101
1111111101010000
1010100101
10011011
1111111000010101
1111111100001100
1111111011001111
1111111000001010
1111111101010011
11111110
11110
101101011
1110000001
1110011101
1001110100
10000001000
110110110
1101011110
111001111
111010011
1111110111101001
1111110010011010
1111101010101010
1111111010101101
1111111110000110
1111111010000100
1111111101100110
101000001
10111010
1111111111111011
1111111111010010
1111111100101101
1111110001000000
1111101111111010
1111111000101111
100000110
1111111111101111
111000111
1111111111001001
1111111100001111
111011110
101111
1111111110011110
10001000
10010001
100000111
10010
111000001
1111111000100111
1111101011111101
1111110001011000
1111110110100111
1111111101011100
1111111011101010
1111111110111001
1111111100010100
1111111111000110
10011111
100001001
1111111100011010
1111111010101000
1111110001101001
1111111001101110
11110100
100111001
10001110
11000011
1011100100
10111011
1111111111010110
1111111110111011
1111111001001110
10101100
101101101
110010001
110101000
1111111001111110
1111111100100000
111100111
1111111111000101
1111111111110111
1000010000
1111111100100001
11000001
10101010
1111111101101001
1100010
1111111011011101
100001010
1000110010
100010001
1010101101
110011010
1101111100
10111001111
1001000100
1011111111
10110001010
101010100
100011000
101011001
1000010010
1111111111011110
11101011
1111111111111001
1000011010
111011101
100011000
1111111100101010
1111111011001010
1111111100000101
1111111100010000
