101000111
100010100
1111111011010010
1110011
10000111
1011110
1111111100101101
1111111110011001
1111111011110101
1111111100110001
1110101
100111001
1111111011000000
1111111101001101
100100001
1001010
1111111011100110
100100111
10010000
1111111011100011
1010011
11110011
1111111100101010
1111111100000110
1001110
11001000
100011100
1010011
11100100
1111111101100011
1111111111111001
100110010
1111111111100001
1111111001111011
1111110110111101
1111110111101100
1111110100000010
1111110100111001
1111110011100111
1111111000001011
1111111100001101
1111110110011110
10001111
1010101110
100110111
1111111010000001
1111110111001101
1111110101000110
1111111000111101
1111110101011101
1111110110000010
1111111000101011
1111111101010001
11111101
1111111111110100
1111111011000101
1111111100100111
1111111100111100
1111111011011010
100100
1111110101001010
1111111101011011
1111110000100010
1111101011110010
1111101101011011
1111111010100010
1111111000110111
1111111000111000
1111111011101101
0
1111111010000010
111100
10100001
1111111110110100
1111110011100100
1111110001011101
1111110110101100
1111110111001111
1111110010000110
1111111001100010
1111111111010100
10000111
1111111100110001
1111111100110000
11110100
1111111100100011
100100011
1111111011110110
10011001
10111100
1111110110110000
1111111100100101
101111
11101000
1111111100111101
110000100
111010111
100111101
101111111
1001011
1111111100100111
1111111001000111
1111110101100101
1111110101110110
1111111001001101
1111110111000101
1111111101000001
1111110110011101
1011001
101010100
1111110111101000
1111111111110111
1111111111011001
10100101
1000101011
111100101
1111111010001100
110101100
111100010
1110110111
1000101000
1000010001
1001101100
10011000100
111011010
1100011100
1000010110
1011000010
10101010
1111110011101011
1111111101100101
1111111011011101
1111111010000000
1111111111111101
110101010
1100110001
11100011
100000010
1111110010000110
1111111011100110
110100
10000001
1111111111000010
1011001010
1111111111001110
1111111111100100
1110
111101
10101110
1111001
1011001110
1111111101111001
1111111110100010
11010
1111111100001100
11001100
1011111101
111010101
110001111
1100110011
1010101100
1010010011
11010000100
10000010111
1001011100
1111111000110101
1111110100100011
1111110100101110
10100111
1001010010
1111111011111110
1001010
1111111011011001
11101111
11011100
10110110
1111111000010011
1111110111001000
1111110110001010
1111110101000111
1111110010000111
1111111000101011
1111111101000001
1111111010001001
10000
101001010
1100110000
111111011
1001101001
1001010100
101101001
101101011
101111100
1111111100111011
100101110
1111111110100010
1111111001110100
111001110
1111110111000110
1111111011011101
110011
110001100
1100011
10111
100000110
1111111000110111
1111111000110111
1111110000011111
1111110011111100
1111111011001100
11111
1001110
1111111111110010
1001101
111101111
10111011
10011110
1111111111000011
1111111100000001
1111111000100100
1111110111001001
101101010
1111111011110010
1111111011110100
1000010110
1111110111001000
1111111101010110
1111111100100010
110111
1000100
1111111101011001
10111110
1111111001111100
1111111010010101
1111111111100001
1111111101000110
1111111010111111
100011100
100000100
1011010101
11011011
1110010011
1000100
1010100011
11010001
1111111111111011
1011010
1111111100000000
11111
1000100
100000110
1111111111100100
1111111010111110
1111111100000101
111111010
100011000
100001011
1111111111001101
1111111111001011
1111111010001111
1111010
1111111111000000
1111111010011100
1111111001010001
1111111001010000
111000111
100000000
1111100000
10100000111
1010010001
100011110
1111111011000100
10011000
1111111001111001
1111111101111100
10011010
1001010000
10001001010
111001110
1111110110110010
1111111000111000
1111111101111100
1111111110011110
10101010
1110111
101000011
1111111010010100
1111111100111000
1111111110010001
1111111101110101
1111110110100001
1111111100011010
1101010
101111001
111011101
1010011011
101110000
1000001101
1111111101110100
1111111001001000
1111110111101000
1111111101010000
1111111111011111
1000011100
1110111010
11101100001
10111100011
100
1111111010100110
1111110111000011
1111110110101101
1111111101011011
1111111011101000
1111111111011110
1111111111100100
1111111000110110
1111110101110011
1111110001001101
1111101111000101
1111110111011011
1111111011010010
1111111011010010
101001101
1000001101
100010010
1111111110110000
1111111011010000
1111111100101010
1111110100100111
1111101101111110
1111110011010101
1111111010110100
110101111
10101100100
1011010101
101110100
1111110101110110
1111110011110110
1111111001010101
1111111010101101
1111111100000110
1111110111010110
1111111100011000
1111111000100010
1111101100110011
1111110100000000
1111111100110111
1111111000101000
1000111101
1000100010
1000010111
10000010
1111110110100100
1111111010110001
1111111011110100
1111111110011101
1111110101110110
1111101101000111
1111101100010010
1111100101110001
1111110001001110
11110110
1110111001
1111111101000101
111111010
1111111100110111
1111110001111001
1111111001101100
1111111011001110
1111111011000101
1111110100111000
1111110001011010
1111110100010010
1111111101100111
1111110110100100
11111011
1011010010
1000010010
1111111111111111
1111111010100000
1111110101000000
1111111101001001
1111111001010100
1111111110011101
1111110010001100
1111110000000110
1111101001000011
1111101001010011
1111110001110001
1111111010100100
10100111100
1000101011
110110010
1111111101111100
1111110100100011
1111111000010101
100111101
1111111010000011
1111110010011110
1111111111000111
10001000
11101101
10011110
1111111100111000
11101010
111110100
1111111101111101
1111111000101000
1111111000101001
1111110110101100
1111111001111100
1111111100111001
1111110100100000
1111110111011000
1111101010111011
1111110110101001
1111111100001100
1111111110001100
10010011001
1000011111
111111111
111011000
10001111101
10001100
110101010
100101010
1111111110100111
111000110
111010101
1110110010
1111111111110111
1111111100111011
1111111100110011
101000111
0
1111111010001011
1111111101101111
1111110011010110
1111110100101000
1111111010101110
1111111000101001
1111111011001000
1111111010111011
1111111100100011
1001010010
1010000100
11000101010
1100110001
1111111100000001
1111111110111110
1001000101
10011000000
1011000000
1000111101
1111111110110110
1001010100
11001000
101100000
1111111111111111
1111111000111111
1111111001011101
10010011
100111010
11100
1111110110001011
1111110101010010
1111111000111100
10101
101000011
1011000101
1010000101
111011100
110010000
11111011
100001010100
1001110010
1111111100100101
101010011
101001001
1111000001
1100101100
10001011011
10001010001
1011011010
1100011110
1111111110100100
1111111001100001
1111110110001001
1111110101110100
1111111101000011
11101011
1111111111001011
1111111001101010
1001100
1111111110000001
1001100100
1011011
10001000010
1011000101
1100010101
1110010
1111110110010000
1011101100
1100010000
1111110011111000
1011110
101111110
10100100101
10100010110
10110000001
10100100010
10110011011
1110011111
1111111101001001
1111110000101101
1111110001010111
1111110110011110
1111111100000110
11110000
101000000
110111000
1011000
111001100
110010111
1101110101
1110100001
10010000010
1100110011
10111111
111110
1111111100111010
1001010111
110000011
1111111001000100
1111111110110010
11100000110
11111011110
11101010010
10100101011
10101010101
1010100010
1111111100100011
1111101101111011
1111101111110110
1111110000010110
1111111111100011
10011001
1101000000
1010101011
110011100
110110
10100000
1111110111
11000001101
1100111101
1101101101
1100100000
1011010011
1001001111
1010000110
1111111111110111
1111111111000110
1001001100
11100000010
100010111011
100000110110
11100110010
10110011010
1111011001
1111111011000110
1111110010101010
1111111101011110
1111110110000111
1101
1111010
111000110
10001101111
1011011001
1110110110
1100010011
10101011110
11100000111
10001100011
1110010101
1111111111000111
1000011101
1010011011
11010100
1111111101001111
1111111100111011
111100110
10001011111
11110000101
10001000000
11010010011
1110101100
100000010
101111
1111111001101000
1111111011011100
1111110111100001
1111111001110000
1111111101001000
1010000100
110000100
101010100
111101110
10000010010
10100010111
11000110110
10110111100
10000101110
100100110
1011000011
101110100
1111111110111010
1111111101001101
1101001
1001110011
1011101011
1101111110
1110010101
10000011110
10000111001
1000110001
110001
1111111111010111
1111111101100011
1111111000000000
1111110110011001
1111111101000001
1111111111000010
10100010
100011100
10010100111
10100110110
10110111110
10110010010
11010001110
1000101100
111010100
1100100011
1101011110
10111100
1111111110010100
0
1100101101
1111111110
1011000100
11110000
1100001100
1010010000
111000101
1111111100
1000000111
101111001
110001
1111111001100100
1111111011010100
100010001
10011011
1000111000
10000111110
1011100100
1100100001
1100100001
100011000
1111111111101001
1111111101101101
1011000010
1110010110
1111111101001011
11011001
1111111101110011
0
10111110
1111111011010101
1111111010111100
1111111010100010
100100101
1111
111010110
1111111100011101
1111111110101011
11001110
1111111100111101
10111000
1111110101101111
1111110110011001
110111
100111111
1111111111001010
1111111110000101
1111111011011000
1110101
11111000
1010111001
110111101
11111110
1111111111001010
1111111111001001
100000110
110100010
1111110110011111
1111111000011011
1111110011000111
1111111001101111
1111111000110001
0
1111111110010000
1111111000101101
1111111100001011
1111111011000111
1111111111110110
1111110110100001
1111110000101011
1111101101101111
1111110101010100
1111110101010110
1111110110000101
1111110100000000
1111101110010110
1111111001111110
101010101
1011011
110011010
101110011
1111111110011001
110111
1111111101111000
11011111
1111111001011011
1111111111100011
1111111001001101
1111111010010000
1111110100011100
1111100101110011
1111101000010111
1111101100100000
1111101111000011
1111101000000011
1111101101110110
1111011100110100
1111101001011101
1111110100000010
1111101100011011
1111110001001101
1111110111101000
1111110010000101
1111110100111001
1111110011111011
1111110111000011
1111111110101001
11010110
100001010
1111111011101100
10100110
1111111111001110
10001111
1111111011100100
110101
111
1111110100001101
1111110110110111
1111111000010110
1111110001000011
1111110001111010
1111111101000000
1111111100110010
1111110111111001
1111101011001111
1111110101001110
1111111000011101
1111101101101010
1111100110010101
1111110101111100
1111111010111001
1111110011111001
1111110110111100
1111110101010110
10010010
1111111101000111
10010
1100011
