1111111011010000
101001001
10011100
1111111110011000
1110
1101101
100110100
1111111100101111
11111
1111111101110101
1111111011100010
1111111011111001
10000100
1111111111010100
1111111111000101
10001111
11100001
1111111100010011
100110101
1111111011000111
1111111011011101
1111111111001100
1111111100101111
1010001
101000110
10010101
11110010
1111111101111001
100100111
100110101
1111111101000001
1111111100101101
10010001
11001100
101011010
111011010
100010100
10101
100010000
100111111
1100000100
101000110
100110001
10000000000
101100001
1000000
111000010
100111100
1010001100
1000011101
1010000001
11011010
1011000
1111111011111110
100001011
10010110
1111111100010000
1111111011010100
1000101100
1111111111110100
1010111111
1111111110010110
10101011
110110100
100001100
1111111011011000
1111111100101111
1111111111010101
101011110
1011001010
101111000
1011100100
1010011101
100101110
111010011
10011010011
1110100011
1010011100
1100110110
111011100
100100010
1111111011111001
11111
100101111
1111111101100101
1111111110000011
11100000
111100100
1000101000
11010100
100111000
11001101
111111
100011001
110001100
101001110
1001010110
1011100011
1011000010
1111001100
10000010111
10011101101
10011110100
10011000100
1010100111
110100010
1101010
1011010110
1011110110
1100000
101
1111111101110110
1111111101110111
1111111101011100
110111
111101011
111111011
1111110111010111
1111110001110110
1111111001100101
1111111011001000
1111111101101000
1111111100100010
1111111100010000
1111111101010010
1111111100110101
111010100
10001110000
1010001011
1110010000
111010110
110111001
1001010001
100001
1000001
1111111111100101
1001001010
101111100
101011010
1001001000
1
10101000
11011111
110001100
1111111001101010
1111101111010010
1111110010011000
1111111001101001
1111110010000110
1111110100011110
1111111011101000
100101
1011100
111001011
101011
1001100
1111111111000100
101010000
1101010000
1011000011
10100101110
10011110000
1011110111
111001000
101100000
110100000
1101110110
1001101110
1111111100100000
10100000
1111111111000000
1111111011100010
1111110011011010
1111110101100001
1111110100100001
1111110001101011
1111110011110001
10001000
11011
110000000
11001000
100010101
11011010
1000110
1111111110101011
1111001
100111000
101011010
100110101
11110
100000110
1000011001
1001001111
1011101001
1001001010
110111100
11101000
1111111111001110
1111110110111111
1111110000110101
1111110101100111
1111111110101100
1111110011100010
1111111100100011
1000101
1111111111100110
1000000110
111101111
1100111
10010101
100110010
111010101
11111
1111111001010110
100101
101001010
101100111
1111111111001001
1010010
1010111010
110011011
1100011101
1111111011110100
100100
1010000010
1111111011101011
1111110011010111
1111111000101111
1111110101000000
1111110101000101
1111111101100011
1111111100111111
110011010
1000010101
10101111
1111111101010110
11000110
110001100
1111001
1111111100001010
110010001
10111
110110001
1000110001
11
111100000
1011011000
100100000
1101101100
11110101
101100101
1010101010
1111110110101111
1111110011111001
111
1111111000011001
1111111100110001
1111110111100100
1111111101100111
110010
1001101111
101000
100010010
110001
1111111011010011
1111111101000011
1111111110100001
1111111100000000
101100
11111010
1111111110111001
1111111101011011
1111111110001101
1000111001
1100000101
10101100001
10011000010
11110001001
10101001011
10101
1111111010100101
1111111110010001
1111110001111111
11000
1000110110
1100111
0
11110010
1110010
1111111011111111
1000111
1111111001010111
1111110011011011
1111111010101110
1010110011
11100100
1111111111011110
1111111011111000
1111111001011001
1111111000011001
1111111100101010
10010
1100111
11101000110
100000010110
10100100001
10101101100
111111000
1111111011010101
1111110111011100
1111110100000100
101101001
111111111
11001010
1111111101000011
1111111101000010
1111111011110100
1000000
1111110100010111
1111111000111010
1111110111111000
10111000
1000111101
1111111011000111
1111111100010110
1111111001101101
1111111000010100
1111111011100001
1111111000101110
1111110101100010
1111111111010000
11010001011
101000111001
11111010011
10011011111
10010111
1111110011100001
1111110100000110
1111101101011011
110010001
1111111011010100
1010000
101111111
1111111010010111
1111110110100010
100011
1111110110101001
1111110011101100
1111111011010010
100010010
1010101010
1111111110000010
1111110100111111
1111110111110010
1111111010111111
1111110100101001
1111101010101100
1111110010110111
1111110111110110
1010000110
11000010101
10000000111
11100101
1111111010011001
111011010
1111110010001010
1111110100001010
1010010011
1111110101011001
1111111100001011
1110110
10101001
1111111100001011
1111111110011110
1111111000010000
1111110110110000
101010100
1101000101
1110011
1111111001101100
1111110110000010
1111111010000011
1111110110101101
1111101011000010
1111100110100111
1111101000010000
1111110010111011
11100101
111000010
1001110
1111111011010111
1111111111100001
101011
1111111111111000
1111111100111100
101000111
1111110100101101
1111111101000010
1111111011110110
1111111011101000
1111111100100101
1111111010100111
1111110111010100
1110011
1010000110
1111010010
1001011000
1111111110001110
1111110010010010
1111110000111010
1111101101010111
1111100111010101
1111011101110000
1111101111001111
1111101011001100
1111111001001110
101011010
1111111110001101
1111110100100110
1111111101010011
10100110
111000100
100101011
1111110011011100
1111101111101111
1111111101000010
1111111111111010
1111111110100001
1111111110000010
1111111111101101
1111111110011010
101011110
10000000110
10010101010
10010000
1111110010001101
1111101111001100
1111101110001100
1111101101110000
1111100101001100
1111100100111101
1111101111100011
1111111100010011
1111111010011011
1100100010
111000001
1111101110011011
1111111101100001
1111111010100100
10011011
10000000100
1111111001111101
1111110100111011
100111
1111111010100010
1111110100000101
1111111010011011
1111111100011001
1001011000
1110010111
1111001000
1101010110
1111111010000101
1111101100101001
1111101010001101
1111101101101100
1111101011111000
1111101100001000
1111101000111100
1111111001110110
110001
110100010
110001110
1111111010101011
1111101110101111
1111111101100001
1111111011000110
110000110
111100
1010000101
1111111101101000
10011100
1111111111101111
1111111100100110
1111111011000110
11000110
111010010
1101000001
11010011
1111111100110111
1111101110001101
1111101000011001
1111101001101001
1111100111011101
1111101011011011
1111110111000100
1111111001100100
1111111100110100
10111101
1001001100
100111
1111101111110010
1111101000111000
1111111000111011
1111111100111111
1010111010
1010001
10101111
1111111011000000
1111110110101110
1111111101011010
1111111110011110
1111111101001011
1011010
110000001
1111111111111101
1111111111100101
1111110111110010
1111101110001101
1111101100000001
1111110001101110
1111110000000000
1111111010011001
1111111111010110
1111111010001101
1111111101101110
11100111
110110111
1111111110111010
1111111000010111
1111101100111110
1111110110010101
11000000
1111111100010111
1010001
100110
1111111010001001
1111111011101100
1001110
10001100
110001101
1001000110
1000111110
100101001
10000001
1111111001100010
1111110010110010
1111110101011001
1111110101111011
1111111
11011011
101001111
110000111
1000000110
1000011100
1010000001
10001001
10010100
1111111010111011
1111111000111011
100111
1001010000
1111111011001011
1111111101000001
1111111001100000
1011100
10110001
1111111111001100
111011
1010011101
101100110
110110110
1110101
1000000111
111011000
1000000
11001
1000100010
10000101010
1110001111
10010110011
10000111110
10011110111
1001110100
1111111101100001
1111111110111100
1111111001110110
100000110
101100
1111111010011011
1111110110101101
1111111101011000
1111111101001000
1111111110011110
111100101
111001010
10010010
1111111100010011
10110011
1011101010
1100011111
1111101000
10100001111
1011011001
100101011
1110011001
10011100001
10110110100
10100011011
10100100101
10100101101
1011111001
1111111011010111
1111111111010111
1101011
1111111101101111
10100101
101000111
1111111101110011
101010011
110101111
1111111001011001
10011001
1111111100010010
1111111010100000
1111111110001000
1111111110111011
110110111
1100000010
10001011111
10000000111
10010100001
111010110
10000110010
1110010101
10101010011
11001000101
1101101011
1010010110
100101011
1111110111010110
1111111110010100
1001011100
1111111111110100
1111111011110000
1111111110011001
1100110000
10001001100
1001111000
1111111110101011
1111111001001110
1111110101100010
10010101
10001001
1000101000
101110111
1100000101
1110101001
1100010011
1110111111
10010110010
10011111100
10011100110
1010100001
1101010010
1010011111
1010110010
11001110
1111111110011111
10110010
1001011010
1111111101110111
1111111011111101
100101001
110011101
1011111001
1111101
1111101101100000
1111110101100011
1111111011100001
110011110
1001011011
1101100001
10000011001
10011010111
10010000110
1110110000
10110010111
10010010111
1001001101
1101010011
1001111000
1000001001
1111111101000110
100001011
101000010
1111111111101111
1111110010000001
1111111011110011
100011110
1111111111011010
1111111111001100
1001100
1111111001010000
1111110001001111
1111101111011101
1111111000101011
101100
101100010
100011000
111101101
110111011
100111011
1101011011
111100001
1000001010
110010110
111001111
1001100
110001100
1010101
1010101
1001110101
101001000
1101001010
1111110111010000
1111111100011101
1111111101111000
11000101
1111111100100111
11111111
1111111100101000
1111111011001011
1111110001111100
1111110101010101
1111110111110110
1111110110101110
1111110101000011
1111111011110001
11010101
1101001
1111111101100010
1111110100101000
1111111100001000
1111111100100101
100100
1111111101000000
1111111100001000
1111111110011101
1111111000110111
1111111100000100
1111111100010011
1111111101011111
11110
1111111100011101
1111111110010111
1111111101010010
10001101
10111110
101000111
110000
1111111000101111
1111111101000101
10100010
1111111010110000
1111110110000110
1111110110010010
1111111110000110
10001011
1111110011001111
1111111011000101
1111111100100100
1111111000000011
1111101101001101
1111101100000000
1111101101111001
1111111010110101
1111110101001001
1111111000110011
1111111101000011
1100111
1000111
1111111110110110
1111111010111001
