1111111100010101
1111111111000101
1111111101000101
1011001
1011
11011001
1000000
1111111100100100
101001000
1111111110011000
10101000
10010001
1011111
101001
1111111100001110
10101001
1111111110100110
1111111011100110
1111111011100010
1111111110100101
101000100
11100011
100011001
1001010
11100101
11000001
11101011
1111111110010001
1111111011101110
1111111111001101
10001010
11111000
11001010
1111111111111010
1111111000001100
1111111100110000
1111111110011101
1111110111011111
1111110100001001
1111110100100111
1111101111101000
1111110101100011
1111110111111001
1111110011001010
1111111111100000
1111111101001100
1111110011010100
1111110101000110
1111110110101001
1111111011110010
1111110101111101
1111111101000000
1111111011110100
1001101
100100110
1100
1111111111011000
111101
1111111001011110
1111111101101011
1111110011110100
1111111010101110
100010
1111111100100000
10111101
101011100
1111111111010000
1111111010101000
1111111110011111
1111111010001100
1111110100000011
1111101100101111
1111101111001001
1111110110101100
1111110000010110
1111101011000110
1111110011101110
1111101001010010
1111101001010101
1111110000010101
1111111101111011
11111011
11101100
1111111011011010
100101111
1111111101101011
1111111011000101
1111110010111110
1111110101111111
100100001
11001011
111100000
1010010110
10010100000
1110101101
1010011000
101000011
10010110
111000101
1111111011111001
1111111011001100
1111110101000101
1111111011001001
1111110010101110
1111101011111010
1111101111110001
1111110011011010
1111110011110110
1111110100010000
110001110
1111111110101100
1111111100111101
100100001
1111111101000110
1111111101100111
1000101
110100000
1011000011
1101000111
11001010011
11000111110
10011110010
1111111101
1011011101
10001111011
10011000
100010010
1011111
1111111000101000
1111111110110000
1111110111000100
1111111001000111
1111110111111000
1111111011110110
1111111111010110
1111110011001010
1111111100101101
1000000
100101100
10000000
101001000
10101
1111111000100000
111001000
10010000111
10011001001
11010101100
100010011001
11010000110
10001000110
111100101
1011001010
1001111000
1111111111110011
11001110
1010011
11000010
1000110
1111111110001010
1111111010000110
110011110
11111100
11010101
1111111100001100
1111111001100010
10100111
1111111100010110
1111111100100011
11010000
111010100
110001010
1000010101
10010111011
11001000101
11100001010
100100110110
11001010110
10000010110
10100010
1111111011100111
1010010
1111111110110110
1111111010011010
1111111000101101
1111111001000010
1111111000100110
1111110101011001
1111111100100111
1111111100100011
1101101
100111101
10111
1111111000110000
1111110010011101
1111111010011010
10001
10110111
1100100001
11110000
1011110011
11100010001
100000011101
101101001010
100001011101
10011101000
1001001001
1111111010010010
1111110110110001
1111111000111010
1111110111111100
1111110010101010
1111110100010010
1111101101000011
1111111010111011
1111111111001010
100000010
1111110111011100
1111111111001001
110001
1011100
101000100
1111111011111111
1111111110101011
1111111101110101
111101000
101111101
1100100111
10001111000
11100100100
10101111111
11001100000
11010110010
1100010010
1111111111011001
1111111110100011
1111111010111110
11011000
1111111011110110
1111111101000101
1111111010101110
1111111110011001
1011010
1101000000
10010011000
10000101100
10001100
100100010
10101101
1011101
1011011
1010101011
1111111101111000
1001111101
1001101111
10011010010
10011011101
10110101000
11101011110
11001000110
1110110111
110100010
1100110
1111110111110000
1111111010001101
1111111011101010
10101011
1111111000111101
1111110110001101
1000001
11000010110
10111001011
100000111000
11000100001
11001000101
1100010111
10001010111
1111111010001000
1111111011000110
101000001
1111110100001111
11001100
1101
10101000010
10100100010
11000111011
100100010101
100000011100
10000100011
1111111010010010
1111111101001110
1111110110111011
1111111010100011
1111111110010100
1111111000101001
1111111000010011
1111111111110001
1000000110
10000010001
10101110110
100000001010
11110111010
11001101101
100010101000
1111101100
10010101
1111111010000100
1111111110101101
11101010
111001111
1100001111
1001111101
10111101100
11101001111
11000110111
10011101000
101000010
1111111100011100
1111110100010010
1111110110011010
1111111101111110
1111111011001001
1111110101010100
1111110110101001
1001100
1010101001
1111011010
1010000110
10000011110
10011100011
11011111011
11111111110
10010011011
1101100010
110010101
1000101101
11010011
1111111111000111
1000000100
1010000001
1111000010
11000111000
10110001100
10101100010
11010101
1111111001011001
1111111001000011
1111111011000100
1111110111001001
10101
1111111001000110
1111111101010111
1111111110000010
111010010
10001
1110000
1010110010
1001111010
10110001001
11010110111
10111000010
11100001100
10011100100
1000100010
110101110
1111111100100000
1011111011
1101101000
1101011100
1111011100
11110011110
10011110101
1010100100
1111111001110111
1111110010110010
1111110001010101
1111111100011100
1111111010101101
1111110110110110
1111111111111011
10010101
101110110
110000000
1101101
1111111110000000
101001110
10000001001
11001011010
11111010001
11111000010
11011000101
10100001001
111010000
1111111100010000
1111111101101101
10000111
111111001
10010010011
11101101011
11000010110
1000100011
1111111111110101
1111110000101010
1111101111010000
1111111010100111
1110000
1001011
1111111110100110
1011000
11000011
11010100
11101100
1111111001001111
1111111000111111
1111111110111001
1111001010
11001001101
11001111000
10111000111
10100011001
100100011
1111111111001100
1111111111101100
100011101
101000011
1101101001
11001111100
11011001100
11000010000
10011001
1111111111111100
1111110101010001
1111111100010110
100000110
100101010
101100011
110111110
1111111011111110
11101001
1111111110110101
1111110100010100
1111111100000100
1111111010100000
1011000110
10101010010
11100110101
10100001001
1111001100
111000110
11111001
1111110110001011
10101001
100000001
11101000
1100100101
11001001000
11010000000
1110111101
1011100011
1000110
1111111101000000
11011001
1001001100
1101101
1111010
10100111
111000101
1111111010001010
1111111001001001
1111111100001100
1111111011011101
1001100011
10110110100
11101010101
11110010011
11001100111
1100101110
1111111101110101
1111110011011110
1000100000
1111111101111010
1111111101101100
11101101
100111001
1110011000
10000011100
10111100100
110001110
11010011
1000000101
1000000010
101000110
10110111
1001110100
1111111110111001
1111110111010000
1111110110110110
10111100
1111111101111011
110110100
10000100010
11000001100
10010100101
101110011
111111000
1111111111010111
1111111010001111
11001001
1111111011001100
1111110101000110
1111111101000000
1111111100101000
10010110
10011010101
1110000111
10001110010
10101001110
1100001011
111111001
1111111111100001
10101110
1111111111000101
1111111001001001
1111111011110010
1111111111100011
100110
10000000
10000100000
10010000100
10011111100
1000111100
10100
100101001
1111111111011101
101000111
1111111101010001
1111110111111011
1111111000000000
1111111110000001
1111111100111100
1111111011110001
11001011
10000111100
10011100001
1110111010
10101111
1111111010101010
1111111110110010
1111111111100010
1111111001011101
1111111100011101
1111110101000100
1111111010100100
1111111111010010
111000001
1011010000
110001001
11111011
110111000
101000000
111100111
1111111101101001
110010000
110100
10010111
111
1111111011000100
1111111100001101
1111111001010101
1111111110010001
10000000
110101101
1111101
1111111111000010
1111110111111011
1111111101011110
1111111011011010
1111111000111100
1111111000101101
1111111000010010
1111111011100011
11010110
1000110011
1001101101
1000000100
1111111101010001
1111111101010010
1111111101110101
1111111010100101
1111111011100110
110011011
1001011000
1111110111000111
1111111011100000
110
1
1111111000101011
1111111000010100
1111111010011100
1111111111001000
1111111101011110
10010101
1111111100101010
1111111010011100
1111110111100110
1111111000010011
1111111101101101
1111111000100010
111010
1111111101011001
1111111011100000
1110011011
10001010
1111111011001000
1111111111011110
1111111110010100
101001001
1111111100100101
1111111100001011
10010010000
11010011
1111111011001101
1000000
1001000010
1001101000
1111111011111110
1111111110101001
1011110
1111111110100010
1111111100001111
10111101
11110011
1111111111000011
1111111110111100
1111111010111010
1001
1111111110101010
1000001
100001100
1000100010
1111111111110101
1111111101010001
101011
1111111011000100
101011101
1111111100011000
1111111111110100
1101011111
1111111100110111
1111111011100001
10000010
1000100101
1110001111
1001110000
1111111111001100
110001
1011111
1111111010010000
100001001
1
10000010
11011101
1111000
11110010
1001000011
1000111001
100111111
111100111
11010110
1111111111011101
10101100
1111110110111110
1111111110101010
1111111011100001
101111
100111001
10000110
1111111110010010
1111111010111011
1111111110110111
1111111101010000
10000100
101111001
1111111010100001
1000100100
1000101111
111000110
111011100
1010000110
111000010
10011110
101101111
1001100001
1000110101
11010110
10000101
1111111111001111
11100000
1001101
1111111111100010
100100
1111100
1111111110110111
1111111111111110
1111111111111110
1011110
1111111011111101
1111111010001111
1111111111011010
1111111011001000
1111111101001010
100011011
1111111100000000
1111111101110101
1010101
1100110
100001010
10001011
1111110110010110
1111111100011111
1111111111100010
1111111100110110
101100100
101101111
1111111110001011
11100
1100
100
1111111011011001
101
1111111011011010
11011000
10100111
1111110110101001
1111110010110000
1111111010100000
1111110101110110
1111111101001110
1111101101111111
1111101101110001
1111110011101000
1111110100111100
1111101110010101
1111101110111001
1111110110111111
1111110000000001
1111101100111101
1111110111000100
1111111101000101
1111111001011010
1111110111000110
111111
111011
1111111010010111
101001110
1111111011110100
1111111110010110
1111111110110110
10001000
100000001
1111111101101011
110001
1111010
1111111111111110
1111111011001101
101
110011110
1111111001011001
1111111101000101
1111111101010100
1101001000
1111111010011011
1111111100111011
1111111110000101
1111110
1111110110010001
1111111001100010
101001111
1000110000
1111011
1111111101111100
10110001
11110100
10110101
1111111110110110
