10100101
1110010
110011
11100110
1111111101001000
10101011
11110111
1100010
11000
10001101
100001000
1111111100011111
100000111
10011011
1111111100111000
1111111100101011
1110111
1111111111000001
1111111011111010
1010100
10001011
1111111110110111
11100101
1111111101011000
1111111011001101
1111111110001100
100010
1111111110100010
1111111100110000
1011
1111111111001011
1100001
101001101
1000010001
1100111110
1100100011
1110000111
10001101101
1011010001
10010010101
1101100000
10011001111
1001111
10010101110
10101001110
10001110100
10110111110
10000110101
10011101101
1110110101
1100001100
1111111
101001011
1111111101100010
1111111111101000
11000
1111111111100111
11110011
110000101
111111010
1010101110
1010010100
1100111010
10101000111
10010001000
10100010001
10110110111
11111000111
1111000010
111111101
1011111001
100100111
1001001101
111111111
10111010000
10111100011
10001001010
1110000010
1100111001
10010000100
1001110
1111111110111100
110010
1111111100111001
1111010
10
1111111001010101
1101001001
1000111000
1111111001110001
110101111
110100010
110010000
110110001
1000111001
10000011
110101010
1011100111
1110001
1101000
1011010
1111111000011110
100001101
1001001110
100000111
1011011100
1011101000
1000011100
10111001
101010
101110010
1111111110001010
10001011
1110001
1111111100001011
10010001
1111111000010010
1111110000111000
1111110001110101
1111110010100011
1111110010101001
1111111100010011
1111110111101110
1111111011000010
1111111110001101
1111111000110101
1111110111011100
1111111001110001
1111110101111010
1111111001010100
1111111000110100
1111111000100010
1111110111010010
1111111001111101
1111111110001010
1111111110100011
1111111100100000
11001001
1110011000
1111111101111101
1011110
1111111100110110
1111111101100000
1111110111101101
1111101100110110
1111101101101010
1111110100101110
1111110101001001
1111111110001010
101101
1111111101010001
11110000
1111111101101110
1000100000
11100100
1111111011101001
1111111011101001
1111111110101001
110
1111111010010011
1111111010101110
1111110111110001
1111110111011110
1111110010010101
1111111010110100
11101001
1100111111
111010
1111111110101101
1111110101011100
1111111101000000
1111111011010011
1111111010000110
1111111010000011
1111110111010110
1111110110100000
1111111100011001
1111111110001100
100110001
1000110110
1001000110
1001100110
1010000101
1111010100
1111010101
1100101110
100001000
1111111111000011
1111111110001110
1111111001001101
1111111011000000
1111111111100100
111101011
1010111110
1000110101
1111111111010010
11100101
1111111001110101
110011010
1111111100100000
1111111001010111
1111110001011010
1111110100011100
1111111011111111
1111111110101100
1111111110000110
101111011
10000010
1010111011
1010000110
1100111111
10000011000
1100001100
111100001
110000101
1111110111110100
1111110101011000
1111111110000010
11000101
1011001001
10111001101
11110010000
110111110
1111111011100111
1000000010
100101000
1111111001011001
1111111101001010
1111110110001111
1111111011011100
1111111110110010
11011110
110101110
1010000000
1010011100
1011011110
1001011000
110100000
10001010111
1110101111
11100000
1111111101101001
1111111010000000
1111111010001010
1111110111110110
1111111111110111
101000001
100000001010
101000111001
11100010111
10100101111
110010011
110001101
10001011
1111111100010101
11000110
1111111110011111
1111111110110100
1100011000
1100111011
1010100100
1011001011
10110110111
10011011010
1011000110
1111101000
10001110010
110111011
1111111010100000
1111111011001101
1111110111000110
1111110011100011
1111110101011011
1111111101010111
10011000110
100110001011
101101001110
11100100101
11001011001
1010010001
100111001
111000
100100000
110010
11010111
101110111
10001001110
10001000100
10001101111
10011001000
10000010000
1011010111
1010010110
10011011010
1111101111
1111111110010101
1111110111111011
1111110011010010
1111110100011001
1111110100100000
1111111010011111
1000110111
11100110000
110000001011
110001101111
11100000100
1100111100
11110011
1111000
101011110
1001011110
11111110
10010010111
10101101001
10111000110
11000001010
10101010001
111110100
1100101011
111100011
1111111100101010
1000100010
1001011101
1111111100011110
1111110101100000
1111110111111100
1111111101010001
1111111101100111
111100001
11011100011
11011111001
110010101011
101110011010
100000100101
1111001110
11010100
10
1010111010
1011010010
1111001101
10001011100
10000010110
10001110111
1010000110
111001010
1111111110100001
1111111010111100
1111111001101011
1111101001111010
1111110000101110
1111110111100111
1111111011110011
1111110111100101
1111111101100100
101100111
111010000
1110001001
1010001100
10011010010
11100010001
111011001
1110000101
10100000111
111111111
1111111111000000
1100011
1100011000
1011000100
1111110110
101010110
101001101
1110000
1111111100101110
1111111011011000
1111111001110001
1111110101000100
1111101011010111
1111111010010111
1111111101001010
1111110100111111
1111111000111000
1010
10010001
1111111111101111
101100011
1100101
10010110
101011011
110000100
1110111111
10011100011
10101000
110110011
1111111101010101
11111100
110011101
1111111011110110
1111110011010101
1111111001001110
1111111101100001
1111111001000100
1111110111001111
1111111100100001
1111110111100110
1111110100010111
1111111001011001
1111111000010100
1111111000101111
1111110110100010
1111111100101011
1101110
1111111010110001
10110110
1111111011111011
100000101
110111110
101101010
1010111
1110110001
111011000
1011
1111111111000001
1111110011010000
1111110000110010
1111101100110001
1111101101000011
1111110011010100
1111110101010010
1111111000010110
1111111000000010
11000010
1111111111110010
1111111100010101
1111111111100011
1111110011010100
1111110111101000
1111110100001011
1111111111011001
101101000
1111111100010110
1111111110100100
1111111111000011
1111111111010000
1111111010100010
1011110000
101111001
1100001
1111111011000110
10100
1111110111111101
1111110010000110
1111101010100100
1111110101111000
1111110101000011
1111110010111001
1111101101110011
1111110111000101
1111110101101001
101001110
100100111
101001110
1111111111011110
1111110111111001
1111110111001101
1111111110001100
1111111101000101
1111111001010111
1111110110111100
1111111010000101
1111101111101000
1111110101111010
1111110100001000
1111111001110000
1001110110
101100001
1111110111110110
11010100
1111110110011010
1111110001011111
1111110111001001
1111110100001000
1111110101001111
1111111001010000
1111110001110000
1111110110010110
1111111011110111
100110110
10101111
100100011
1111111011010100
1111110101100101
1111111001000011
1111111011011110
1111111011011010
1111111111000100
1111111101110011
1111111011100010
1111110110110000
1111111010110011
1111110101010010
10111110
10100100110
1100110000
1010101100
100001010
1111111100110011
1111111011011001
1111101000101000
1111110101001101
1111110110101111
1111111100110011
1111111110010010
1111111100111000
1111111110000100
1001011011
1011100110
101101101
101
1111111000101111
1111110111110010
1111111001110111
1111111001101010
1111111000110011
1111111110001001
1111110111011100
1111110010001000
1111111000010011
1111111001111000
101000111
1101111111
1111001100
1111110100100000
10100100
1001100000
101001001
1111110000010100
1111110100110011
1111111000010101
1111111110011111
1111111110000110
110111101
111111110
1011001010
10010000000
10000101100
110010101
1100000
1111111111110111
1111110110000100
1111111001101010
1111111011111110
1111111110010011
1111111010101101
1111110011110110
11010
1100101110
1011111010
101101000
1111111000110001
1111111000100101
100101
110010100
10011110
1111110100010110
1111110110011101
1111111100110001
11001
1111111100011101
1111111111011110
111101010
10000111101
1111000010
1101110101
1101001000
11110110
1111111010100101
1111111100010010
1111111001011110
1111110111101100
1110001
1111111100100000
1111111111110111
1011100111
100110100
10010111110
10011101011
1111110111011100
11010101
1111110
1111111101011001
1111111001010000
1111110100101111
1111111010001000
100100000
100100000
1000101111
1000011000
1011111111
10000011010
111110110
111001000
1001110001
101110
1011100
101010
101001
1111111010110000
10010100
1111111010001010
1000001111
11010111
11111001
1101000000
1100001111
111000110
1111111110010111
1100100
1111111111101110
1111110100110001
1111110111101110
1111111111011011
100101
111000000
110000100
1110101101
1101001001
1001000001
110011010
1000010000
110101001
101010000
1111111110100111
10010000
1110000
1111111100101100
1111110110000001
1101
1111110110101011
100101
1100010110
1011100001
100101100
1111111100110111
11100110
1111111101011110
11011000
1111110110100100
1111101110110110
1111110111111111
11111111
100110
1101101
1000110100
1000110000
11000100
101100100
101111011
10101000
1100010
1111111110101001
10000100
1111111111011000
111101
1111111110010110
1111111111100000
1111111111100010
1010001100
1100011000
1011111110
1011100010
1111111011111011
1111111100111011
10000011
1111111101100100
1111111100111001
1111110111111101
1111111100001101
111011001
1111111111110011
1111111111000010
101000100
1111111010111110
110
1111111000011111
1100110
1111111001101011
1111111111011101
111011010
100110110
11100110
101001001
100000100
1001011111
1111111111110010
10000010
1110100111
10000101010
1111111110000001
1111111011100100
101001000
10110010
1111111100000011
11110
110101010
101111011
1001111110
1111111111111110
110010
11000001
1111111110111011
10010100
110111101
1111111
111100101
111011010
1111011011
1100011110
10011111001
1111111100
10110000101
10001101110
10000011001
110000110
111000000
1001000111
101000010
1111111010101100
1111111101110010
1111111110001101
1111111011111110
1111111110111111
1111111111000010
1100100111
1011011000
10001110010
10001000111
11000001000
11010101111
10101110011
11010111111
11111010101
100011101110
101001110100
10101011001
10100110010
10111111011
10100101010
10110011111
11000100110
11000111000
10001011111
1100000110
11110010
100011111
11001100
11101010
11101110
1111111100001000
1111111110011100
11010000
100001101
11010101
111001011
110101111
10000100110
1010100000
10001010100
1101001001
1011100100
10010110011
10110100101
1011001110
1010110000
1110001011
1111110110
1100100010
1111010
1011000101
1001100111
1001001
10000111
11100000
100100101
1111111100011010
