11000110
100110000
101000101
1111111100111000
1111101
100011110
1111111011000001
1111111100111111
11001011
100111100
1111111010111101
10110100
1010100
100101111
11110110
10110001
1111111110111111
1111111101011000
11001100
1111111110101111
1111111011000111
1111111110011101
100001101
100101111
1000011
1111111100101000
101111
1110110
11111011
1111111101111011
100110
1111111111000101
1111111111111100
100001011
101100101
1010000111
1001110100
110101110
11010110
110001001
101010111
111011101
1111111110001010
11001011
1101010101
111001010
111001101
101101010
101100011
1010011001
110010110
1111111111111110
11001111
110
1011
10111
11110001
1111111110111000
1111111101010101
10010010
101101000
100000100
1001010110
1000100111
10000111010
1011001101
1001000011
111110001
1000110101
101001110
100001001
1111110100100000
1111111101010101
1101010
111010110
111001000
11101011
1011111001
1110110011
111111100
10010100
1111111110001000
1111111110100001
100101110
10100110
110101
1111111100111101
111011000
10100000
1111111010000111
1111110110001010
1111111101111101
1111111101111010
1111111111010110
10000110
1111111101010001
1111111011110101
11111011
1111111111100001
11111000
1001111
10010100
1100110011
1011101110
10000110000
1100110110
111001101
1001110
1111111101101110
1100000
1100001
10101111
1111111110111101
1111110110111101
1111110101010010
1111111100101101
1111111010111100
1111110010111010
1111110100010010
1111110111001001
1111110010100110
1111101110001010
1111101101100101
1111111000001101
1111101111111011
1111110100110100
1111111000100010
1111111011011001
1111111110101000
1001010111
10110100
101110101
1011100110
1011011101
110010011
10001101000
1101011001
1010101
1111111010100110
1111111011110110
1111111110000101
1111111110001001
1111110010101100
1111110100010011
1111110100100001
1111101100010101
1111110110000110
1111110111110110
1111110110100110
1111111110111100
1111111100111110
1111111010000111
1111111000001010
1111110100000010
1111110100111110
1111110101100010
100000101
1000111011
111101101
1000011110
1000000101
10010110010
1100101101
1001111110
11110001
1111110101100011
1111111110110010
11100011
10101010
1111111001111110
101001101
1111110110100001
1111101111011000
1111110111000010
1111111001001101
1110110
1111111101110111
1111111000001101
1111110110010101
1111111000100000
1111111001010011
1111110110011001
1111111110101000
110011
1111111111011010
1111111100000101
101010111
1001101101
1110100101
10011110010
11000010011
10001000010
11101111
1111110111111100
1100111
1111111010101010
10001011
1111111100001000
1011001001
1111110101101100
1111110001011110
1111111111011011
1111111110101010
10111
1111111110001010
1111111111001111
101101001
100010011
101100001
101000
1100110
11111
1111111111110001
110000110
100000110
100111000
1011110011
10010010101
11011111101
10001100110
1100110100
110101011
1111111010110001
111000
100110001
111001101
1111001011
1111111010001011
1111101101111110
1111111001111010
1111111010011001
10000110
1010000001
110000011
101110110
10010010110
110101011
11001001
1111111110000111
1111110100100010
1111111010010011
1111111000001110
1111111010010110
1111111011110101
1110111011
10111010010
10100011101
100100101000
11001101000
101011101
1111111011011010
1111111011010010
1011110110
1101011111
1001011000
1111111100110111
1111110111100001
1111110110111010
1111111101010010
1
111100001
10000001011
1010011001
1011001010
111111101
1111111101111110
1111110111111011
1111101000011000
1111101100001010
1111101101110101
1111111001011100
1111111001011101
1000111000
10001010110
11001111001
100010111010
11001011111
1111011110
1000010
1000010011
100000001
1010110111
1101001111
1110101
1111111100000000
10110000
101000001
1010000100
1111000000
1100011101
101110111
11011001
1111111111101110
1111111101011111
1111110100011010
1111101010100101
1111110010110000
1111110010100110
1111110101011001
1111111010111110
110101110
10010000001
10111111011
11011010111
100000111110
11000111011
101111000
1111111101100101
11000010
1001110100
10000011011
1111111111010010
110110111
1000010100
1110001011
1111100011
101100111
11011111
100101111
111111
1111111100111110
1111111001011111
1111110000001110
1111101010000110
1111110101100101
1111101110111110
1111111011010100
1111111111011001
1111111111000100
10011100000
10100101110
11001000000
100001110010
10010000111
1111111100001001
1111111101100100
100001101
1001100010
10011011000
1010011100
11011001
1000111111
1100101111
1000101111
10100
101001
1111111100100001
11011100
1111111011111010
1111111001111011
1111101110011110
1111101001110110
1111110001111111
1111110101010100
1111110101110111
1111110110111100
1001101101
1100110111
10010100110
10011100010
10100010001
1101011101
1001101111
1000000110
1111111010110101
110110010
1101101101
11010101
1010001001
1101001110
1010110010
100101111
1111111110111100
1111111100001010
1111100
101111000
1111111101110110
1111110010111100
1111101011011111
1111101100111111
1111100101110011
1111101101011000
1111111100001001
1111111101110111
1011111111
11000100000
11011000000
1111110011
10001000100
1110010011
1010001111
1111111100010111
1000000101
11110
1110000101
100100011
11001001
10010001000
10001101011
110101101
11000111
1001101011
10001011010
1110011101
1111111010000001
1111110000100100
1111101111110011
1111110000100111
1111101100100110
1111110110100110
11110011
111011010
1111011101
1101011011
10110110110
10000011100
11000001101
10001001
1111111011011001
1000010110
1111111111111100
1111111010100100
1111111001100011
1111111110110110
101101110
10000101010
10010100011
1111111110
100111000
1010010000
1100101010
111010110
101010100
1111110001011111
1111110010110000
1111110111001100
1111110110110110
1111111101100100
1010000011
1011011000
1110111111
1111010010
111110110
11010100
1111101111
1111111101001011
1111110110001001
1111111001110101
1111111101000110
1111111000010110
1111101110010110
1111111111000111
11100010
11010000100
10010111001
10000010
1111111101001001
1111111011011000
101101
1000101
1111111001001001
1111110100111001
1111110010001011
110100
10100100
1111101101
10000101101
10010101010
10000010001
1000011010
11111010
11101010
1111111100001111
1010000001
1001010
1111111010000100
1111111100101011
1111110101101000
1111101111110011
11100100
111010000
11110000111
10110010111
111001101
100001
1100011
111001001
1100111
1111111100000001
1111111001000011
1111111101101110
1010111011
111011110
10011111100
10111111100
1001101101
1101110100
1010010111
1111111101111001
1111111110000000
1111111111100110
10001000111
110100110
110110110
1000111000
1111111001111111
1111111001011111
1111111000100000
1101011000
1110010111
10010101110
1000000011
101111101
10001000
1000101100
1100011100
1111000001
1010011001
1101011111
1110111000
10000111110
1101000011
111010011
1010001110
11001
1111111111101011
1111111110011011
1111111111101011
11000111
1110001011
10001011
1111110110011000
1111111
101111000
11010001
1111111101100000
1100101111
1111000110
110011100
1
1000011
11100001
1000000110
10111101001
1110100100
1010011001
1100111001
1100001000
1111111111000110
11110111
1111111100011100
1111111000001010
1111111011101010
1111111011100100
1111110110100110
1100
11011110
1111111101100010
1111111001111001
1111111100100110
11111100
101101000
1111111111010100
1111111011010111
100011001
1111010000
11100101
1111111011011011
1111111110011100
1111
11000111
10011110000
1100111000
1001110100
11011101
101101101
1111111001110011
1111111010001011
1111110100000010
1111111001101001
1111110101001101
1111111001100011
1111111100100011
1111111011011110
1111111100110101
111010
1111111011100001
1111111101101000
1111111110100001
100011
1111111100011000
1111110100000011
1111111111110001
100011010
110010
1110111
11101100
1001000
10111111
111110000
1100110000
110100001
10100111
1111111100101111
1111111110010011
1111110101111101
1111110010000101
1111110101010110
1111110101000110
1111111011101100
11111101
1111111111011010
1111111111001101
1111111000111111
101000010
101001001
1111111101000000
1111111101010100
1111111101100001
1111110000000001
1010110
10101101
1100001
11000010
101010110
11010010
111010011
1001100111
111111111
100101110
1010101
1111111010001011
1111111111100010
1111110110110011
1111111100101011
1111111001001000
1111111110100101
1111111000000010
1111111101000001
100000100
100001011
100
110110101
1111111111010110
1111111011111110
100111011
1111110101010000
1111111001001001
1011100
10000000
1011010010
101011110
100
11100000
110100110
1111111111101010
1111111011011110
1011110
110001110
11010000
11010110
1111111000100010
1111111010011001
1111111010011100
1111111100110111
1111110111001000
1111111000110101
1111111001101110
1111111000101110
1111111111001000
1111111001100011
11111011
1111111011001101
10100011
1111110111111101
1110111
1010110
100100000
1010100011
111100111
1010010111
1110010110
10101100
10000100
100110010
11000101
111010111
100100000
1111111100011011
1111111110000100
1111111010001011
1111111110100011
1111111011101101
1111111010001001
1111111101111001
1111111000110111
10111000
1111111111110111
1111111101110110
100011111
1111111101111011
1111111011100111
1111111000111001
1011100111
1011111111
111110101
111111100
1000000111
1111111011100101
1111111101111110
10011101
1001101111
10110101
110110001
1000011
1010001010
1000011001
1111111111100101
1111111111000111
11001
1111110100111001
1111111111110101
111100
1111111111111010
10001011
111011
1000111
1111111100000001
1000110
10001
1101011
0
1111110110110110
1111111010101110
1111111100001100
1111111001010101
1111111011000011
1111111000011110
1111111001010100
1111111100011111
110111111
110000
110110
101000100
1111111111110011
1111110010111010
1011100
100010100
1111111100110100
10011111
1001111
1111111011011011
1111110101101110
11010110
1111111111111101
10010010
1111111010111111
10111100
100000010
1111111100110110
1000010000
1010101001
10110100
1111111101010001
1110001
1010110011
1110011010
101011111
10011011
1110001010
11011000
1111111101000110
110101111
1100001101
1011000
1111111101110000
1111111100010111
1111111101110110
1111111101101010
1010001101
1111111110111011
1111111100110110
11111000
1111111101010100
