1111111100010110
1111111111100110
100110010
1111111111011111
1111111111111011
100011110
1111111101110100
1011010
11000100
101011
1111100
1111111011001001
1111111011101110
110001
1111111111010101
100100
1111111111101111
1111111100100111
1111111100000000
1111111011010100
1111111100010011
11111011
1111111110101000
100010111
1111111110111100
10001011
1111111101101100
1111111101010001
1111111011001001
100001000
1111111111111000
1111111100110100
1111111101000010
11001100
100010111
1111111100011100
1111111100110101
1111111101011100
11100001
1111111110010001
11000101
111010
1000001
101100
1111111100110010
1111111111100011
1111111100111000
1111111101011100
1111111011000001
111000
1101110
1010011110
1111111100000000
10001111
1111111111000001
1111111100001000
1111111110111110
1111111110000011
1111111111100110
11000100
1111111001000110
1111111001110111
11101111
1111111110101111
1001011
101010010
1111111100011110
1111110111111101
1111110100100100
1111101111010011
1111101011000110
1111101111110111
1111110110110100
1111111000101111
1111111011110001
110001111
110111111
1111111010100110
1111111001100110
1111111101110111
101101011
1111111101011010
11000001
1111111011001000
100111101
100110110
1111111101100001
11100
11
1111111011000111
1111110110010110
1111111001000000
1111111100001001
110000010
101100110
1111111011111101
1111111110000000
1111111110010111
1111111111010000
11101010
1010110
1011000
100010011
1011100000
1001110111
111110100
111010100
1111111111011000
1011010000
1110010
1000110110
100100110
100001001
1111111111010100
1111111100101111
1111111010110001
1111110011100110
1111101011110010
1111110101100110
1111111110101101
1111110011111000
1111111101001011
1111111111111111
1111111100011011
10110011
1111111111001111
101101111
111111010
110010100
1011000111
1110110101
11101010
11100111
1001100010
100010010
1010000100
1101100000
1011000101
100010000
1111110101111100
110100
1111111101001001
110111
1111110111001101
1111100111110000
1111100110100010
1111110001000110
1111111101010111
1111111101001101
110101000
1011000101
11110101
110110
111000001
100100011
100111111
1000101010
1000111101
111110000
1010000111
10011011
1011101010
1100111100
10000010011
1010001000
1110100111
10001111
1100001
111000
1111111101111011
111001010
1111101110011111
1111101100001100
1111111010111010
1111111110011000
1011010
1111111110110110
100110001
100000101
101011100
111010011
1100101011
1010111111
100100011
111001101
101111000
1011110000
1010100100
1010110111
1100000101
1011011101
111001111
110001011
1000011100
1011011001
1111111111100011
11101001
1111110100011000
110111110
1111111001010111
1111101101001000
1111111000001110
100011110
11100101
101111000
1010001010
111011000
1100001000
111010111
1011010001
10001000001
1100000011
1101010111
10010000000
1100010101
1001001000
1100011111
100010101
100101011
11110011
100100
111011111
10111011
11110100
11101011
1111111111100111
1111111001101110
1111110111011001
1111110000111111
1111111011100101
1111111110111101
1111111100000110
1001001
101100010
1001001101
10000010010
111000011
100101010
1010110100
1111111110011001
1010000111
101111001
1001010100
101110110
1111111010110010
1111111111110110
1111111000101010
1111111111111101
100011100
101101101
111110100
1111111010111111
1011
1111111011011010
1110010
1111101000101111
1111111010001110
10101
1111111101101100
111011001
11001101
110001110
101110000
1010100100
1001001010
1111111111011111
1111110001111100
1111101010010101
1111101000011101
1111110111011100
1111110100010001
1111101100100010
1111101100110010
1111110000010001
1111110111111100
1111111000100001
110
1100100
11101001
1101101
1111111110111111
1111111101100111
10010
1111101101001110
1111111000000100
101000000
110000010
101010111
1010111010
1011000110
11110010
101101101
1111111110100111
1111101111001001
1111100000110110
1111011100010001
1111100101011011
1111101011001010
1111101010101100
1111100001010110
1111011111000110
1111100110100010
1111100111000011
1111101011101110
100111100
1111111101101010
1111110101
110011010
10001001
1111111001010101
1111110100011001
1111100100100011
1111111100011011
100111100
110100010
1111111111010000
1111111111001000
1111111100001000
1111111001111011
1111110010110110
1111101110001101
1111101010101100
1111011101101111
1111100110011011
1111110010000111
1111111100010100
1111111001011011
1111101001111110
1111100101010000
1111100110011011
1111100110001101
1111110001000010
1111111110111010
1111110111010000
1000001000
1111111011111011
1111111111110101
1111111000110000
1111111000011011
111
1010101
1111111110011001
111111001
1111111010111101
1111111100001111
1111111010101110
1111111010001001
1111111000000000
1111110010000000
1111101010000000
1111101111000011
1111110000110010
1111110001110101
1111111011001011
1100111
1111110111100101
1111111000010110
1111101100011011
1111101010000010
1111110011111110
1111101111001111
1111110000000110
1111111111000001
111010
1011011
1111111111110110
1111111111011000
1001100
10000100
1111110111000110
1111111011111101
1111111100111001
1111110110001001
1111110100110101
1111110001011000
1111101110110101
1111101110100101
1111110010000010
1111110000101100
1111110100100100
1111101111110001
1111111000110111
1111111000100001
1111111000010010
1111111111000010
1111111001101000
1111111110110011
1111111101001010
1111111010011010
1111110011100001
110111000
100001
10000011
1111110010100001
1111111001010011
1111111011010010
10010011
1111111100111101
1111111101111110
110100
1111111100010100
1111111000110101
1111111011100111
1111101111110101
1111110011011111
1111110101000101
1111111000001000
1111110011100001
1111110100110000
1111110001100011
1111110011101100
1111110111101100
1111111011110110
1111111011110001
1111111110100110
1111111101010111
11000100
1111111101001000
101000100
1010110011
1011100
1111110101101001
1111101100110001
1111111001001000
1111110100110111
1111111000101110
1111111011010011
1111110111101110
1111111110100010
1111111100011101
1111111011100110
1111110110111111
1111111010010011
1111111000110001
1111110000100001
1111110100101011
1111101111111101
1111101111010101
1111110101001111
1111110001111110
1111111101010010
1111111010000101
1111111010110000
1111111011111001
1000100100
1111111101110010
1101110001
1111111111111100
1010010
1111111001110000
1111111000010110
1111111111111100
1111111011000100
1111110100111001
1111101110010010
1111110000001010
1111110001010101
1111110111001100
1111111011011010
1111111100010001
1111111110111001
1111111100111000
1111110100100001
1111101101101100
1111101101000101
1111110010010010
1111110101011110
1111111100110101
1111111000010010
1111111110111000
1010000
1111111101011111
10011001
1000000010
1010111010
100000111
11101001
1111111000010001
1111110111101001
1010011
1111111011010101
1111111001010111
1111110100110100
1111110100011110
1111101111111000
1111111000000010
1111111000011101
1111111011001110
1111111100011011
1111110000110000
1111110010100111
1111100111111111
1111101011000110
1111111101110010
0
1111111101110011
1111111010111000
11111
10100010
1111111101111000
1111111011011000
1100010011
100101101
111110011
1111111110011010
1111111001110111
1111101110011100
1111111111100000
1111111110111111
1111111010110100
1111111001100000
1111111010010110
1111110100001010
1111110111011100
1111111000101001
1111111000000000
1111110011100111
1111101010000000
1111100001110001
1111101110000011
1111110101000000
1111111011011110
1111111110101111
1111111010110100
1111111110011011
1111101
1001000
11111110
10101010
1111010001
11000100
1000101
10011011
1011110
110100110
1111111010101110
1111111111111111
1111111110001010
1111111110011111
1111111100001011
1111110111101110
1111110111111011
1111110011000010
1111111010000011
1111111011111110
1111101111111000
1111110001011101
1111111001100110
11101010
1001110
1111111011101000
1111111011100000
10100001
11111001
1111111111010011
1111111101110011
1111111110100001
1000001010
110111000
1111111010001110
100000111
10110111
111001011
1111111111110110
11001101
1101011
11101
10010111
1111111101001010
11000110
10110101
1011100111
1010001000
1011010100
110101000
1000001110
1011100101
11010101
11001110
10101
101011101
1111111110101011
11111001
100010100
10
10010101000
1110010001
1111111110010010
10010000
11000111
101111000
11110011
111110101
1000101101
1001000
101101000
10000111
1000101000
1001001010
10011100110
1101101111
10101100001
10101010101
1001101111
1101000111
100111101
101100100
1001101
101010110
1001000111
1100010101
1101000111
1010111011
10001011001
1010001100
1010111
1111111111111010
1111111100111011
1111111100111000
1111111101010010
100101011
111011111
1100111
10010
11111100
1010001000
1000100000
1010000011
1100000000
1001101111
1011111011
1000111110
101010100
1000001000
110110010
111010
111001001
1010011110
1100000100
1111000101
10000100011
1101000010
110111001
100000101
100101100
100101001
1111110110011111
1111111111100000
1111111111011111
111111101
1011110
1111111111001100
1010010011
1010100
1010000001
111101101
1010001010
10111011
1010101111
1110100
1001010100
1001001111
11110
100101001
1110010010
101110100
10110111000
10010010001
1011111010
1010010101
1001101000
1111111011101110
100011000
1111111110001011
1111101111110000
1111111110011101
1111110011000010
10110000
100100000
1001100000
1011000000
101101000
11001111
1111111100100001
1001000101
1000111111
110010110
1010010000
110101000
110011110
1001101110
1001101001
1001011110
1001100000
10000110000
1111101111
10000001000
110001101
110100010
111001
1101100
1111111111110110
1111111010000000
1111111111010111
1111111010011011
1111111001010011
1111111001100101
1111111010010110
1111111010000000
1111111010000000
1111111011110000
1111111111011101
100010101
1010101011
10111001
1000000101
1100000110
1010010111
111110100
10010001001
10000011
100110010
1111001111
1000100111
1110110010
100101110
1110101
1111111110001111
1001010
1111111111101111
1111111111011000
1111111111100100
10011001
1111111010110011
1111111000110100
1111110110001100
1111101111010101
1111101101010001
1111111001000011
11001101
1111111100100111
110010
1111111111010011
1110101
1111111001111000
1111110100111100
1111111100001111
11100010
1110
111001100
111000001
10101111
100011110
11010111
1110
1111111011011001
11101
1101001
100000110
100010010
10011100
1111111110100110
1111111010110111
1111111101001101
10011100
1111111100011000
1011100
10100010
1111111011000111
1111111011011001
1111111010101001
1111111010110000
1111111011101100
1111111010000110
1111110110101101
1111110101000010
1000111
1111111011110101
1111111100101111
1111111001100101
1111111100011000
1111111101001101
1111111100000110
1111111100101100
