1111111110010110
101111
100011011
1111111101111001
1111110
1111111100010111
1111111111011010
11011010
10110
100001000
100101110
1011010
110111110
100010111
101100000
11000111
11001001
100000110
1111111111101011
11010000
1111111110100111
1111111100000001
1110010
1111111110000000
1111111101000000
1111
11110011
1111111110010000
1111111101011010
101000001
1111111101101000
1111111011001111
10000010
100101011
1011010010
1011100011
111001101
100100110
101000101
101111000
100001100
1000100111
1001111110
1001110001
110101011
1000101101
1001100
111011000
101001101
1011111
100100101
11111001
1111111110101011
1111111101100010
11001100
10011
1101011
1111111111000010
110000001
1111111111011000
1111111111111011
100111
111100101
1100110110
1100010100
10110010001
10110000111
10100011110
1111101100
11001010101
11001110110
10111100001
10000111110
1011001110
11101000
10111001
10100110
1001101010
101010111
110111000
11010101
11111101
1111111101000100
1111111101110100
11101111
101000001
10010
11011011
10101000
1111110101111001
1001100011
111110010
1101001101
10100100110
11000010000
111011001
1101101110
10011010000
10001110010
10100111110
10010100010
1101111010
111110001
111000101
100011100
100011110
110001011
110111001
110001110
11111001
101001111
11100110
1111111101110111
1111111010010001
1111110001111111
1111110100111110
1111111001000001
1111111011000011
1111111001010110
11001001
1000111110
1011101101
110111100
1011000
1111011
11100111
101001010
1010001
1101010
11101011
1111111100010111
1100100
111011011
1111111100010110
1111111001011100
1111111111111001
1111111011101000
1111111100010100
110101100
100010000
101011
11111000
1111111000001010
1111111010010101
1111111000101000
1111111001011011
1111110101110000
1111111100111010
1100100100
1010000010
1011101
11100000
101000100
101110100
111000001
1000011001
111100
101
1001010010
110001010
10100
1000
1111111100110101
1111111011101110
1111111111100101
1111111111110011
1111100
111001011
101101
1111110100100100
10101000
1111011
10101001
1111111011110010
1111111110110111
1100011
111001001
101100000
1111111110111111
10101101
100011011
1111111101100111
1110010
111100011
111110001
110101010
111111101
1010101000
1111111100110011
1111111110000001
1111111010111010
1111110110011001
1111110101010100
1111111001010100
1111111011111100
1111111011100000
1111111111000011
1111111110011100
111100110
100100011
1010111
1111111101001000
1100101
10001011
1111111101011011
1101110
10100
11111010
101110111
100000101
11000110
101010111
111111000
110010100
110100001
10111110
1111111100101100
1111111111101000
1111111011000010
1111111101000000
1111111001000101
1111110101100100
1111101111101010
1111111111101000
1111111100001100
1110011001
10010100
100101011
1111111010011000
10000010
10111101
100000001
1111111011001001
1111111100000000
1111111010111110
110010
1111111110110111
10000101
100000100
11001100
100001010
1100110
10111011
1111111011000000
1111111100111101
1111110100111010
1111111101100110
1111111101100010
1111110000100001
1111100101111110
1111110011000100
1111111001100101
11011000
1000101011
1111111111110111
101011010
10010
1001011001
111111100
1111111001000111
1111110011000000
1111111100001100
1111111010011010
100101111
1001100000
1100100
1000101010
1010011000
101101011
11100111
10111101
11101101
1111111011001011
1111111100111001
1111110111010001
1111111101011011
1111111000110110
1111101101000010
1111111011010010
1001001101
110011000
11110001
110010001
111101
100000110
1101011101
101101110
110111
1111111010110111
1111111011011001
100111001
1001111
100011011
10001100000
11010111110
1111000000
1000100111
110001101
100110001
1111111101010101
1000011
1111111110010100
1111111001011000
1111111011010101
1010100
1111110010011111
1111111001110010
101100111
110000001
1100101010
1110001001
110010111
1110100
111111010
100000001
1111111101011100
100001
1111111101010011
10010100
1001111
1100010
1111000100
10100111000
1110000010
1100101101
1011101010
10101010
1111111111100001
1111111101001100
110
110000011
1111011
1111111111000111
1111110001111000
1111110000000000
100110000
11
111101100
1000011011
10100000100
1011101001
1101000110
1111111100101110
1111111100110111
1111111011111011
1111111010101000
1111110011010110
1111111010011111
1111110000010110
1111110101100010
1111111100010100
1111111100101010
100011000
1000001101
1001011001
10101011
1111111011001101
1111111111100011
110001101
1111111101110001
110001011
1111010010
1111101010
1011111100
1111111111100010
11110000
1100010101
10000001000
1101011011
111011111
1111111001100101
1111110000101001
1111110111101100
1111110000011001
1111110010111011
1111110110001101
1111101111011011
1111101110001111
1111110100001000
1111110111100111
1111111111000100
1110
1111111110111000
101111100
100111111
1000110
11110010
1001010011
10000100100
11010010001
10111010110
11101000
1111111111011011
1111111011010000
1110101010
10011101100
1000100101
10111111
1111111110000101
111
1111111001011110
1111110011010010
1111111011010110
1111111000000111
1111101111011101
1111110000110110
1111110011101100
1111110111110000
1111110100101010
1111111100001100
110000111
110011001
1000111011
100101100
111000100
10100001011
10100001010
11001011111
10100101100
1010111010
10101111
1111111010001100
1111110110100011
101100111
1011100101
10001000001
10000010011
101001000
1111111110101010
1111110101010000
1111110010011011
1111110001011111
1111100111000100
1111101001100101
1111101101100011
1111110100101101
1111110111011010
101000110
1100111100
1001010001
1110101001
101111001
1001011100
100111000
1101110011
10011101100
11101000
1001000000
11110101
1111111010111011
1111110110101000
1000010001
10100100101
10111110000
11100000010
10010101011
10000001010
11100111
1111111000111110
1111110011110111
1111101000000001
1111110000000001
1111110010110001
1111111011000110
100111001
11101011
100100111
1010011011
1001111001
1000100110
11011001
100011000
1110110000
10001100101
1111011001
1101101000
1111111111111011
1111111100011001
1111111101100001
1000111000
11001101101
11111100101
100001101101
11111101001
11111111010
11001100001
1111101011
111001110
1111111101001001
1111111000111000
1111111111010101
1111111100111101
1111111111111000
1001010001
101101101
100011010
1010001110
110101111
110001111
111100101
1100000111
10101001111
10001101010
110000111
111010100
1111111001111101
1111111111100110
100001110
1110111010
10110011000
11100111101
100100000010
101101000001
100111100001
100010010101
11110101100
10100101101
1000101100
1001111100
1011011
100010101
1010110
100010
10111000
1111111100110010
1111111100011100
1111111110100000
101100101
1111001000
10011010101
1111010000
10011111
1111111011000101
1000000100
10011111
1111110110000111
100000111
1001010010
1001101101
11100001110
100010011011
101000001110
100010101001
101001100100
100101110001
11001111111
111111110
10000000
1111111011011101
1111111101000110
1111111011010101
1111111100101000
1111111011101100
1111110011000111
1111111010110001
100111010
1100000100
1101100100
101101010
1111111110100100
1001
1111111110110100
1111111110011010
1111110001100011
1111110100111001
100100
1111111101110100
100101010
111110010
1000100011
1101110010
10010000100
10011101100
1100001001
1000101000
10110000
1111110110010101
1111110110000001
1111101110010011
1111111001101011
1111111000101111
1111111010110011
1111111100011011
1111111101011000
1111100101
10010010110
111110010
1111111011100011
11
101000
1111110011101000
1111110110100111
1111101100000110
1111110001101100
1111111010000100
1111111100110100
1111111001101001
1111111111110010
110010
111101110
1010101010
111011100
11001101
1111111100110001
1111111111100000
1111110101100000
1111111001110011
1111111011111001
1111111101110101
1111111001000110
1111111110111101
11001001
1111111001
1010011001
110010000
1111111100101111
10010100
1111111010010111
1111111101100100
1111101111000000
1111101000101111
1111110110001110
1111111001010001
1111111001011100
1111111011110010
1111110111001110
1111111010000110
1111111011010000
10100011
101000
10100001
10011
10000
1111111011010011
1111110110110010
1111110101011011
1111111011011111
101111000
101001011
1111111110111011
111100100
100011010
1111110110100011
101100101
1111101
1111111011001000
1111111010010101
1111101100010110
1111101000001010
1111110001000100
1111111000001110
1111111000001100
1111110000011011
1111110111001001
1111101111101011
1111110001001101
1111110100111010
1111110110001110
1111
1111111100001110
1111110111001000
1111110110000110
1111110101001001
1111111100100000
10101000
1111
111011010
1111111110011000
101011111
110110010
1111110110000101
11101100
1111111100111010
1111111011011100
1111111011001111
1111110010110010
1111110011100111
1111111110111010
1111111010101110
1111111001011101
1111110101001001
1111101110011011
1111110100110101
1111110100001100
1111110111010100
1111111101001101
1111111001001100
1111111010111011
1111111101000011
1111111101000111
10111101
1010100110
101010011
1111111111100011
1111111100001010
1111111001010110
100111100
11001001
1111111101101100
10100
1111111100101010
1111111100010001
1111110101111100
101000110
1001011001
110001100
1111110111010010
1111111101000110
1111110101001111
1111110101101000
1111110000010000
1111111101111000
1111111110001001
1111110110110100
1111111110100000
1101111
10
1010011101
11101001
111100000
10111111
100110111
1111111001011001
1111101101100110
1111111110000110
100100
1000011011
101000011
11000000
1111111011000101
1111111100111110
1111111111101101
1111101111111010
11110100
11110001
11001110
10010010
101010101
1111111110000110
1010111
1111111101110100
110001010
1001010011
100110100
110000010
11111000
100110011
10000110011
1001001111
111110101
1010100110
1111111100010010
110110101
101100100
10000
1010
111010
1111111101000111
1111111110010111
1111111111001011
110000011
1010010001
1001010110
111100000
1001100111
100111110
10000011010
101101001
11000001
1111001010
1101000100
10011001
1111111101100101
1011111101
1000111100
110110100
1010101110
1011011101
100011011
110011011
1111111011001010
100001001
10011110
1111111101001100
