1110010
1111111111101000
1111111011110010
100100111
10101110
1111111100100111
1111111111110111
10011001
1111111100011010
1111111101100001
1111111101100110
1111111111110010
11011100
11110011
1111111100010110
101010001
1110001
1111111110101101
1111111101111000
1111111100111101
1111111011110011
100100001
1111111110101110
10101100
1111111101011110
1111111011111101
100011000
1101000
1111111011100101
10110000
1111111011100001
1111111011010011
11000101
1111111011111001
1111111110010100
1111111001101100
1111111000111101
1111111011001001
1111110111001100
1111110101001100
1111110100101000
1111111100100100
110110
1111111101101111
1111111101001011
1111111011010111
1111110000100110
1111110110110011
1111110001100101
1111110100001111
1111110110110001
1111111111000001
1111111110101101
11011100
1111111111010100
100010111
100100001
10011010
1111
1111111100100110
1111110000100101
1111111010110011
1111111100011001
1111111011011011
1111111001001100
1000011111
1111111110010011
1111111100010100
100000001
1011000100
1101111010
110001110
1100011
1111111010101111
1111110000101011
1111110000011111
1111110110100110
1111110011110110
1111110101101101
1111111011010010
100111000
0
1100001
1111111111111101
100100001
101001011
110011110
1111111011010011
1111111001000111
1111110100000100
1111111110101011
1111111001101000
10100001
110111000
1111111100100001
1111111110011100
1101010
10110001
101000101
11010111
1111111010000100
1111110111010011
1111100011001011
1111100111111010
1111101110000010
1111110000011001
1111110001110101
1111110000010011
1111111100010010
10001001
1111111101010000
100011011
1111111011100101
1111111011001111
110110111
1111111011101100
1111110111110110
1111111110111011
1111111101100000
11001
10111000
10110
1111111100011110
10010101
1111101
110000
100101110
1111111000010100
1111111010101110
1111111011101110
1111110110001100
1111111010011110
1111110111000000
1111110110001011
1111101111101000
1111110111001011
1111110110110000
1111111001110011
1111101101111100
1111111000111111
1111111011101110
11010011
10101001
1011001
1111111011110001
1111111101000110
1111111111101010
1111111011011100
111010000
1111111111010001
1001100000
111110010
1101000011
1001100010
110100111
1000110111
1010000001
101000001
10000000
10000
1111111011011110
1111111100110001
1111111110010000
11111
1111110111100001
1111110100111011
1111110001101101
1111110011111101
10111
1111110111000101
1111111101111111
1111111100010010
1111111011110001
1101111
100111010
100000100
1111111111111011
1000100011
101110110
11000001
111101100
1010010011
1100010010
1101100111
1000010111
1111111111111000
10101101
1011
11000110
1111111100001111
1111111010001011
1111111010110000
1111110101111011
1111110011010001
1111111101100001
111010011
1111111110111100
1111101101101111
1111111001010001
1111111110001111
1100010
110010010
100111000
1111101
10010011
1111111101001010
1111111110111000
1111111111110011
100100001
101011010
1001100000
1111111111000110
1111111110111011
1111110011010100
1111111100010011
1111111001000110
1111111110100100
1010100010
1101101
1111110001011001
1111110011001110
1111110100110001
1111111101011000
11000111
1111110111011111
1111111101010000
1111111111101010
1111111001110111
1111111111001101
111000101
1111111110110000
10001000
1111111000101001
1111111001111101
1111110110111000
1111111100011001
1111110101100000
1011111
1111111011111001
1111110100101101
1111110011001101
1111110000110110
1111110100110010
1111111101111111
1111111001010101
100110010
1111111100100000
1111111001010101
1111101001001010
1111111000001110
1111111111111001
1111110101100000
1111111011111100
1111110110000111
1111111101101011
1111110111111100
1111111110100000
10001011
1111111011000111
1111111010111011
1111110101001100
1111111000111000
10000111
1100100
1111111110000001
1111111000101101
1111110011001111
1111111011010011
1111110111010100
1111110111101110
1111111011000011
1111110111111110
1111111010100001
1111111011001111
1111110110111111
1111110000000111
1111101010000110
1111101011100100
1111111000011000
1111110111000110
1111111100000110
1111110100101110
1111110111111101
1111110110001010
1111110010101010
101001111
10010
1111111111110011
1111110111011001
1111110111110110
10001001
100100010
111010011
1111110101111110
1111110000101100
1111110100010101
1111110101010011
1111111011010101
1111111011010001
1111111101101111
1111111000110011
111
1111111010010110
1111100111111101
1111100001010100
1111101111010101
1111101101001101
1111111000001000
1111111000010110
1111110011110100
1111101100011010
1111110111001111
1111111100011111
11110010
10010100
1111111000111111
1111111101110001
1111111010111101
1101001
1001
1111111010101111
1111100110010000
1111011111101100
1111101001111100
1111111100001001
1111111111000001
11011001
110000110
101110001
100010001
1111111011000100
1111100111010101
1111011001001101
1111110000000010
1111110010010011
1111110101000000
1111111110111000
1111111010100100
1111110010101100
1111111010001110
1111111101011100
1111111001010011
1111111110010001
1001
100101111
1111111111011100
1111111011001010
1100101
1111111010101001
1111101001010011
1111101001111100
1111110111110000
1101011
1111111110101101
1111111101101110
100000001
1010011110
1110001000
1100100
1111110010110111
1111110100000011
1111111011001101
1111111111011011
11010011
100010000
1111111010101010
1111110000110110
1111111010110100
1111111100010101
1111111011010111
1111111000110000
111001101
1000011000
10110
1011000
1111111111011001
1111111100010110
1111111010010111
100101010
111111010
1001100101
100111100
110100011
100001000
111011101
110110010
1111111101101100
1111110101110001
1111111111101110
1000110101
10010101111
1101001111
1111110110011010
1111110111111101
1111110001011010
1111111111101111
10100010
1111111000100101
10101000
101111000
111001000
1101010
1111111011011000
1010001111
101110111
1010110011
1110100101
111001001
1010011010
1000011111
11100110
1111111111111110
101100111
1111111110101101
1111101110010001
1111110000111010
1111111000011001
1110111101
10010000010
101100111
1111111111011100
1111111011100001
1111111011001010
101000100
111001100
1111111000001101
110000111
110001101
1000100001
1100000
1000101011
1000001110
1010000111
1111000100
1010100000
1000100010
1110010010
11101010
1111111010111000
100010100
1111110111011110
1111111000110110
1111101110111111
1111101110110000
1111111010001001
11010000010
10001010000
1110110000
1111111011111001
1111111101101011
1111111010101001
100100111
1110101
1111111110101001
10000
1011101
1111111100101101
11001001
1000111110
1101110110
10001001111
1011010000
10101101010
1110100111
1110100111
1010010
101100101
1111111010000000
1111111010000001
1111111010101111
11110010
1111111111011101
10010110
11111000010
11010100111
1101100001
11111100
1111111000101110
100010000
1111111001100101
1111111101110100
1111111011101011
1111111110110000
1111111110001101
1111111010001110
1111111101010010
111110011
1100101101
10000010011
10000010110
1110000010
1111000001
11101001
101000001
1111111101011010
1111111101000010
1111111110111111
10010
100011
11101000
100011011
11001011111
1110111101
1111111101011001
1111111100001100
1111110110001011
1111111100000110
1111110101001101
1111111110000010
1111110111010001
1111111101101101
1111110111000001
1111110111011000
1111110111010101
100010101
1010101
1101100110
1100110100
1010110000
1001010
1111
1111111101000011
1111111101010000
1111111101000101
100101011
11111111
111101000
1100011011
1101101101
1110101110
100101101
111101110
1111111100110010
1111110101100100
1111111000100001
1111111001010100
1111111101001000
1111111100111110
1111111000110110
1111111011111100
1111110001011000
1111110101010000
1111111010011011
100001
11110010
101111100
111001001
1001010110
1010000101
10011
1111111111111101
1110100
110110100
111010101
11000100
1011101000
101101010
10011110011
1001111111
111101100
1111111101111011
1111111001000000
1111111110000000
1111111101110110
1011101111
1111111111000110
1111111101001100
1111111101100101
1111110111010110
1111111001001101
1111110110110011
1111111100110000
1111111001010000
11111000
1111111101110010
10110000
111010
11110010
110000111
110100100
1011110001
1100001111
1000010001
10011000101
1111100001
10101011011
1111011010
1111111001110001
11000101
1111111011110001
1111111111111001
100101011
101001100
1010111101
10010
1111111111111101
1111111011100110
1111111101011111
1111111100101110
1111111011100110
1111110110010110
1111111011111010
10000100
1111111101100000
1111111111000111
110001010
1000110
1100110000
11111100
11011111
1011001000
10010110101
10100010000
1100111111
1100010
1111111110001111
1111111100011001
1101100
1111111101100000
1001001010
1011010011
1010000010
1111110110
101111101
1110101001
100001001
1111111111111001
10010011
101001
1001000
10000010
1111111101010010
1111111111010011
11101001
1000011110
101010011
1011100110
1010001111
1001010011
10000000100
10010001111
1110100000
1101110
1111111110010001
1111111101011111
101010
1111111010001101
1111111000100010
1111111000110011
1111111110110001
10000011
100010011
1011100010
111110000
1100110
1001110
10001101
1111111111110011
1000101
1111111000000111
100100011
110110010
10000000001
10001010011
10010110110
10011010000
10001001110
1010010001
1011111001
1010011011
1110010
110101
1111111101000000
11010100
1111110001001010
1111101011001111
1111101011101101
1111101110010110
1111110110110001
101110
1111111100001101
1111111110010111
1111110110010100
1111111011010001
1111110100111101
1111110101101010
1111111001110000
1111111001010100
110001000
1011110111
1110100010
10011011100
1100101001
1010111011
1101000010
1001010101
11111000
101101011
1000100100
1000110
11011111
10010100
1000110101
1111110001000011
1111110111101011
1111111000010011
1111110100001000
1111101110001101
1111110001111010
1111100111110110
1111101011010111
1111101001101000
1111101111000100
1111110010001100
1111111010000000
1111110011100011
1111111000111100
1111111100011001
1101101
1111111110110101
1111111110000010
1111111101101000
1111110100000110
100001
1111111010101100
100111101
101001111
11010111
1111111100101101
11100000
11011111
11111000
101110111
110001111
111101111
10110001
1111111101010011
1111110101011011
1111111010100000
1111110111101111
1001101
1111111001100100
1111111000100010
1111101111101011
1111101101110011
1111101101011100
1111110001101000
1111101111010001
1111111011000001
1111110111111110
1111110001011101
1111111111101011
1111111101000110
1111111100001101
100011010
1001
1111111011010100
11111110
1111111111011000
101000100
1111111110001100
1111111000101110
1111111101101101
1110010
1111111000110111
1111110111110110
1111111001011001
1111111111010011
1111111100000100
1111111010100000
1111111100100010
11011101
1111111100001011
1111110111001001
1011110
1111111010010001
1111111100111011
1111110111101000
1111111100001001
1111110110110111
11100001
100110110
10000010
1111110
