11
1111111111001101
1111111101110111
1111111110101001
1111111011000001
1111111011010001
10111111
101001010
1111111100110010
100011
1010011
100001101
1100001
100100001
1111111100101010
100100110
100110010
1111111011010101
1000111
1111111101101101
1111111111010001
1101011
10001
101001000
1111111010111101
11011010
11100110
1111111110110101
100101010
101000100
1111111101101011
1111111100001100
1111111111001110
1111111100001010
1111111010101101
11101011
1111111010011100
1111111100001000
1000011010
1111111111001101
1111111111101111
1011001
1001001010
1111111101001101
1111110110111110
1111111011111110
1111111101010101
1111111110011100
101011010
111001010
1111110110111011
1111110111100101
1111111100010010
1111111101011100
1111111111100000
1111111011111000
1111111101101011
1111111011101011
100010010
1111111011111000
1111111010011011
1001100101
1110000100
1000010100
1101111111
10010001101
10110110111
10101100011
1111110100
10110000001
11111101010
11010001101
1001000010
101101101
111
110100010
101010010
11001011
111011110
11111100
1110100000
1010011100
11110010
1101010
1111111011000111
10001100
1011011000
1111111010011101
1111111100011101
1000110000
1110010000
1010101010
1111111101011100
1010110010
101111
1111111100011000
1000100
100010100
110001011
11110001
1001111
1111110111100010
1111111000010101
1111111100000000
1111111001010101
1001000
10111010
1111111100100110
10011000
1111111010010011
100100000
1111111111001011
1111111101101100
1111111110101111
1010001001
1111111010010000
1000111010
1011010001
1100011
1111111011011001
1101011
1111111010101100
1111111111100010
1111111001010000
1111111011001001
1111111100111100
1111111011011111
1111111110111101
11111011
100110010
1111111001100111
1111111011000100
1100101
101110111
101100
1111111111011010
1111110010001101
1111111001100010
1111111010001010
101101101
100000100
100001000
110110100
1111111111010000
1011100000
1111111100011111
1111111001111111
1111111100100000
100010110
1111111100010011
1111111001010011
1111110100000100
1111111000010111
1111111001011110
1111111111111101
101011100
1111111111000110
1000001
1110111
1010010
1111111111111111
1111111100010110
1111111101010000
1111111111111000
1
1111110110111110
1011011
110101001
1111111100101000
1111110101010110
1011001
11111011
1111111
1111111011000000
100101100
101111111
1111111111011100
1111111100011010
1111110111110100
1111111110100000
1111111100011101
1111111110011010
1111110111101011
1111111101011001
1111111010000010
1111101111111100
1111110011111100
1111110101000111
1111110001011110
1111110110001100
1110010
11000100
1111111001110011
1111111101010000
1111111100110100
1111111111110000
101001000
1111110110110010
110011100
101000110
10001100000
1010110
11001001
1000101011
1111111100011000
1111110111001011
1111111100101000
1111111001101100
1111111111011101
10001100
110
1111110111101001
1111110001111100
1111101011111010
1111110001101010
1111110000001001
1111111011101000
1111111001101010
100010011
1111111011100101
1111111010111110
1111110110011111
1001000
1100100
1111111100110010
1111111010101010
1010111
101000101
10100110011
100100100
10001011
100110011
1111111100101010
1111111110100101
1111111101011111
1111111111110010
100110000
101000011
1111111111010011
1111111000101110
1111110110010101
1111110010111100
1111101101110111
1111110101000011
1111110100011100
1111111000100110
1111111011001010
1111111000001000
1111101110001010
1111110111010000
10111101
1111111010001001
1111111101110100
1111111110011001
1111111101110011
1111111111101100
1000110011
1010100111
1111111110010100
1111110111111001
1111110111100110
1111111010011101
1111111011100101
1111111110010001
110000
1111111101101111
101001
1111111100001001
1111110111101101
1111110111101101
1111110010111010
1111110010001011
1111110100100101
1111111001001010
1111110110111010
1111110001011010
1111110001110111
1111110001111111
1111110100101101
1111111101100000
1111111011011100
1011001011
1111111100101010
1111110010001001
1111111010111111
1111111110000011
1111111011101111
1111110010111000
1111111011000011
1111111100100110
1111111111111001
11110011
1111111110001101
1111110111111000
1111110110100010
1111110111100111
1111111101100111
1111111110100110
1111111101001001
1111111100010001
1111110001101011
1111111001000011
1111110111100010
1111101111100100
1111101000111101
1111101001110100
1111101100110001
1111111100010000
1111111111010010
1111111111100010
1111111000001111
1111110111100101
1111111011000000
10001111
1111111101101111
1111111101100101
1011111
111110111
101110
11110000
1111110111111000
1111110010100010
1111101010100010
1111110010001101
1111111101100100
1111111100011011
111001110
1111111101000000
1111110111100000
110111
1111110111111111
1111101011000111
1111101000010000
1111101010101011
1111101010100110
1111111110000111
11111010
110000000
1001000
1111110011101010
1111111011000010
1111111001011110
1111110110100101
1111111011111100
101100111
1000100011
110110010
101010111
101
1111101100100111
1111110100001110
1111110101111001
101101100
101110
10111110
1000101001
110001001
110001011
100011001
1111111100011100
1111111100000010
1111111001000110
1111110110010100
101100010
110000111
1111111111011010
1111111110101000
1111111001111101
1111111100010100
1111111100111111
100000000
1111111011100000
100001000
110101
1111111101100000
1111111011001101
1111111010000100
1111110101110011
1111111101111101
1110000
1101100000
10000001100
1001000111
1111111110001011
110001011
11001011
10111010
101101000
100000110
101100110
1111000100
1011011011
1111111101000110
1111111000001010
1111111100100111
11010000
1111111110010110
1101111
11001000
11010100
11110001
11011100
1111111100101011
1111110110011001
1111110011010111
1111110110101011
100101011
100111111
10000001011
110001110
1111111111111001
1111111010001100
1111110110000101
1111111010000101
1111111100010111
11010110
1111110111100010
1001110000
10000110101
110001110
1111111100110111
11010
100001010
1101111100
10100011
100000011
100100101
111100111
110001100
1101110
1111111001000000
1111110111011000
1111110111100111
110010011
1110001010
10101010100
11000110100
111111001
1111110111011100
1111110001001001
1111110001101011
1111111001111011
1111110110111110
1111110101010000
1111111001000000
1100011100
11010101111
1010000101
10101101
1111110110110011
1111111010110101
1101000000
101110010
1111111111101111
111010000
1000000111
110010101
1111111101000010
1111110110110011
1111111101010000
10010100
1110000001
10110100101
10100001001
10001110001
10101010
1111111010000100
1111110101011101
1111110101111110
1111111001110001
1111111000101011
1111110111010011
1111000
11000000001
10110001110
111001011
1111111111001010
1111110101100011
101011110
1111111111110011
100111010
1111111101011001
1111111100011100
10111
1000
1111110100110111
1111111011000101
1111111011001111
110001110
10100101110
10010110101
1011011111
1000100101
1111111011100000
1111111100010010
1111111000011001
1111110110100001
1111111111011011
1111111001011011
1111111011110110
1111111010111010
10110011011
10000100010
1111111111101101
1111110110000110
111101
100011101
11111110
111101101
1111111000000001
1111111011011111
1111111001000011
1111110101100111
1111111000001111
1111110001000100
1111111001010010
110001110
10100101111
1011001110
1000100000
111101011
1111111110000010
1111111110011011
1111111000000100
1111111111010110
101000110
1111111001111001
1111110111100111
111000100
11010110110
1011101000
10000010101
1000010101
1111111001001011
110001
1111111111101011
1111111111000000
1111111011000100
1111110101001011
1111110110100100
1111110000111111
1111110100100010
1111111010101001
1111111100001000
1011101
1110001100
101100110
1011111011
100101100
1010110
101111111
100111011
100000
100110011
100101100
1111111111000011
1011101
10011100110
10011000101
1011101000
1111111100111010
11111
10001110
101100
1111111111111111
1111110011001010
1111111000101110
1111111010000000
1111110111101011
1111110011011110
101
1100101
111100110
101010000
101100110
10000011
1001110110
101001010
111100011
1001111
10010101
100001010
1100111
1111111110100101
1110
110110011
10000100111
111000
10000100
1110000
1111111001110111
1111111110100000
1111111111111100
100
1111110110111011
1111110110011010
1001110
1111111100011100
10110101
1111111110000101
1110111
1111111110101011
101010110
111001011
1111111110011110
111010001
11110110
110100110
110101011
1001111000
10111000
101010001
11100101
1111111111111010
1111111111110001
100011100
110000100
1111111111001100
1111111011001110
1111111111000111
1000000
11010110
1111111000000110
1111111000010000
101011
1101001
11011001
1111111010111100
1111
101
1111111001101111
1111111001111010
1111111001101101
1111111100111101
1001011001
1010110100
1010101010
111001011
1000010011
1111111110100000
10101010
1111111110010011
1111110111001000
1111111101101000
100110100
11010
11000011
1111111001001111
1111111010000000
1111111011111010
1111110011101011
1111111001110100
1111110100010010
1111111111101001
1111111100011111
1111111100001000
1111110111000100
1111111010001111
1111111110101000
111010
110100111
1100011001
1001001111
1110100111
111010011
1001110110
101100101
100010011
1111111101000110
1111011
1111111100000001
1111111110101111
1111111100110000
1001010
1111111011001110
1111101000001001
1111100110010101
1111101111101110
1111101001000100
1111110011000100
1111110100100001
1111111010011111
1111110110110111
1111110111000101
1111110111100101
1111110010000100
1111111001101101
1111111110101101
1111111110101100
111011100
1100111110
1101000000
1010111100
1110010101
1011001100
1001011111
1111111101011011
1001010000
1001111100
1111111011010101
101000111
1100000
1111111010011000
1111110101010011
1111111000011010
1111110000110101
1111110001001001
1111101001011110
1111101011000100
1111100011100011
1111101110001000
1111100110001110
1111101100001100
1111110000011001
1111111011000111
1111110111001110
1111110010010000
1111111011101100
1111111100111101
1111101111101000
1111111100010100
1111110111110010
1111110101101111
1111111001111000
1111110111111010
110111010
110000
1111111101111100
11011110
10010011
1111111011011001
1111111010000010
1111111110000010
1111111111000001
1111111000011010
1111101100100000
1111101011010000
1111101001110000
1111101011000011
1111100100110101
1111011100011101
1111010111110100
1111011000011010
1111100111101001
1111100011010110
1111100101000000
1111100101111010
1111101001001101
1111011110101110
1111100110100000
1111101110110000
1111110110001011
1111111100111001
1111111111000000
10001
1111111111100010
1111111110010010
11111010
111111
1111111101100111
101011100
100001100
1111110110011111
1111111001011001
1111110001100101
1111111010000001
1111110001101011
1111101111101101
1111110001010100
1111110100011111
1111110001101010
1111111010001110
1111110001000011
1111110101011111
1111110001101011
1111110110110101
11100000
1111111010010000
1111111101001011
1010110100
1101
1111111111000011
11100010
10000001
