1111111111010001
10110011
10010
111110
110
11100101
1111111111100010
1111111011100011
1111111111000111
11111011
10100
100001111
10111001
10101100
11000100
11011101
1110001
101000
1111111100011100
1111111100010111
1111111101011100
100111000
1111111100110011
1001001
10100110
100001010
1111111100011111
11011100
1111111110001011
1111111100110111
1111111100011100
1111111110100010
1111111111011011
1111111111100011
10010110
110010111
1000000100
1011100000
1001110000
11011011
111001101
100001111
1111111101000101
1111111110100011
1111110111001110
100101111
10010100110
1001001001
1011010001
1011111101
1110010110
1010001111
11010111
10010000
10000101
10110000
10110
1111111011100010
10000011
1111111100001010
110111111
1111111111110000
1000110010
1111001000
1000111101
110111001
10010111001
10010111011
1111010010
1011000011
1110000000
1001001111
101011011
111101100
111110001
1100111001
10010001001
10010110110
10001011101
10010000001
1111111111111100
1111111110101100
1111111111100000
1111111011010111
1111111110110000
10110000
111101000
1011110011
110110100
100101110
111101011
11000001
1111111111000010
1100001110
1001101111
1111111101100010
11110010
1010000101
111111111
1100010111
110011010
10110100
1111111110011000
11110100
110000100
111110101
110
100110
100011001
1111111101110110
1000111000
1111111011001010
10110101
100000101
10010010
10111100
1000101000
101101001
1111111011000010
1111111011001000
1111111101000011
1111111011010101
1111111110010001
1111110001010001
1111111111101000
100011110
1111111100111111
1111111011011101
1111111110000010
1111110110010110
1111110110011001
1111111001110010
101111000
10111010
1111111000011111
1111111001010011
1111110011110100
1111110111010010
1111111110111000
111110
10111011
10100100
1001110100
1111110011110010
1000000010
1001101011
1001100101
100100110
110001011
1111111110000010
1111111001000111
1111111001110000
1111111000000110
1111111011010001
1111111010010100
1111111010100001
1111101101100010
1111101101111100
1111110011000100
1111110001010110
1111111001011111
1111110111101110
1111111000011010
1111111011111110
1111111000010010
1111111001101100
100001010
101100100
1111111110111010
1111111001100000
101000110
10010110
1101001001
1111111
10011001
100111101
101111000
1111111110101010
101110101
1110010
111100
1111111000011100
1111111011101010
1111111001111110
1111101111001010
1111110001001110
1111110101010101
1111101011110101
1111101100101010
1111110101000001
1111101010101011
1111101110101101
1111110100001000
1111110100000010
1111111101100110
1000111000
10100010
111100110
1000110111
111001100
1011000000
1001100011
100100000
1101011
10000110
111000101
101100111
1010110
1111111000011010
1111111011010111
1111101110001010
1111110001110010
1111110110000110
1111110100110110
1111110010101000
1111101101110100
1111110001110101
1111101101011011
1111100010000110
1111100000100011
1111100110000100
1111101001110000
100010010
101100001
1111111111100111
1110111100
1010010111
1010110101
1100101110
101101110
1111111110011010
1010001
11100101
111100100
1111111101110010
1111111011000001
1111110100110000
1111110101011110
1111110100111111
1111110100101000
1111110000110001
1111110010111100
1111101001111010
1111101001101110
1111110001101101
1111101001011001
1111101101100111
1111100110001111
1111010111000011
1111011001011100
1111110000110010
1111110110001101
111001110
111011010
11101011
1111111011
10010100111
1111111011111011
1111111111000011
101101111
110111011
1111111010000000
1111111101011111
1111111101000010
1111110101100011
1111110011101010
11001011
10101100
1111110110101110
1111110010011110
1111110011110000
1111101111010010
1111101110001101
1111110100000110
1111110101000110
1111110011110011
1111101101101010
1111011110011010
1111101100010100
111101101
111101100
1011101111
101111101
101001110
11001001
110011
1111111010101100
11001011
1111111111010100
1111111010000100
1111111001100111
1111111001001010
1111111011101111
11110
1000010101
1111001101
1011101
1111110110010010
1111111010100000
1111110101000010
0
10010001
110011
1111111101111001
1111101111111110
1111101101100000
1111110110111110
1111111000001000
10010101
100011010
10111101011
1100111100
1110010010
1111111110111101
1111111011010011
111101011
101010101
1111111100011011
1111110010010011
1111110011101111
1111111110111100
1010101011
1111010011
11000100010
10001001110
1111111111110010
1110110
10101110
1001101100
1101110010
1110100110
1101000100
1111111001011000
1111110110111011
1111101011010001
1111111110100110
10001011
1010011001
10110110010
1111110111
110001111
1111111011011101
1111111000111101
100100110
1111111110111111
1111111000010011
1111110100100000
1111111001110110
1111111101111001
10000
1011001000
10000010010
10101100111
10101101
1111111011011011
1111111111011000
10001010
1100111001
1100001011
10001100110
110110101
11101111
1111101110000011
1011101001
10001001
111101011
1011111010
1101111000
110101100
10000101
10111010
1111111100000010
1111110111010101
1111110111010111
1111110101001111
1111110100100010
1111111110110000
1111111100100011
10000010000
10101101010
1010000100
1110011
1111111110000101
1111111011110101
1001000011
1101110100
1110110101
10000101011
1010110000
11111
1111101011011100
1111111000111000
1111111011011111
10110001
1001000110
1011001001
1111111101011111
1111111110000010
10000011
1111110111111010
1111111110010010
1111111001000010
1111111000010011
11000101
11000100
101011011
1000000001
1110111111
1000111100
1111110101000000
1111111011100101
1111111111010000
1101010000
1100001001
1111111011
1111010010
1010011011
1101
1111110010110111
1111111001110010
1111111110111100
1111111110110101
1000110010
11001001
1111110000011111
1111111010011110
1111111101011110
1110111
1111111011010111
1111110111111100
1111111110101111
100101000
110100111
101010011
1110000111
1101011010
1111111101000100
1111110111101111
1111111010111000
1101001
1010010110
10000010100
1010000101
10001101
1111111111001111
10001111
1111101100010011
1111111100011110
111000100
1111111101001000
1111111110100010
1111110001001000
1111101101011001
1111111000101100
10100010
10101010
1111110111101000
1111110110001100
1111111100100101
111010000
101001100
1000011110
1110111010
1100001011
1111111110110111
1111111010011001
1111111100110010
100001010
1001000001
110101100
1010101001
10101011
1111111110111001
1111111110110110
1111101101011110
1111110100101111
1111111100101010
1111111100110000
1000001101
1111101101010000
1111110110100011
1111111101101001
1111111110010111
1111110101100000
1111110101100011
1111110011011111
110000111
11001
110000101
1001011000
10000110100
1001111111
1111110110100001
1111110111000010
10101000
1111111110111011
1111111111110111
100000110
111010
1111111101100000
111010110
1000011001
1010111
1111110001010000
110001000
101011010
1011010010
1111111001011100
1111110100111100
1111111100011001
1111110110011011
1111110100111010
1111110010011001
1111110101011000
1001100
100101100
110100000
1001010101
1000001010
1111111101011001
1111111000101011
1111111111111001
1111111101110000
1111111000111011
1111111100111101
11111000
1111111110101101
10000111
1111111110000111
111100100
100000101
1111111011010011
111010111
11001111
110011011
1111111101000010
1111110011101111
1111110110010001
1111110011100001
1111110101000011
1111111010011010
1111111110110000
1111111100111101
1011100111
1000001011
100101101
1100100111
11001101
1111111111000100
1111111111001011
1111111011110010
1111111111010010
1111111000011110
1111110111100110
1111111000111000
111110
110
110111
1111111010101000
11010101
1001101
1111111100011010
1101100
1111111000010100
1111110011110010
1111110010011100
1111101111011110
1111110100010001
1111111001010011
1010011
10110101
10000101010
1101011111
1010111011
110010010
110101011
10000000
11001
10011
1111111111101000
1111110101100010
1111110100111000
1111110101001110
1111111100100101
100001110
101110111
101110000
10010110
100101101
101010
1111111000011010
1111110100010000
1111110110001010
1111111001111001
1111111010001011
11100
100011111
1111111111100000
111011100
100001
1010100010
101110101
1000010
1111111110101110
1111111111101101
1111111101111000
10100000
1111111111000111
1111110101100100
1111110111100001
1111101001010001
1111101001110000
1111111111011001
1111111111011110
1111111100100101
10110010
1111111101011001
101011111
1111111010101111
1111110010101101
1111111000100001
11000110
1111111100110100
1111111110010010
110010000
1101001
100001000
1111111000010010
1111110101001101
1111110011101010
1111110001101111
1111110011000101
1111110101100000
1111111010001100
1111111001101100
1111110101010100
1111111111001010
1111110101111011
1111011111011111
1111101000000001
1111101011001010
1111111011011111
111001101
1111111011110001
11000100
1111111111011100
1111111001000010
1111101101111010
1111111000011100
100100001
100100000
1111111110001100
1111111110011101
1111111011101000
1111110101100111
1111101111110110
1111110101000111
1111101100110010
1111101011101110
1111101110101101
1111110101011011
1111110011010000
1111101110011001
1111111001111100
1111111011000001
1111101101111101
1111101010010100
1111100010111110
1111101100110101
1111111110010100
110000001
100010
1111111011010010
100010111
111010
1111111000010000
10011110
1010100101
1001011000
100100110
110000011
11011110
1011111
1111110101001010
1111111010111101
1111110100001100
1111110110000011
1111111000001000
1111101100011001
1111111010100100
1111111001110011
1111111000101110
1111111010000110
1111111110110010
1111111011011001
1111100100001100
1111110001111000
10110111
10000000
100101
100001011
100111000
1111111010101110
1000000010
1000100101
11110001
11001110
1100100000
1111001110
1001010110
1111111111000100
1110100
11011010
1111111001111101
1111111010111100
1111111111011100
1111111101111001
1111111010111110
1111111000011111
1111111001010110
1111111001010101
100100
11001000
1111111010101010
10011001
1111111010111010
1111111101100000
1111111101010100
11001000
1111111110000001
101000101
1111111010011111
1111111001010010
1111111000011011
10010111
10111100
1011000011
110010000
11110011
1000
1111111001010100
11100111
10011011
1001111
1111111011100101
1111111010111000
101011000
10001011010
1010011100
1000101110
1000100101
10101000
1111111101000010
1111111110100010
1111111101110010
1111111111010111
1010101
1111111101011010
1111111011101101
1100101
100010111
1101101101
110100011
100011100
1001000000
1101100010
10010101101
1000010101
1000100
10011010010
1000001110
10110000
1010101010
10000010001
1011000111
1010010111
1010011011
1111100100
101000110
101001100
1111111100111010
1010110
10110110
100100011
