10001001
1111111111001101
1111111110101010
10000011
1010111
1111111100010001
1111111111001011
1111111111111001
101000111
10110111
10000001
1111111011101100
1111111110011001
10010110
10000011
1111111100011000
100010011
10111010
100011110
11110000
1111111100111100
1111111111010011
1011011
11001010
1111111101010110
1111111101010001
1111111111111110
100101011
1111111100010011
1111111101110111
1111111100000001
1111111111011000
11111001
1111111110001101
101100111
1010001001
110011111
1000000001
1001010110
111101000
1110101011
111010111
1010101
101011101
1000111011
1101000111
110110101
110110010
1001100001
1001110111
101011110
1000101101
1111111111100111
10110100
1111111011011011
1111111101000001
1100
1111111101010100
10010100
1000100000
1011010111
1010010
1000100111
1010111101
10001001110
10101000001
1111001101
10011111000
10000010100
1110010000
1111111000
1111011101
10100101000
10101000010
1000111001
1010011110
1010000001
10101110000
1101101001
1111000101
10001101011
1011110110
1111111011111000
11100010
1111111111000010
1000111
1111110101111001
110010111
101111000
1111111100111111
10001000
1111111010
1111000100
11000010101
10011101110
1101111010
110110011
1101100000
1011101011
1111111101001010
110010101
1111111110101010
100101
1000100100
11011110
111110100
100111100
10100010
1010101000
1111111100011100
11011001
10100001
10001001
1000110
1111111000001001
1111111001010101
1111111010001001
1111111111110000
1111111101001111
101101001
11111111
11110101
101101000
1111111110011011
1111111100110100
1101010
1111111101001000
1111111000010110
1111111100011111
1101111
1111111111101110
111110000
1101111
11000001
110001011
1000010111
1111111101000100
1111111000011010
1111111101111000
10000000
1111111110000011
11011011
1111111111110000
1111110101110110
1111111100100011
1111110101000010
1111111111000011
1111111101011001
110011111
1111111111111011
1011101001
1111111110011010
1111111011101001
1111111111010100
101010100
1111111110110010
1001000
101110011
1101000011
110110001
1010110111
11011000
10001000
110011010
1111111011011100
1111111111000110
110011000
1000100010
1111111010111010
1111111100010011
1111110111000110
1111111100110110
1111111111101110
1111111010001100
1111111110101100
1111111101111011
1111111111001011
10100000
1111111101111111
10100110
100010000
111010011
10110000
11111010
110011100
101010000
111110000
110100101
101101011
101010111
1111111011100010
1111110000011010
1111110111011011
1001000
1110001
1111111010100010
1111111011100010
1111111001110010
100000000
1111110110000100
1111111001011100
1111111100001011
1111111111100000
1111111110000101
1111111101111001
10110
1111111111011010
1000011011
11000100
101010101
100010110
1111111101001011
1110101
1111111011001000
1111111110100010
1111111101110001
10011011
1111111111100100
1111111000110110
1111101100100000
1111111001000010
1111111011010000
1111111011110010
1111111010010001
1001010100
10010001
1111111110010101
1111101111100110
1111110101100000
1111111000010001
1111111110001100
1111111100001010
1111111010101100
1111110111010111
1111111111010111
1111111111010100
1111111100100101
1111111111011000
100001100
1111111011111001
1111111011111101
1111110110100000
1111110100110011
1111110111000110
1111111110010011
1111111010111000
1111110100101001
1111101111010010
1111101011001111
1111101110011100
1111101111001000
1111111100111011
1111110111000010
1111111011010001
1111110101001011
1111110100111110
1111110011101111
100110111
1001011
11011101
1111111011110110
110001
100100010
10011000
1111111101000110
1111111110110010
1011111
1000
1111111001101010
1111110110011111
1111110111010101
1111110100001100
1111110101110010
1111111000000100
1111101100111101
1111110110110000
1111100101000110
1111101100001101
1111110000111001
11001010
1111111011100111
1111111110110011
1111110100111011
1111110011111110
1111111000101110
1000101011
1000111010
11001110
10010000
11001100
10101101
110101
1111110110010111
1111110110010000
1111111000010011
1111110101011001
111010
1111111001100111
1111110111100110
1111111001101100
1111111011000011
1111110101100101
1111110011000110
1111110011010001
1111110000011100
1111101010011100
1111111001101000
1111111110100100
1111111001101010
1111111011101110
1111111011100010
1111110110010110
1111111111100001
1001100001
1010010001
1011111
1111111110111111
1111111011111100
1111101110100101
1111110000010010
1111101111011100
1111101001110100
1111101000000001
1111101100000110
1111111000000100
1111110111101001
1111111001000001
1111111111000010
100110110
110010001
1111110101101011
1111110000110001
1111101110100011
1111101101001010
1111110100100111
1111111000101111
1111111001010010
1111110001000111
1111110011010110
1111111100000001
101011000
1010100001
110100101
1111111111001011
1111111001001001
1111101111010100
1111101111011001
1111101010111111
1111101001111011
1111110001010001
1111101000110110
1111101111001111
1111110010111001
1111111000000111
1111110110001100
1011110
1011010
10111110
1111111111101110
1111111000111110
1111110101000011
1111110100011010
1111110110100111
100111000
10010010
1111110110100100
1111110111000011
1111111100110011
1010101100
1000011111
1100001111
110001011
1111111101110100
1111101110101011
1111110011111001
1111101111111111
1111111010110111
1111110001110111
1111110001001001
1111110001111011
1111101111111011
1111110010010111
1111110110010101
10101011
1110110
101000010
10110111
100011101
1111111110110011
101111011
1100110011
1111001101
11101010
1111110110100111
1111110100000000
1111111101101011
1000001
1110100101
10110010011
10000111000
1111111110100000
1111111001100110
1111110001001011
1111110100100111
1111110111011010
1111110000100001
1111110110000110
1111111001001101
1111101101101110
1111101001110110
1111110110001101
1111111111100111
10000011
111100000
1001100111
1101001100
101001110
1101010100
10011110110
110011000
1000011
1111111100011100
1111110001011111
1111111000010010
1100111100
11000110110
10110001010
10110111010
1101100111
1111111110001000
1111111001110101
1111110111011111
1111110010110101
1111110110000001
1111110111110001
1111110011100011
1111110110000000
1111110010101010
1111111000111110
0
1011000010
1010000001
10101100
1111111110001111
1110111111
1110001100
111011001
111010110
1111111110010100
1111111010110100
1111111010111100
1111111110011010
1000100101
11000101000
10110100111
10001011000
1000100111
1110111
110001110
1011010000
11010
1111111100110010
1111111111101001
1111110101101011
1111110001001001
1111110111010011
10011011
110001100
1001110101
1000111100
1110101
1111111011111011
1011111001
11101011011
1111110011
10000010010
101001
1111110011110111
10111
11100101
110000100
1010111101
1110110110
1001000011
1100111100
1100011111
10111010000
1110101011
1011010100
11000000
1111111110011010
1111111010001100
1111111000110011
1111111110000111
110111110
1011010011
1101110010
1110100
1010101
10000001
1101100100
11101101110
110100110
1001000101
1111111000111101
10001
1111111000110110
1111111011011110
11011100
1111111011100110
1111000
1001000100
1101000000
10000101100
1110000001
1001111101
1001110111
11101000
1111111101111000
1111111001001110
11000110
1001101010
1011111010
100101010
11000110
1000011001
101111111
1010110001
11001010011
11000011111
1111111010011000
110000101
1111111111011101
1111111101110001
11010101
1111111110110011
1000011011
1111111011000010
100000111
110100110
1000000100
1101010110
1010010001
10100110110
10011000001
111010010
111110110
100011000
111011101
1110001101
110100111
1001001110
10010010
1111111111110111
110111101
1100010010
11000000000
10010000110
1101100111
110110111
1001010
1111111110110110
1010010101
1001111100
11101010
1100000
1111111011010001
100101011
10100101
1001110111
1100111100
10011111000
1101100111
10111110
1100
100001001
1001000101
110101001
1000011111
110101011
111110001
101001000
1001110100
10010001001
1111010011
1101111001
1100001110
1111111110101100
100111010
1111111010011000
10100110
1000001011
1101010
110100101
1111111101101110
111
1111111110011011
11111100
1011110010
1000000010
1100010011
100000101
1001101111
1100010
1011011011
1110000110
10011011100
1100010011
1100001101
1001111101
10010000001
1111100011
1100100010
10011111000
1010011101
10001100
1111111100011001
1010111
1111111011100001
101001001
1111111110111010
110000110
1111111100110000
1111111011001100
110010
1011001010
10101111
11111011
1111011
11001110
110001
1100011
111110000
1000101110
1110101011
1001001111
1000011010
10010000110
10001100011
10010100011
1111100110
1101010000
1011011
1111111110010011
1111111110010100
1111111110110110
10000110
1000
10001000
1111111110111000
1111111001010100
1111111010000011
1111111110011110
1111111101101101
1111111101111010
11101001
11010
101001
1111111110011110
1111111100010011
1000101
1111111010110010
100010
1010000000
10000001100
1101000101
10011100111
1001011100
1010101011
111110000
1001001
1111111011100101
1111111111001000
1111111110000001
1111111001011110
1111110010110111
1111110011000011
1111110000101101
1111101111100010
1111111000011101
1111110011111000
1111110101011011
1111101001111101
1111101110001011
1111110111000011
1111111000110111
1111110110111101
1111110011010000
1111110001011011
100001101
1000010111
100000111
101111000
10000000111
1110111010
101111111
10100000001
1100011000
1110001
1111111101010001
10010111
1111111101101101
11010001
1111110110001101
1111101110101110
1111101110111100
1111101011111011
1111100011000011
1111011110111110
1111010101111000
1111011011101111
1111100000011100
1111011101010101
1111100111100101
1111101000100110
1111101010101110
1111101110001111
1111101110001000
1111110101100110
1111111000100111
1000100000
1101011110
1010111000
1110011111
1101000110
110000101
1111111111011001
10011
1111111100001011
1111111100011110
10101011
1111111111011101
1000010000
1001100110
1000010
1111110101101111
1111110000111100
1111101101110000
1111110111110000
1111110110110100
10100
1111110111011101
1111111000100101
1111110010100111
1111101110111110
1111110010110000
1111111000100010
1110001
1101100101
11010000
10000111
111000010
1100100
1111111100110110
11000011
100110010
101000110
1111111111010000
1111111110000010
1111111110010110
1111111010101101
1111110101010110
1111111111101010
101000010
1111111110111010
1111111000101111
1111110111000010
1111110111100011
1000110
1111110010000011
1111101111101001
1111110011110000
1111110110011000
1111101111011111
1010101
101011111
10110110
1111111100010100
1111111001011010
1111110110111011
1111111100011010
100011000
11111101
11110001
