1111111011000111
1111111111101000
10001011
1001110
1111111111000100
10101111
1111111101001001
100011111
11011101
1111001
1010011
1111111100110111
1111111100101011
11111000
1111111100111111
1111111101100010
1010001
1111111100000110
111111
1111111110001111
100001000
11011000
10010101
1111111110010010
100101010
100101001
1001011
1110100
10111000
1111111010111011
1111111100111111
10100
1111111111111010
1000011
111101110
1111111110011000
100101101
1111111011001100
1111111000011010
1111111110001101
1111111110010111
1111111110011111
1111111110000000
1111110101011101
1000111101
111100010
1111110111101001
1111110010110110
1111110111100111
110110
10110110
100011100
1111111111101100
100111110
1111111100010001
11111111
1000110
1001001
1111111100100011
1111111101010000
1000111
10001
1111111111100101
1111110110111110
100101
111110011
1010110
110000001
10000001
1111111000101000
1111110101001101
1111110000010110
1111110000000011
1111110111001101
1111111011001010
1111111000001010
1111111100111000
1111111000110011
1111110110110111
1111111011100111
1111111100011011
100000101
1111111011100000
1011000
100101110
1111111101110101
1111111011010001
1111111101101011
1001001
1111111010000101
10100000
10100010
10001001001
10010100101
10110100100
10010110111
10010100010
1011011110
1110101110
1011111
100100
1000001101
1110010
1010100011
111000000
100001011
1111111110111110
1111111011111001
1111111011100110
111010100
1001100110
100110111
10001101
1111111100100010
1111110111010111
101111111
1111111010001100
11110100
1010001001
111011001
101101010
1101101110
101100000
1011101101
1101001101
110001100
1111111101010101
11101110
1111111100010111
10000010
1001110011
1111111110001110
1111111000101111
1111111110110101
1111111011100100
1001000
1001111100
110111101
1001000010
1111111100011000
1111111111011111
1000001
1111111101011001
1010010101
1000010
1100001110
100000110
110010
1010111010
1100110010
1010000100
1001011011
100000101
101110010
100101111
101001111
10000110
1111111
100001
1111111110000010
10110111
1111111110101110
111010000
100111110
101110101
101110011
100111001
1111111011000100
11011010
101110101
110100000
1100101111
1100011000
101100011
1011000101
11000010
111110101
10001000110
1111101001
1100111100
1100101010
10011110011
1111100010
10001000110
1100111101
1000101110
1011010011
110111010
1110100
101001101
1111111101101011
1111110110101110
110100101
11111101
1111111101100110
1111111101000111
101011
11010110
10001010100
111000100
1111111110100001
100001101
1000100110
111000000
1101101010
1011100110
111111011
1101000000
10001011111
10001001100
10000001000
10100011010
10011010111
1100111010
1011001101
1100010100
11110101
11100110
10000101
1111110100101001
1111111000011011
101111
1111111101010101
1111111100011001
101001001
101010101
10000011
1100101
1111111010111001
1111111100100000
1111111000111001
1110001
1010110110
1110011
101000
100110110
111010000
1111111111111001
10011011001
10101011100
10001111111
1001010010
1000100101
101101100
1000010
11101110
1111111011001100
1111111001101111
1111110111101101
1111111000100011
1111111000101100
1100101
110100011
1001100101
110101100
110100010
1111111011101000
1111111001001100
1111110111000111
1111111010010011
1111111100010110
1111111001111100
101111
1111111101010110
1111111100110110
1111111111110110
1001010110
1000101100
1100011100
1100110111
110000000
10000001
1111111100101011
1111111110111100
1111111111000110
1111111000100101
1111111011110001
1111111101001011
1111111101001111
110110
111001
10111
1010011111
1101111011
1111110100111101
1111111100100010
1000011
1111111110100001
1111111111111111
1111111100000001
1111110010011111
1111110010010101
1111110000111010
1111101100101101
1111110000010110
1111111010011000
11010111
10100
1111111101010011
1111111100111110
1111111001110001
1111111010111000
1111111100101010
1111110101010111
1111111101110010
1010001101
1011101010
10000001
1001100100
111010110
1100101001
11111011
1111111000001010
1111110100111111
1111111000110100
1111110111100101
1111111001110010
1111110110001101
1111110100011010
1111110111001100
1111100101101100
1111101000111101
1111101000101100
1111110010101111
1111111010101000
10001111
1111111111100100
1111111110110100
1111111011000100
1111111101010010
1111110110000001
1111110101101111
1111111011000111
1111111101100110
10010001
1111110111101010
101110
1111111100110111
111110
1111111111111101
1111111001001000
1111110011100111
1111110010011010
1111110100011011
1111110110101110
1111111001100000
1111111001000011
1111101111001110
1111101110111101
1111101011111101
1111110010110110
1111110010010110
1111110111010010
1111111001111011
11001000
1100110
10010101
1111111010111100
1111111001001101
1111110000110111
1111101011011110
1111110010100110
110000010
1111111100011111
1111111110000010
1111111010101010
11011
1111111011010011
1111111011101000
1111101110010110
1111110101000111
1111110101101101
1111110101111110
1111111000011000
1111111001111000
1111110010111011
1111110010010010
1111110011101010
1111110010000000
1111110010010110
1111110011011110
11110010
1101110
100110111
1000111
1111111000101111
1111110100101110
1111101011010101
1111110010000101
1111110101000101
11110011
1000101100
1111111111110101
1111111100001111
1111111101011101
1101111
1111111010110111
1111101110011001
1111110111011010
1111111101100111
1111111011110110
101011
1111111101000000
1111101111101111
1111111001101000
1111110110011011
1111110010111101
1111110100011000
1111111001001011
1111101
1011100
1000111
101101000
1111111011101100
1111111010000111
1111111010011100
1111111010111100
1111110100101111
1011011101
1111111111010111
11000010
101001011
1111111001111101
1111111100001110
1011010011
1111111010101000
1111111111011101
1111111100100010
1111111010111111
1111111001101101
1111111101101111
1111111101001000
1111111100101100
1111110100001011
1111110010010100
1111110111101101
1111111101001101
10011111
1111111101111111
1111111101111101
1011100
101100100
1111111001110101
1111110010100010
1111111111101100
1111111011000001
1110100011
1010111000
11010011
1111111101101001
110110000
1000011000
1101100111
1000110
1111110011101111
1111101010110001
1111110000110010
1111110101001111
1111111010100110
1111110110100010
1111111101111000
1111110011110011
1111101100011011
1111111000010000
1111111010111110
11010010
10010110
1111111111111111
1111111101101100
1111111010000001
1111111011101110
1111110100001100
1111110110100100
100000000
1001110100
1101000100
11100000
1111111110101001
1111111110111011
1010010111
1110100011
110011001
1111111011000101
1111101101110110
1111101110000101
1111101011011000
1111110101010100
1111111010010000
1111110101001101
1111110100001110
1111101010010100
1111110110010110
1111111100011100
11000111
1111111110100000
1111111010100101
1111111001100111
1111111010000111
1111110101010001
1111101101101000
1111110110111100
101110100
100010100
111011010
1010011100
100100111
10110111
1001011011
1100001000
100000110
1111111110001110
1111110110111000
1111110110010010
1111110011101000
1111110011001001
1111110111111001
1111101111111011
1111101101111011
1111111001000001
100100000
1000101010
10101001
1111111101100101
101101
1111110101110001
1111111011010001
1111110101111010
1111110011011011
1111111101010011
110011010
1100010
11100001
1111111011110000
100111110
1000110101
1100110011
10010001111
1000011011
1111111101101110
1111111000110011
1111111101101010
1111111000100101
1111111001101110
1111111001001001
1111111110011110
1111111110011111
110101
101111000
101110000
111111010
1111111101010001
1111111110101001
1111111111010000
1111111101000110
1111101111001010
1111110000100110
111100
1000111110
1001100001
1111111110001000
1111111111011111
11110101
10000100
10001110010
10110101110
10000011100
100001001
1111111101010111
11010011
11111100
11111110
1000100110
110110010
10001000010
1100000111
1100000111
11100110
101100111
11001
1111111100111000
1111110101111011
1111110010111011
1111111011001010
1111111110111110
1111111111011000
101101111
111110111
110110
1000101
11001111
1100110000
11010010100
10011000000
1010111101
1011101111
1000110110
1101000111
10001000
1000100010
1100001101
10101111101
10000101001
11111010
1011010101
1010111001
11011111
1111111011000011
1111111100111010
1111111101001111
1111111101110000
1111110111110100
1000000001
1010010111
1010000010
1101000001
1111111100111001
11100001
1111111010011010
100000010
10100110000
111111000
111010010
11100110
1001110111
1000111001
1110101010
1000000101
111111111
111110001
11011010
110001010
101000101
10100111
1010001
11000111
1011011
1001110
1111110111011110
101101
1001101110
1101001011
111111011
100011010
1111111110100010
1111111101100100
1111111100010000
11101101
10010111100
10010101110
100110001
110111100
10111001
10011000
1011100
1101011000
1100111101
1111111110111110
1111111101100011
1111111110010111
1111111000011111
1111111010001110
1111111101100010
1111111010000000
1111111010000100
1001110
110001
1111111110001011
1011101111
10101010111
1010001101
111000
1111111100111101
1111111100001001
11101100
110111100
1101101110
11000001010
10111011011
10010011001
1101000001
111010011
1100101
100
101111111
1111111010111100
11010111
110100
1111111001000010
1111111010110011
1000101
1111111001101010
1111111001101001
1111111110010010
1101
111101100
100000110
10001101111
1001011001
11011110
1111111100100001
11010000
1111111110111111
1011110000
1000101111
11001011110
11010101001
1101101110
10001010110
10001101100
10000111001
10101100000
1101001011
10010000110
1110001001
1101001
11100101
110010001
1010001101
11011001
1111001011
1001010100
10010100111
11011011010
10100001111
10000010001
100100000
10010101
100011110
10111000
101001010
1111111101001100
10100110
10110100
1010010101
1011110111
1101000010
10001100110
10010101010
11100001110
10111100111
11100000111
100111001110
100010111110
11000001110
100101110100
100001101110
10111000011
11101000000
100001011001
10011100000
10000110111
101000100
1111111110111111
100011111
1110010
111111
1111111011110010
100000011
1111111101110000
1111111111001110
1111111110000100
10110011
10000100
1011011001
1101101110
1001100011
1010001011
10001111000
1010010001
1111110011
10101110000
101010000
1111000101
1111111101
1101101110
100110011
11101010
1000100010
1001000101
10010000
1111111110101001
1111111101011000
1111111011100001
101000110
