1111111110011010
101101
1011100
10001
11011100
1111111011010000
10111100
1111111110011010
1001
1010
1010
11111010
1111111010111011
1111111111000011
1111111111101110
11001001
1001100
1111111011000101
11000000
1111111111010011
11100000
1111111100000101
10011001
10010010
1111111110010000
1111111101111000
100110011
100100101
1111111111111110
1111111110001011
100010011
1111111110110100
100001010
1111111011100110
1111110110111000
1111110011010101
1111111110111000
1111111110110101
1111111011101010
10111110
1111111011011100
1111111001011011
1111111011101111
1111111110100111
111110110
1000010100
1111110111010100
1111110000101100
1111101100110000
1111110001010101
1111110011111011
1111110011110111
10111011
1111111111001101
10101101
10001001
0
10001111
1111111100011100
11010011
1111110011011010
1111111111100010
1101111
1111110100011101
101010110
1000111110
1010010111
100111000
101000110
1111111100111110
1111111111000001
1111110110001010
1111111110100001
1000110001
101010111
1111111111110011
1111111011011011
1111110100000000
1111110010010111
1111111101011000
1001100100
111111001
10110110
1000011
1001101
1100110
1111111011100001
1111110110111000
11011011
1111111110001101
1111111001011101
1111110111110111
1111111011011110
1011001100
11011000
1000
1111111110110110
110000011
111101110
1111111111010110
1101110
1011000
1111111101110100
1000101110
1011000
1111111110101111
1111111110011011
1111110111100110
11010
1000110001
101001111
1111111011010111
1111111110111111
1111111101010010
1111111011111001
1111110110110100
1111110110000110
1111110010010010
1111111010100100
1111111111111101
1111110101011001
1111111010100000
1111111110000101
1111111100110111
100111000
1000
1111111110111000
10000001
111
101011000
1011011011
101011100
1111111011000101
1111111000111000
1111111111001010
1000000
1111111101100110
1111111101100001
1111111010010010
1111111100111010
100101101
1111111111001110
1111111000010101
1111111001001011
1111111000111111
1111110110001000
1100000
1111111111010101
10100000
11100001
1111111110110010
1111111110101011
1111111010111101
1111111101011101
1111110111110100
1111111001000010
1111111111100011
11101110
11001
1111110001100001
1111110101000110
1111111010100100
1111111110101110
1111111010111000
1111111011111111
1111111001000100
1111111101101011
111101101
100000110
110010
110000
1111111110011110
10001100
1101000011
1101000001
101110100
10101000
1111111011111110
1111111100111010
1111111000001100
1111110110011010
1111111001000111
1111101111110011
1111110101100100
1111110100101011
1111110100010000
1111101101010000
1111101110001101
1111110101001101
1111110100100001
10110010
1111111110111110
1111111111101101
1111111101101001
11001011
11001111
1111101
1101010
1100101101
1001010010
1001111110
1101010100
1101100100
101110110
1111111101000011
1111111111111010
100100100
1111111101111110
1
1111111010010011
1111110101100001
1111101010110011
1111101110011000
1111111000000001
1111110011011100
1111111000110111
1111110101101101
1111111011011000
10100010
1111111110111000
1111111110001010
1000110010
1011010000
1111111111001010
110001111
11111010
10000110111
110011000
10111101
1010111010
1000111001
11111100
1111111111100110
110010111
1001000111
100011
11000011
1111110111111111
1111110100110100
1111110111001011
1111111001001101
101101
1010000
1111111101010010
100001000
1111111100001000
10100010
10100000
101100
10101010
1111110110010100
1111111101011101
1000001110
1011101011
1010010
1000000101
1010010100
1001001111
1011101
100101
1111111001110100
101011
100111110
111000101
111010111
1010100
1111111011100001
1111111111101110
1000001011
1100100100
1101110010
1100111110
110000100
101001010
11100011
10110
10110111
111001101
1111111000011111
100010101
1001001001
111101100
10011001001
101111
1101000010
100011010
100001
1111111100011000
1111111010010110
110000
1111111111100000
1010110110
1100101001
1001010001
1111111000010111
1111111110110101
1110010101
1101111000
1000100100
1100000100
1000000100
1100101001
11111110
1111110101101010
1111111011110110
101100110
10101001
1111111001101001
10111110
111011000
10000100100
1011101111
1010001100
101000101
1111111010110100
1111111010101101
1111110101111101
1111111100010111
10101
1010100110
110000100
1111110100101111
1111101010011101
1111110110110111
100000000
1100110001
111010100
100101010
1111111101110100
1111111100100001
1111111110101110
1111111000011100
1111110001010001
110011
1111111010101001
1111111110101101
10111000
1001111100
10011011000
1011101111
10110100
110101
1111111111010001
1111111101000110
10010010
100100
1101000
11101110
1111111101110000
1111101010110011
1111100000001011
1111101100011111
1111111110000001
100011110
1111111011110010
1111111010100101
1111110110101111
1111110100101010
1111111100110101
1111101011011110
1111111010100110
1010011000
101100011
101000101
10000101
1010110110
10001101001
1110100011
111110101
101010110
1100011
1111111010100011
1111111101000110
1111110111100101
1111111110011111
101110000
1111111011011011
1111101010110101
1111100111010011
1111110101100110
1111110101110111
1111111001111101
1111110111101101
1111110001110010
1111111000001000
100010
11110110
110111010
10000100100
11001011101
1101010000
101000011
1111111111010111
100001
1111010101
1011100110
10010101111
10000000110
110001010
1111111110111000
1111110111010001
1111111111111001
10011111
1111111100101100
1111110001100010
1111101000010101
1111101100000110
1111110001101011
1111111010100111
1111111110001001
11111010
1110101
100000110
10000011101
11010101000
11100111100
11110010101
10000100010
1011110000
1001000100
1111111111111111
1111111011100000
1010000110
10000000110
10111100100
10110110000
10000010001
1111111110100111
1111111101100000
11101100
10010001
1111111000001001
1111110100101110
1111101100010100
1111101101110101
1111111000001101
11011001
1010101100
111110011
110000100
1100111001
10001000110
10100100111
11000010110
10101001100
1010000111
1101010111
10010010
1100001
1111111101001110
1111110110010100
10010001001
1110100000
11001010101
10101011001
1100011001
111011110
1111111110100110
1111111110101001
1111101111101001
1111110100101101
1111110001010111
1111111011110110
1001101110
10001000001
1010111010
111110100
1101111001
10010101101
10100101101
1010000001
100011101
11100011
1110101000
10100111000
101100001
1111111100111011
1111111001011010
101100
11000001
10010101101
10101100010
10101110111
1011101111
1001111101
1001111010
1111111001111110
1111111011111001
1111110011111001
1111111110001101
1010000100
1001000000
1011011000
1111111100
10100010001
101010110
1001011100
11000001
1000001100
1111111110101011
1000110001
11100000100
10000011110
11000011
1111111110101010
1111111100010100
1100110
111101100
10001000001
10000001110
101010010
1100101001
10011101100
1101111110
110110110
10111111
1011100
1101111010
10000110111
1011001100
10000000100
1011100100
1101000101
11100100
100011001
1010111
1001100
10100111
10010110100
1110111001
10101101101
110110101
1111111101100111
100100100
100111010
1000000010
1111010101
11011001
1010100010
1101001001
10000101101
1111100000
10000101110
10010110100
10100101111
1111011001
10010100011
1010001011
1001000000
100100100
100010101
10001
1111111100010000
1111110111010001
1111110101011001
1111111101000011
1000100010
101110010
1110111100
100101111
100111101
1100001
100101001
110011100
110011010
100110111
10010100
1111111011100001
111001111
1011110011
10000000010
10000101110
1001111111
1000011000
11110000
110011110
110011
1111110111100000
1111111011110001
1111111010000011
1111110101011010
1111110110111000
1111111001100101
1111111111000000
1100011
11100100
100110010
1111111011110111
100010010
1111111110111001
1111111100000001
1111111111111100
1111111101100001
1101010
1111110110011110
1111111010001100
1111111110100101
10101010
11000011
100110110
101000111
1111111100111110
1111111101000111
1111111010110110
1111111000011001
1111111010111110
1111111011011011
1111111000101011
1111111011010100
11011001
11001111
1110100111
1110001101
110010011
111111000
1111111111110010
1111111100101001
101101
1111111110111011
1111111010101100
1111111101111000
1111111100100010
1111111010001001
1111111101111101
1111111011100010
101101101
1001
11
1111
1111111010010010
1111111010010001
1111111100001011
1111110111001110
1111110101100101
1111111011011010
1111111000000101
1111111010101111
1111111011111110
10101011
10010011
1101011010
110110101
111100111
101001110
1111111111011111
1111111111110010
1111111001010111
1111110001001010
1111111101010000
10010000
100000000
100001110
1111111111100010
1111111110000111
1101010
1111111010101100
1111111110101111
1111110011000011
1111111101011001
1111111000001011
1111111001001010
1111111001111101
1111111010110011
1111111101010110
1111111101000101
1111111101000100
110111
1111111011100000
1111111101110111
1000111110
10010001
1111111110110100
111110
111110
1111111110000100
1111110011101100
1111111101000111
10010100
111110
1111110110011101
1111111101011010
1111111110011111
1111110100010011
1111110111101110
1111110101100001
1111110110001000
1111111010010000
1111111011010100
1111111001011011
1111111100100100
1111111010001100
1111111000011000
1111110001110101
1111111010101011
1111111100000110
10110
100000000
1101011100
101110011
10101
1111111111100100
1001000
1111110110010010
1111010110
1011111110
1111111000110010
1111111110111100
1111111001000001
1111111000100000
1111110101101110
1111110011010001
1111110111101010
1111110110110010
1111111001110000
1111111100011010
1111111100111111
101100101
1111111111000010
1111111000101000
1111110100100010
1111110010111000
1111110001110010
100010011
11111000
1111111101100111
1111111101111111
101101101
10100111
100110110
1111111100111011
11011
1111111110101010
1111110001010011
1111110011111011
1111110010101111
1111110001100010
1111101101010010
1111110010100000
1111110100000111
1111110010111110
1111110001100011
1111111101100011
1111110111010001
1111111110111111
1111111000111000
1111111001010000
1111111011001011
11101101
1111111100001001
1111111010010101
1111111100010011
1111111100000110
1111110110101001
1111111101111110
10011100
111
1111111111000001
1111111110001000
100000
101000100
110110010
1011001100
1111111011110010
1111111011110101
1111111110010000
100010111
101000
1111111001001111
11010111
1110000011
1111110101101100
1111111000111000
111010100
110101101
1111111111101011
1111111010011001
1110010
101010001
1000100111
110001101
11101100
100110110
1111111011111000
100111111
