10110001
111010
1111111110000101
10111001
1111111111101010
1111111101111011
1110101
1111111100101100
101000110
1111111101101100
100100
1111111100001101
1111111111001110
11001110
1111011
1100111
1111111101011111
10001000
1111111100101101
1111111100010101
1111111110101011
100011
100001001
1001111
1000001
1111111111001001
1111111111111101
10000000
10101100
1111111111101101
1111111011010100
100110010
1111111100101101
11101001
111000010
1100
10101011
11010010
101001100
1010101110
1011011110
11101100
1111110101001001
1111111011111100
1111110111111011
1111111010010011
1001101100
1011100110
1010100101
100110011
1001111111
111011
1011010
1100000
1111111100111101
1111111101111001
1000101
1111111101010101
1100000
1001101
11010
11010100
1001101
1111111111110101
10010010
1010101
1111111110100000
1111111000101110
1111111010100111
1111110111011100
1111111000111001
1111110101000110
1111110001111101
1111111110111110
100101111
1111101
11111001
1001100010
1001000110
1011000001
1111111100101110
1111111000100100
0
1111111100010010
1100111
1111111110011001
1111110100101101
110000011
111100001
1111111111110000
1111111111110011
1111111010011011
1010001
1111110100111110
1111111011110011
1111111100101111
1111111001111011
1111110010011101
1111110101111000
1111110011101111
1111110110110101
1111111100111000
1010110000
1011111001
10010010010
1101010010
10010010011
11001100111
1100100000
100011110
1010010
100110
1111111110011000
1111111101011000
1111110111000011
1111111111110011
11110011
1111111110010000
1111111011111110
1111111010111010
1111111101100010
1111111110110100
1111111001001110
1111111001000010
1111110110110011
1111111000011111
1111110110111001
1111110111101000
1111111000011000
1111110011010000
1111110100001001
10010111
100101000
1111111100
10000010100
11101011101
10110100001
1010111101
1010000111
11101100
100101110
1111111011100111
1111111000101010
1111110110110011
1111111101110100
111000
11011010
10101001
1100111
100111000
10011110
1000000
1111111100100101
1111111100000000
1111110110110000
1111111000100100
1111101110011010
1111110001000111
1111111000000001
1111111000010010
1111111001100011
1111110111111111
10110
1100111001
10100101101
10011101101
1010101110
1100111010
1111111110000001
1111111110010100
111110110
1111111101110110
1111111001010101
1111111010000100
10100
1111111101110110
11110101
1111111011010000
1111111111000110
1111111110010001
1111111011111001
1111111101100001
1111110111000100
1111110101111100
1111110001101101
1111111001011100
1111111000001111
1011001
1111111001000111
1111110011101101
1111111110010111
1110010110
10110111011
11111000010
10010100001
1011101100
1111111101101000
1111110010101000
1111111101100001
1111110110111100
1111111011110011
1111111110110110
1111111011011111
110001
1111111011100010
1111111010101110
1111110110100111
1111111101010111
1111111100011101
1111101111110100
1111110100010101
1111110101000001
1111111010010000
1111110101010100
1111111011101111
1111110101111110
1111111000010100
1111110101010101
1111110010110100
11110010
10110001110
11001100111
1101000100
1100000011
1111111110111001
1111111000110000
1111111000110010
1111110111101011
1111111000101111
1111111100101000
10111100
111010
1111111111011101
1110
1111111010111010
1111111110000011
1111111010101111
1111111001010001
1111101110110100
1111101100011101
1111110101001010
1111110100001101
1111110111110000
1111111100101010
1111111000110101
1111111111111100
1111111000010110
1000011
100000001011
11010010000
1100011111
1111111111111110
1111111110100100
1111111110000101
1111111011011100
1111111100110110
10100011
1111111101000011
110110011
1110100100
10110000
1000010011
110001001
10100011111
10010001001
111011111
1111111100010110
1111110110001100
1111110101011010
1111110110010011
1111110101100111
110000
1111111100001101
110111110
1111001
101110011
11101101110
11000111001
101110010
1111111010011111
1111110110111110
1111111101001011
1111111110011110
10101110
1000000100
1001001
1101010011
1010101001
1011100011
10011111101
11000111100
11110100100
101100010111
11001101011
110101100
1111111000010101
1111111011010101
1111111010110111
1111111110010011
1111111100010000
1101100
1111111101101100
101010
100010111
10101011001
1100011100
110111101
1111110011101010
1111110111011010
1111110101001111
10110110
1011000011
10000101011
10000010101
10000010110
10011001010
11010111000
10101000111
100101001000
101000000111
110000110001
101011110111
10010100111
1111111111000101
1111111110100111
101110111
1111111110111111
1111111111011100
1111111110010001
1111111111011011
1111111111110100
101101100
1101111010
1111111110111110
11001111
1111111100011111
1111111011100111
1111111111110101
1111000
1110001010
11000111101
11001001001
11101110101
11010110000
10011110010
10110010001
10011011110
11100010011
11001010111
11111011101
1110001110
111
1010111011
1000110110
11111001
10000110
1110
10001
10111110
1011110010
1111111011111111
1111110111010111
1111110110010010
1111111011011100
1111111001110100
11000001
1111111000111110
10010100011
11111011010
11110000000
11101010101
11000001100
1111010000
1101110111
110011000
1000010010
1100011010
11101100
1101010
10001001
11101011
111101101
1100001
1000011101
11011001
110111101
101100111
100010111
1111111010011000
1111110001010000
1111101110011111
1111111000110100
1111111111100110
10110011
100000001
1000111000
1011110011
1101111111
101110011
1111111110111101
101111000
1000011
1110110
1111010
1111111001111011
1111111110100100
1111111100001100
1110101
10000000
110011
10001000
101010011
101010
1101111
10110111
110011111
100111100
1111111100001001
1111101110000000
1111111000101101
101011000
110100
101100
101010001
1111111101000010
1111111111111001
1111111110000100
1111111111010111
1111111000111011
1111111101011010
11000
101110
1000101001
1111111011000000
1111111001100110
10101101
11001111
1010110
100010011
1000011111
101000000
1111111110111000
1001111000
1101101111
111001100
1111111111110110
1111110010110111
1111110010110100
10000001
1100000100
1111111011001010
1111110111010010
1111110000100001
1111110010000100
1111111001110010
1111111011101001
1111111101111100
1111111101100100
1
11010101
1
1111111011000010
1100000
11000110
1000110
1011101
1001110111
110100100
10000000
101101
1010000101
111011101
100001100
1111110010010111
1111100110100001
1111110111111011
100101010
11000100
1111110110100110
1111110001001101
1111101110111100
1111110100101011
1111110101100110
10011010
1111111101100011
1111111111100111
101000010
100010110
11100100
11000110
1111111110110110
1111111101011110
111100011
1000100001
11101010
100001100
1001111100
1000100100
110110010
110011011
11001000
1111110011110010
1111110001110100
1111101111010101
1111110100001100
111010111
1111111011010011
1111111010111100
1111101100001001
1111110100010110
11110011
1111111011110011
1111111111100100
11001010
1000101110
110011100
1011010
10000000
1111111100101001
1111111110011101
10010100
1110001
1111111111110000
1110011
11111110
1111111110010011
1111111011100110
1111111010011110
11110
1111110100011110
1111101110000111
1111101111100011
1111111010111010
1111111111000101
1111111110110100
1111111000111001
1111110110000000
1111111110000000
1111111111110100
1111111000010111
1111111100010010
1111111111001111
111000
100101110
100111
1111110011000100
1111110111010111
1111111100101111
101111001
11110111
1111111110110011
111010101
1001101
1111111010010000
1111111010000100
1001100
1111111101000100
1111110011001000
1111101111110110
1111110011001100
101000
11100101
1111111010101000
1111111101010101
1111110111110100
1111110100011110
1111110000011001
1111110011010101
1111110100111000
1111111101110010
1111111111011110
1111111100010110
1111111001010000
1111111011000101
1111110111011110
1111111001101101
1111111111101111
101111010
100101000
11111001
1111111110110000
1111111111001010
1111111111010100
1111111000110100
1111111010111011
1111111011100110
1111110011110000
11101111
10101111
11010000
1111111110101111
1111111001001110
1111110110011101
1111110011100111
1111110001000111
1111110011100011
1111110101111001
1111111011010101
10010001
1111111000101111
1111111111011110
1111111100010000
1111111000001010
100101011
11111101
1100011111
111101101
1111111101111110
1111111111111111
1111111001100010
1111111110110101
1111110110001011
1111111111111101
1111110111111110
1111111010010010
110101
1111111111010000
10000111
1111111110100001
1001000
1111111010001010
1111100101110011
1111100000001101
1111101000011101
1111110011011110
1111110010100000
1111110111011111
1111111011000101
1111111011000110
1111111100011110
1
101101101
110010110
1111100110
11001101
101100110
111100101
1111111001110010
1111111000101111
1000010
111101
1111111101001101
100100100
1111111111001101
1111111100011100
11111010
1010110010
1110110001
1111111001001011
1111110110001001
1111101101001011
1111110001000011
1111111100100010
1111110010110111
1111110111100111
1111111000000010
1111111001101010
1111111000100111
11101010
1010111
111010100
10000111
101101100
1111111111010100
101011100
100100011
100011010
1111111111110011
1111111111110000
10001000
10101011
1111111101111000
1111111110100001
1111111101001100
110011000
1111000100
10000000010
1010011101
111101001
1110010111
101101110
1000110100
1101010101
11001011
1111111110001011
1111011
1111111111111110
110100111
101100010
1111111101110101
111000010
1100110101
1110101011
1011110111
111100101
1010011000
1111110010111111
1111110100111110
1111111011000000
1111111111111000
1111111101101000
1111111111101000
11101100
100111010
100111000
1010100110
1100001000
10010001111
111110001
111101110
1110100101
111111111
1111100100
1111101101
1000010101
111
1100001
1011001010
10101000010
11000011110
10101001101
1110110000
10000100000
1000001001
110100010
1111111101100000
1111111011101010
1111111101001010
1111111101011101
1111111100010100
111001
1111111111111111
1010010110
1111010100
1110100001
110010
1111111011111110
1111111100110100
1111111110110011
111101100
1101111010
1110101101
1100110010
1010000
1100010100
111011110
1011000000
1001100010
110100011
1110110111
10111001
10011
111001001
1111111110110000
1111111100011100
1111111110110111
1111111100000110
10100110
1111111111101100
10011100
1111111101111010
1111110101001000
11001111
101110111
1111111111101101
1111111110000010
1111111001101101
1111111101111111
100011
1111111011101110
1000000
1111111011100011
1111111000111101
1111001
11010001
11110101
1000011111
1000010100
1011101
1111111000010010
1111111101111111
10100100
1111111100111010
100010111
