11100000
1111111101011111
1111111101010000
1111111111001001
1111111101000011
11100001
1111111101111001
1111111111111111
1111111100100110
111
11111010
1111111101110001
100101
1111111001101110
11111100
10001100
100011110
11011010
0
1111111011010100
1111111100101110
1111111111111001
1111111101101010
1111111101100001
1111111100101000
1110101
1111111100100000
10100110
10110
1111111011010101
1111111111110101
1111111100001011
1111111110111011
11110101
1111110010110110
1111110111100011
1111111001001101
1111111000110111
1111111101111111
1111111000111011
1111111000001110
1111110101111001
1111111000010110
1111110110100001
1111110101111001
1111110101111111
1111111101011111
1111110111001110
1111110101101100
1111110100100100
1111110100100100
1111110101000010
1111111100010000
10101111
11101110
10111000
1111111110111011
1111111101100101
11110000
10000111
101111
1111111101001100
1111110100000000
1111110111111000
1111101101101110
1111101111100011
1111101010100101
1111101111101000
1111110100000011
1111110101101001
1111101111010011
1111101111010100
1111110011110000
1111111101010101
1111111111001001
1111110101010100
1111110101100011
1111110111011100
1111110001001101
1111110000100010
1111110001001110
1111110110010010
1111111110000011
1111111011011110
100011011
1111111011010010
1111110101100010
1111110111010110
10000000
1111111000111110
1111110000000100
1111110001000111
1111110000000111
1111101111111000
1111111011001011
1111111010111010
1111110011110100
1111111011110100
1111111110000100
1111111101111010
1111110110010011
1111111110101011
110000000
1111111011100100
1100111
10111001
1010111010
1111011
1111110101001011
1111111010011101
1111111011100010
111100
1111111100000111
1111111111101111
10
1111111110011010
1111111110001001
1111110100101101
1111110001101001
1111111010010110
1111111100011011
1111111101001011
1111111101100100
1111111111000100
1000011000
10111101
111101110
11110110
11110
101011100
100001010
10
1111111101010100
1101101001
1100011001
1000000100
1110011101
10100101
1111111101101100
1111111111011101
11110
10000110
1111110101101101
1111110110111101
1111101100100111
1111110101111111
1000
100100001
101000110
1111111111100100
1111111101000101
111011100
1010000100
11011100
111011011
1010011
110110
110001000
101010010
11100000
1000110101
111000010
1
101110000
11011001
1011011110
1111111111000110
11110
1101011
1111111001000110
1111111001001101
1111101110101000
1111101001011010
1111110111101001
1111110111001100
101000
1111111110100101
1111111011111001
1111110101011100
1111111001101001
1111111110001110
101010001
1001010110
11110110
1111111111101001
100100100
101110101
110011110
100010111
100101111
100001001
1111100010
1100000011
100011010
100110101
1111111001000000
1111111010000000
1111110100001101
1111110111011100
1111101000100010
1111100110100101
1111110101000001
1111110011101010
1111111011000001
1111111101001010
1111110000010011
1111101110101001
1111110111000011
1111111001111100
101111
1111111101111001
11001000
110011011
1111111011010000
1111111111010110
1111110111100001
1111110111110111
1111111100101001
1111111000111100
10011110011
11001101010
10101110111
1111111100101011
10000
1111111111000011
1111110011011011
1111111001001011
1111110101011001
1111101110010101
1111110011001000
1111111011011001
1111111000011000
1111110101101100
1111110011001010
1111110010111010
1111110000010110
1111110110101100
1111111100111110
100111010
10010101
11000110
1111111110101011
1111111011010010
1111111101001011
1111011
1111111111011110
1010111
1111010010
101100001000
11110011001
1000010110
1000000011
1111111000100001
1111111011010110
1111110001100001
1111110000010101
1111110101011100
1111110011100111
1111111101010100
1111110110001101
1111110011100101
1111110110110000
1111110101011101
11100111
1001101101
1100111101
11110110
11011001
10000
1111111111000001
101011110
110001000
10111111
1111111111100111
1111111011001110
101100111
100011100010
11000111110
1100100
1111111000100111
1111111100110011
1111111110011011
1111110000010001
1111111000001100
1111111111110111
1111111101110101
1111111101000110
1111111010001000
1111111001011111
1111111111001101
111100101
11001001100
100000100001
100010101010
10001001011
100001110
1111111111010000
1011
11001110
100000111
11100000
111111100
101110010
1000001001
1111010100
1000010101
1111111100111011
1101000
1111111101100001
1111111011011000
1111110110101000
11110001
10001100001
1110101111
10110011101
10100100101
11001000100
100000001000
101000100010
110010100110
110101000010
100000110010
1100101111
1111111111010100
110
110101110
100010010
1001000100
110001011
110101
100111111
1100111
101101111
110001111
1000110111
10000101
1111111010011110
1111111100000110
1111111101110011
1110100111
10101100010
100101101011
101100100010
101100110111
110010111001
111110000010
110001101101
101111111101
11000111111
1111111001
1001111101
111001111
1000010110
11111100
111101111
1001111110
11010110
101010
1000000101
110001100
101011
1111110011110001
1111110011111001
1111110111100110
1111111001000000
11110001
11011100
1010001110
100000111010
110000100101
101111000001
110001101110
110100011100
100011110100
11011001110
1001001111
1111111111100011
1111111010011010
1111110111010000
10001001
101000011
111011101
1111111111110111
10000100
1000011001
11000011
111001001
1111111100111000
1111110001011010
1111101010100011
1111100111010010
1111110110001100
1111111110000001
1001111111
101001
10001100100
11100100110
11101110101
11111101010
11000010011
10000110111
110110011
1111111001001110
1111110000010000
1111101110011001
1111101101011010
1111110010010100
1111111110010011
1111111110110100
111001
1010100
1111111011001010
1111111110110111
1111111010101101
1111111110100101
1111110101011101
1111101011010101
1111101110110000
1111101100000000
1111111001111000
1111111110011000
100011011
110110101
111001000
10011000110
11001110
1110
1111111110100000
1111111110010101
1111111010001000
1111110100010111
1111101110111100
1111101100101011
1111110001100010
1111110010010111
1111111010100111
1111111111001001
110010111
1111111101100101
1111111101101001
1111111011111101
1111110111010101
1111111000000110
1111111000010110
1111110001100000
1111110111101010
1111110011011000
1111111100001110
1111111010101100
101110100
1111110110111100
1111111011010100
11110011
1111111011011110
1111110100101010
1111111001011001
1111111010101001
1111110011100011
1111110001011001
1111110011000001
1111110011011100
1111101011111111
1111110001010111
1111111101001110
101000110
101001101
1111111111101000
1111110111111001
100101110
1111111001011001
1111111010010100
1111110100010101
1111101101110111
1111101000000011
1111101001100000
1111110010100011
1111111100011000
1111111111110101
1111110011010110
1111110010011011
1111110100111110
1111110111000111
1111111010110101
1111111011001111
1111111101000001
1111111111000000
1111111011001001
1111110100101111
1111110111100110
1111110001111101
1111111100000011
110010110
100010110
110101110
1111111110111110
1111111100101100
1001111111
1111111100110000
1111111001101011
1111111101010110
1111110001111111
1111101111000101
1111110011110010
1111110110100110
1111110110101111
1111111011000011
1111111101001100
1111100110100111
1111110000111000
1111111010110011
10000111
1111111101001111
1111111010111010
100000101
1111111111001011
1111111111110100
1111110111110010
1111110111100100
1111111001111110
1111111111010011
101000111
1111111101011000
1111111011111110
1111111100000101
111000101
1111111100011100
1111111111010110
1111111110011100
1111111100000001
1111100011100101
1111100110100111
1111110101010101
1111111011111011
1001001000
100
1111101110101110
1111110001000110
1111110100010000
1111111000111010
10110110
101101010
1111111111100001
110010000
1111111010011110
1111111001100001
1111110100111011
1111111101011000
1111111011111111
1111111111110101
1111111000110101
100100001
111101001
1011001100
1111111110100100
100100101
1111111110000101
1111111100101010
1111101010010100
1111110101011100
1111111010000100
10010100
1000110010
1111111111101010
1111110010100110
1111101101111111
1111111001111111
1111111010000110
1111111100011110
10000001
111110
110110001
1001010
1011101
1100000
1111111010011010
11011000
1111111110110001
111001011
101
11001000
1010111
1001010101
1011111100
101011110
11111111
1010
1111101101000000
1010110
11110110
1111111011100001
1111111001001111
1111101011101101
1111110011001000
1111110010000100
1011101
11100000
1111111111110101
1000010001
10110111
1100111
1111000
101000
1111100
1111111111100110
1111111110101100
1111111111001101
1111111011101100
1111111111001010
11011111
111101111
100000010
1111000
1000101
1111111010011100
1111110111000100
1111111100111100
10011000
1000001
1111101001010110
1111110101110100
1111101101100000
1111101010011000
1111111011100111
1111111100001101
10011001
1101101
1111001
1000110010
11111000
110000111
11101010
1111111111010101
11111110
1111111110011000
11000000
1111111110110010
1000100
10000001
10100011
111110101
1011011101
11011001
11100101
11010111
1111111010111101
100100101
1111110101111010
1111111100110110
1111101110101111
1111101000001000
1111110000101100
1111110100111001
10111101
1000
1001000000
1111111111010111
11110000
1111111110010111
110110110
100001001
1111111110100001
1111111101110111
1111111101101001
1111111110001000
10111010
100100110
110110011
1100101111
1010010110
111110
1111111010111100
1111111110111001
1111111111000110
100110010
1111110101101111
1111110100111110
1111110011111110
1111111001001101
1111110011110101
11100
111101
1111111110111111
1111111110010101
1111111011001110
1111111011100101
1111111100010001
1111111111000011
1111111111011101
11011111
111010001
10010000101
10011111111
1100010011
1110010010
1010000111
1110011011
1111110100001000
1111110001111110
1111111100101111
1111111011111001
1111111011101001
111111
100010111
1111110110001010
1111110111111100
100011101
1111
1111110111100001
1111110111001001
1111110000011110
1111111010101010
1111111000111000
1111111000100110
1111111100111011
10000111
1111111110100111
100001001
1001011010
11011101010
10010110001
1011001100
10011111010
1110001001
100101001
1111111110001110
1111111111001000
1111111000100000
1111111110000100
1111111100001110
1111111011011111
1111111111001011
1111111111111010
1000100001
1000001011
1100010000
1111111101100000
100110000
101101
1101001
100111010
1100011010
1011000100
110111111
11
11011011
100110011
1111011101
1010100000
1110011100
1100110100
100100000
110001100
1111111110101001
1111111111011111
10010100
111111
1111111101001000
1111111100011001
100010111
1010001
1111110111111010
1111111110011001
1111111100110101
1111111110010010
1001110
1111111001010010
1111111001100000
1111111101110000
1111111101111000
1111111110100011
100101
11101
1111111011100001
1111110101100111
1110101
101001110
111111010
11010110
100111101
1111111101010101
1100001
1111111011001100
100000010
10001100
