1111111011010101
1111111011000000
1111111100111000
10000011
100110110
1111111110101100
10111101
11101111
1111111111011011
11001111
11111101
100000001
1111100
1111111011111111
1010100
1111111011111110
1101001
1111111100111111
1111111111100100
11100100
100010100
1111111100000010
1111111110110000
1111111111000100
1111111111010111
11111111
1001000
100111010
111011
111110
101000000
11101111
1111111111010101
1111111111111101
1101111
1111111101101011
1111111101100000
110001101
110100
1111111110100001
1111111011001100
1111111100011111
1010001
1111110111101101
1111101110101001
1111111100000000
1111100110
1010011111
1111111110111111
1111111111110000
1111110111110100
1111111110111000
100101111
11100101
1111111100100100
11100100
1111111110100000
101001010
1111111100110010
1111111101001110
1000110
1000000001
100000110
10001001
100101
1111111110100001
10011100
1111111111001001
1111111010010010
1111111100110111
1111111111011000
100100000
100010100
10000011011
10001001000
10000100000
11000100011
1111111110
1001111000
11
1111111001000110
1111110110110000
1111111011011000
1111111011110001
1111111011000010
1111111100011110
1111111110001101
10001010
1001100010
1000000011
1111111110001000
101010000
10
1111111010100100
1010
1111111100110110
1111110101010001
1111110110001011
1111111100100100
1111111110000110
11011000
101111010
1111000011
10000110111
10000001010
10011011110
10000011100
1001111101
111000010
1111111010001101
1000111111
10001
1111111110000110
1111111110011111
11
0
101001011
1111111101101010
1111111000111110
1111111111100001
1111111101000001
1111111111111111
1111111110111111
1111110100110001
1111111001110110
1111111000111010
1111111100110001
101011
11111110
1111111111100000
1101101011
10001010110
1111010100
10111001010
10011011000
10011110111
10110010100
1001010101
1111011
10100100
10011010
1001
1111111111010111
1010010
1001100
1111111111111100
1111111011011000
1111111101100100
110110
1111111001010110
1111111010100111
1111110101001111
1111111011111000
1111110101110001
1111111001000100
1111110111100011
1111111101111001
1111111100100111
1111111011101000
1011100100
1010100111
1010110001
1011100001
10111001011
10111000000
10101011011
10000110111
111100111
111101
1100000000
10000000
100011111
1001001100
1111111101011101
1111111000001001
1111111001110111
1111111
11110010
1111110110011010
1111111000100001
1111111111000110
1111111001111110
1111110110001001
1111110100010111
1111110000111100
1111110000011011
1111101111111100
1111110111001101
1111011
1111110111111010
11000000
1100111011
10110011001
11011000000
10011100000
110000010
1111111000011111
10110111
1111111001010010
1111111011011100
101100001
110011110
1111111110011001
100011101
1111111110011011
1111111011001011
1111111101100111
1111111101001100
1111110111010011
1111111010011011
1111110011100010
1111110101100011
1111101111000101
1111101011000101
1111110111011110
1111110111111110
1111110110110001
1111110111010100
1111111101100011
1010001111
1010100010
11000101110
11011010010
110100011
1111110100100100
1111111010101010
1111111000011010
1101100
1011101
10001101
111000100
1111111111101001
1111111111101111
10101
1111111010110110
1110100
1111111000000001
1111111001000100
1111110011010010
1111101100110010
1111101101100001
1111110010001001
1111110100000100
1111111101100101
1111111001001110
1111111111000001
1111111111010010
1111111011100011
1110011011
11110110010
10011111010
1000001011
1111110110110001
1111111001100110
11010100
1111111011110101
1000011000
100110001
1100010000
1001010001
1001110111
1011000
1111111111011010
11011100
1111111111001000
1111110111000001
1111101011011111
1111101001011001
1111101110100110
1111110010000011
1111111011000010
1111111010110110
1111111011111111
1111111111010110
1111111100010111
1111111101011011
1101100
11110010101
10010011000
1111110111101111
1111111001101000
1111110111001011
1111110010101100
1111111110110001
11111100
100011001
100111011
101001101
101010110
1011000
1111111111100001
1111111011000001
1010111
10110000
1111111101111100
1111111011101110
1111110110011010
1111110101001010
1111111101101010
1111111101110000
1111111101011110
1111110101110011
1111101101011101
1111110010011110
1000100001
11000100010
101010001
1111110101101011
1111111000111100
1111111001010101
1111111100110100
1100110
1010001011
1110110110
1010101101
101100
1001001011
10110010
1000110101
1010000100
11000011001
11011100000
10001000110
10011011101
1001110110
1100101101
111001111
1111111101010001
1111111001000111
1111110000111000
1111101011111011
1111110010111001
1111111110101110
1011100111
1011111111
1111111111010011
1111111000111100
1111110110111010
1111110110100010
110100000
1010001011
100101100
111001000
11000100
110110110
1000000101
111010001
1101100110
10100001011
11110100001
10100010110
11010101110
10001010001
1000100010
100001010
110110
1111110111111000
1111110101011001
1111100101101000
1111110000101110
1111101111100100
1111101110110010
1111110001101001
1111110110010000
110000110
1111111010000100
1111110100000001
1000001001
111110100
1011100110
1111111111110110
101000010
1011001111
1111111
10010101
1001110
100001010
10000100000
10001001101
1011100001
10000000110
110101111
11000101
1111111110001001
1111111111101110
1111111001100001
1111110011101100
1111110101110011
1111101110000110
1111101010101010
1111101100100000
1111110111100011
1000110
101110000
1111111110011100
110001111
10000011
1111111100101010
110100
1111111111110110
100001011
11010010
1111110101011100
1111110101010100
1000011
110000010
101111111
1010100101
111001010
101100110
1111111101111100
1111111000100001
1111110111010111
1111110100000010
1111110111101011
1111111011001000
1111110010010011
1111110100000001
1111101001010010
1111110011001110
11110101
10100110
1001111101
1111010000
1111111110000001
1111110110110011
111
1111111100111101
111000010
1111111110000110
1111111010000101
1111111110000100
11111010
111111111
1011001000
11100011
1000111100
1110100
1111111101001001
1111111110000010
1111111101100000
1111111001010111
1111111110101100
1111111110000111
1111110101110001
1111110001001111
1111101111010100
1111110010111111
1111111100000000
100111001
1010101110
1111010000
1111111011011111
1111111000100100
1111110100000011
1111111010110110
1111111100111111
1111111111010101
1111111001001101
1111111100000100
111100000
111010110
1111001010
1001010100
1111111100101110
1111111011111000
1001011000
1001000101
110101111
101100001
110011111
111000100
100110100
1111110011110010
1111101011110100
1111110111111100
1111111110110011
1000011001
1100010101
10001110010
1111111001100111
1111111110011000
1111110
1111111100000010
1111111011110110
1111111101001010
1111110011101001
1111110111010011
1111111111110111
101110110
111110011
1011101011
1110011
110110101
1010011000
10101000011
110010011
10001100
1010010111
1100001000
1111111101000010
1111101011010100
1111101101010011
1111111001101010
1111111001010101
1111010
1100000010
1011100110
100111010
1000011100
100111100
1111111111100011
101100
1111111101001111
1111111000101111
1111110111001010
1111111101001110
110001000
100011000
1011101101
1001111111
111000110
111000000
1000110011
101011001
1001111011
1111111111001001
1111111110110110
1111111100111011
1111101010110100
1111101111110101
1111110010110011
10000111
1111110011100001
1000101111
1011100000
1111111110100100
1100010001
10110
1111111111011000
101011
1111111001111011
1111111001010110
1111111001011011
1111111000000111
1111111110010010
100111010
110010111
1101100001
1100010010
10010111010
10001001000
1101101111
1100011
1110100
110110000
1111111101111000
1111110001011110
1111101110100010
1111111101000010
1111111100101000
1111110110111101
1100011001
1000101000
10100101
1111111101010011
110010000
1111111001011110
1100011
101111001
1111111100101001
1111111000110101
1111110101100011
1111110010110111
1111111111110111
111100000
1011010010
1010111111
1111101011
111100011
1010001101
1111111111011100
100111111
110001
1111111110000001
1111111001010101
1111110100010100
100010000
11111111
11001000
1001001001
1001111001
1000001001
1111111000010110
1111111001101011
1111110110010001
1111111111101100
1111111100000011
1111111001010101
1111110111100101
1111110110101111
10101
1111111101100010
11101
11100101
1000001001
1101100000
10011111
1000010110
10001100
1111111100001101
1111111001001010
1111111000110000
1111110111101111
1111110100000011
1111111010011111
1111111100101010
1111111100010111
110010010
101010001
111100001
1111110101011000
1111110011111010
1111110011010000
1111110110011011
1111110101000000
1111110100000001
1111111010110010
1111110010111111
1111110101101100
1111111100010001
1100111
11100100
1110000001
1011010111
1000001110
1000111111
1111111110011011
1111111101100101
1111111110011110
1111111011111111
1111111101111101
1010101010
1111111011111111
11010101
1010101
100111111
10000111001
1100011111
1111111011010101
1111110101010110
1111110001101011
111010
1111110111011110
1111111010000100
1111111110011001
1111111001011100
1111111101111011
1111111100011000
1111111110111101
10100100
10000000010
10011001001
1000100101
1011011100
110100000
1111111101101111
1000011
1111111011110111
1111111111011101
1110001000
10110001
1111111110111011
11101110
100000000
10100101011
1010100011
1111111000110111
1111111111110010
10110001
100110110
1111001000
1000100000
101101110
1111111000110000
1111111110110010
1111111101000101
1111110111011100
1111111111110101
1000000001
1100101110
1011110111
1001111010
10111010
101111010
110001010
1111110001110111
1111110111111100
1111111000101011
10111100
11011000
10011100
100011100
100110010
1111111001100101
1111110110010001
1111110
1010101110
100011001
110010010
101000110
1111111100111111
1111111101110000
1111111101100110
1111111001001100
1111111000000101
1111111011010010
100000100
1000110011
1011001000
101110
1101010
1000111101
1000000000
1001100000
1111110111110011
1111111110011011
1110111
1111111111000101
100111011
1111111101111111
1100000
111001111
1111111000011101
1111110110001110
1111110111101001
1111110101100100
1111110101000100
1111110100100011
1111111101011100
1111110100111011
1111101101111111
1111101101001110
1111110000100001
1111110001111100
1111110011101010
1111110100011101
1111110111001101
1111110101100110
1111111011110000
1111110100001000
1111111110101010
11
11011000
0
1111111100011111
1111111110110010
1111111111100001
11011010
11110111
1111111000110001
1111110101101100
1111111000000110
1111111010101110
1111110010111001
1111111001010110
1111110100001110
1111111101100001
1111111101101101
1111110100001000
1111110100010001
1111110110001000
1111110100110100
1111110001110100
1111110010001001
1111110100001111
1111111111001000
1111110110101110
1111110011111010
1111111011111110
1111111101100111
1111111101010011
100100010
100110011
