100010110
11000001
1111111101101111
10101011
11010010
101000100
10101001
1111111110000001
101010
1111111100100010
1111111100101110
1111111101010101
101011101
100001110
1010000
1
1111111100011000
1111111110001100
1111111011000100
1111111100011110
1111111011000111
1111111111000100
1111111101110110
1111111101011110
10010101
1111111110011111
100101101
1111111110100000
1111111111000001
11010110
1111111111000110
11011100
10111100
10001111
111111
101001110
100011101
1101000
1010110010
1011101011
1101101101
11100
1111111010111010
1111111011101100
1111111111110100
110011100
101101100
110111101
11101101
10010111
1111111101100111
1111111110011101
101001001
10100010
11111
1101110
1111111111110110
1111111011010100
100101000
1111111101000000
111011000
100010100
10100011
1011111000
111111100
1111110101000001
1111111101100111
1111111110000001
1111111100000101
100001
1111111011100100
1111110110010101
1111111110101101
1010110110
1110000101
10010001111
10010010010
1100111101
110101000
101100
1111111111011001
1111111101001001
10100000
1111111101100100
100110101
1001000
1111110111000001
1111111000110111
1000010101
1111110011001110
1111110110101111
1111110010111111
1111101110001001
1111110100001110
1111110100100001
1111110100110110
1111110011010100
1111110000110101
1111111110111011
1111111100001001
1111111101101001
1001011110
10101101101
10110110110
10100001110
10110001011
10001011010
1010011010
1001111101
1111111101100111
100111
1111111101110101
1111111100100101
1111110111100000
1111110100101100
1111111100110000
1111111011000000
1111101011111010
1111101110111110
1111111000010010
1111101011111100
1111101100100100
1111110001000110
1111111001111010
1111111011100101
1111111001110010
1111111110000000
111000100
1100111110
10101000111
10100000100
10110101101
10101001111
11101110011
11101101101
10111100010
1010000011
1010100001
1111111001001000
1111111111111010
1110001
1111111011101101
1111110100100100
1111111000011111
1111110001000000
1111110011001001
1111110100010011
1111111000011010
1111111001100101
1111111001001100
1111110110010011
1111111000011000
1111110000011110
1111110101100111
1111111010001000
1111110110101101
10000
1101100011
1100011001
10000101111
10101111001
10111000101
10100000110
1100101100
1110010100
1101101101
11011111
110100101
1101100
10110110
110101
1111101111100101
1111110010000010
1111111010001110
1111110111001001
1111111101100011
1111111100000111
1111111000000101
1111110110110001
1111110101001111
1111110011101100
1111110100101101
1111110010010100
1111110101011111
1111110010010111
1111111010101000
1111111110101011
110001011
1101111101
11010110011
100010010011
11001001100
10000011010
1101000101
111101101
1101010
1111111101000100
1111110001101001
1111111001110111
1111101000111111
1111101101011011
100010110
1111111100011011
110001
10011
11111000
1111111101010000
1111111100111011
1111110100100110
1111101010011011
1111101111110100
1111110011111101
1111110111011001
11100011
10110111
101100001
1100100010
10011010000
100010100101
11110110111
11000010010
10001100000
101011100
100011000
10011011
1111111010101111
1111111110000001
1111110000011000
1111101010001100
1111111111101001
11100010
11000011
11100100
110010100
1111111100001011
1111111111101100
1111110111011110
1111110101011100
1111101100010000
1111110010111010
1111111010010010
100010100
1111111000101011
1111111010100111
110000010
10000100111
100000001111
100001100101
100001011010
10010101001
1000110111
1110
11001001
0
110000
1111101001101100
1111110111011111
1111111011110011
1111111111010000
100101110
1011000011
1010111111
1111111111100101
1000001010
110101100
1111111000110101
1111101111111111
1111110010011000
1111111100010010
1111110110010100
1111110111111110
1111111011101001
10101110
10101011100
10101110010
100001110111
11111111110
10110010001
100000
1100001
1111111111101000
1111111111101011
1111111011111101
1111101001000001
10111000
11111001
11011010
1111111111111100
1100110000
1010100110
1111101001
1001110100
1110011111
101010000
1111110111000111
1111110111011111
1111111110101000
1111110101011111
1111110001010001
1111110001000111
1111110110000100
1000001010
10110100101
100110101111
100101001100
10010001011
1111111110101111
1111111100000011
1111101
1111111011101100
1111111110010000
1111110010000101
1111111110111010
1001111101
110000000
110111000
1100110100
1011110100
1001010111
101010111
10001100110
10111010
1111111011001100
1111111001011001
1111111001111100
1111110010000101
1111101001000001
1111101011010010
1111101111010100
110101101
10010010010
100011000000
100001110111
1100111110
11011101
1111111100111010
10
1111111011110011
1111111101010011
1111111101100011
111010001
111101000
1101000110
111000001
1000101110
110001000
1001001110
101000101
10011010000
11100001
1111101111111001
1111111000110000
1111111010011110
1111110000010100
1111110110110010
1111110000000011
1001111
10111101001
11011010111
100011001110
10011110100
1010001
1111111110101101
1111110010011100
10001100
100101000
1111111001000111
11
10011100
1110000111
10010111001
1101010111
1000000
11101110
101101111
10010011100
1110010000
1111111111011011
1111110000110100
1111110101001001
1111110001010001
1111110000111101
1111110100100111
1111111111000101
1010101001
10101000101
100010110100
10110111000
1101111101
1111110100100011
1111110100011110
1111110110100001
1001111111
11100110
1111111110000010
1111110101000110
111011000
10110010001
1101101110
111101010
1001001111
1100001001
1110100100
1110101001
1001001001
1111111000010001
1111110011010111
1111111000010000
1111110110101100
1111111100101011
1111111011110011
100110100
10110010011
11011000110
10111011011
10010001010
10001110100
1111111000110100
1111101111101010
1111111100111011
110110001
10001110
1100011010
1111111111010100
1000100000
1100000011
1010111101
100101101
110110001
1111001110
1111111110
10000011000
1000110011
1111111101010101
1111110100010111
1111111011000111
1111110100111010
1111111010110011
11001100
1011001111
10001010100
10010101010
1111101000
1111011010
10110100
1111110110111000
1111111101001101
1111110001000110
1111111101110101
1111111001100101
1111110111011001
1111110101010010
10010
1011101011
1010111011
1011000101
1111110100
1000110000
1101101011
1001000101
110010
1111111010001010
1111111111001000
1010000
1111111100111001
1111111100100011
101001100
1100000111
10001111101
110100000
100111001
110000110
1111111111000001
1111110001100001
1111110000001100
1111110111000101
10110010
1111110011100110
1111111010111111
1111111010011100
1000001
1100001110
10010101000
1001110001
1110011110
111111110
1001001111
10010001
1111111110010001
1111110110000111
1111111101011110
1111111110011100
1111111110111011
101001
100100111
1100011010
111001001
100000110
111000
100010011
1111111000010101
1111100111011100
1111101101101100
1111110111011101
1111111100011110
1111110100000110
1111111001000011
1111110110110111
101111
1000001000
10010100110
1011000111
111110001
101101111
101011000
1111111110110000
1111111111010001
1111111111001010
100000011
101001100
1111111101101000
101110
10000101
1000100
11101100
1111111110000001
1111111100010000
1111111001111111
1111110001101011
1111101110010100
1111110011101000
1111110010110000
10001001
101101110
111001110
1111111010100010
1110110
1011110000
1001110010
10111010
101010101
11001000
10101111
10010001
11010111
1111111100011111
101100000
1111111110001110
10001001
1111111110111010
1111111011111010
1111110110101101
1111111011011101
1111111010010001
1111111001100100
1111111011111011
1111111010010101
1111101101100000
1111101100011101
1111110101101001
100001110
100111
11100010
1111110100100100
1111111110101010
1011011001
10110100
1111111111010111
110
1111111001100000
11000111
1000011110
1011111011
1111111111011010
100011
1101000000
1101111
1111111111110110
1011101
1111110001111111
1111110011000010
1111111101111101
1111111110011001
1111111001011101
1111110110000001
1111101111110010
1111101101001001
1111111010010010
1111111100101100
1111111011001100
1111101001011011
1111101110011000
1111111110011010
1001000001
1001011000
101000111
1111111100111100
100100
1111111110001001
100010011
110111101
111010101
110001010
1111111
1111111101011101
1011111
1001110
1111111001110100
1111111011010101
1111111010111100
1111111100101101
1111111011011110
1111111000110100
1111110111010000
111010010
10001100
1111111100000110
1111111001101100
1111101011011100
1111110001010001
1111111000100010
1111110110110110
1111111011010010
1111111110010101
1111111111000110
100000111
1111111100001010
1111110
111101110
1010011110
101111
1010100001
100001011
1111111110110011
1111111001001101
1111111101011001
1111111101001001
1111111001110001
1111111010010010
1111111111111010
1111111001110011
11011001
1011110101
100111
1110111
10100
1111111101111110
1111110111001001
1111111001001011
1111111001001001
1111111101111011
1111111110101010
1111111101010011
1111111100001011
100100100
10100000
10101101
100110011
11010010
1111111111011001
1000100100
101010001
1111110110110001
1111111000011110
101
1111111000110111
1111111101011001
1111111100111011
1111111010111111
1111111101100010
101110100
1111111011001100
1111111101111001
1111111110000101
1111110111110001
1111111110000111
1111101001111111
1111101110011110
11000
1111111011100010
1000101011
101010000
101000001
1111111110011010
11100010
1000111
101111000
10001111
101010101
1111111001111011
1111111110111010
11010100
1111111111100000
1111111100011101
1011
1111111011001011
1111111101100101
1111110001100000
1111110100110101
100111011
1111111111100011
100101
1111110101101001
11011100
1111111011000011
1111101111001000
1111110001000001
1111111100000000
1111110000010110
1111
100001000
11011110
1111111010110000
1111111000000001
1111111000001111
101010000
1111111011000001
100001001
1111111110100000
1111111101111100
1111110011101100
1111111011001011
1001101010
1111111111110101
100110011
1111111100100110
1111111011101111
1111111101110010
10011
1111111011111100
1111111110000011
1111111011100100
1111110100111010
1111110010010000
1111110101100100
1111101011011111
1111100011011101
1111100010100001
1111101000011001
1111110010011111
1111110100011001
1111110000100001
1111101011010101
1111101101010100
1111101000001010
1111101011110000
1111101001110010
1111110101101000
1111110011011111
1111110010111101
1111110101110000
1111111011011110
1111111011010000
1111111111000110
1111111110000001
1111111111010001
10011100
11000111
10111001
10110101
101000011
100111111
1111110101011110
1111111001100000
1111111001110111
1111110110000110
1111110010110110
1111110010100110
1111110001010110
1111111000110000
1111101001011011
1111110000110111
1111111010100111
1111111011001111
1111110001111011
1111110101000010
1111110111101101
1111111001000100
1111110101011111
10011010
1001111
1111111111001110
1111111100111000
111110
