10010110
11010000
11010010
100111101
10100110
101001011
100010000
1111111100100101
1111111011001110
11001110
1111111011111000
1111111011000100
1111111100011110
1111
1011111
101010110
1101111
101101
1111111100100010
1111111101001100
1111111101110101
1111111010111110
1111111111100000
11101001
1111111011100101
1111111011111111
10111101
1111111100100111
10111100
1111111011011011
1111111101011101
1111111110001110
1111111111100011
1010110
1111110110010000
1111110110111001
1111111000111010
1111110100011110
1111110101111110
1111111000111001
1111110011011110
1111111010110010
1001000
1111110111011101
1111110110011001
1111110010110111
1111111010110110
1111111001111111
1111110111101000
1111111000001110
1111111010000110
1111110101001010
1111111100110100
10010
1111111011010101
1111111100110110
1111111101111111
1111111100000010
1000100
1111111100110111
1111111000100110
11000100
1111110111100001
1111110111111001
1111101111001001
1111101010101100
1111101001110000
1111100011010010
1111100011111010
1111101101010000
1111101100010101
1111101111010000
1111111011001001
1111111010111101
1111111001110001
1111111000011101
1111110101101101
1111110011011101
1111110001101001
1111110100010101
1111111100010110
11111010
1111111010111011
1111111101011001
1111111101101101
1111111111000001
1000111010
1111110111110010
1111111110100000
1111110011001110
1111110010011101
1111100101010010
1111011101011100
1111100100111100
1111010111010110
1111010110000111
1111011001111100
1111010111011100
1111100001011011
1111101011000000
1111101101100011
1111111010011100
1111111100100011
11111011
10000111
10001101
10100001
1010010
1111111010110101
1111111101001000
1111110110011110
11000111
1111111110010010
1111111010001000
101110010
10011100
1111111000010000
1111110011011111
1111101001101100
1111100110110010
1111100100001000
1111101000110101
1111100011100001
1111101000010110
1111110110010011
1111101110101110
1111110100011111
1111110001010100
1111111010011010
1111111100011000
100001
1001111
100100
1001100111
1011000110
110110111
100111001
110010010
101101
1111111010010110
1110010
11100110
1111111100101111
1111111100111000
1111110011000101
111111
1111110010101110
1111110100111111
1111110101011000
1111110110010100
1111110110011110
1111111001000100
1111111111011100
1111111001110100
1111110110001000
1111111100010110
10000100
1111110
1111111001111011
1111111100001100
11101110
1001110000
101101000
1111111101010110
10010110
111100101
1111110101111000
1111111000010101
10001100
1111111001111001
1111111100100101
1111111100001111
1111101101111111
1111110110110000
1111110110111001
1111111011111001
11111
111101
10101110
11100010
1111111110011001
100010
100100000
111100011
1000110000
111100111
10010111
1010000000
1010111111
110000101
1
1111111110011111
1111111010011110
1111111110001110
1111111011000101
1010
1111111011110111
1111110011001100
1111111101100000
11011000
1111110011000000
1111101110001001
1111111011000110
1111111100000110
111000000
1000010111
1001011111
100000100
100010010
111010000
1111111111110010
1001000100
101011010
100100100
11111101
1010000111
1011010100
1101100100
10001101
110110000
1111111110010100
1111111111111010
1111111011110110
1111111110000101
1111111010001100
101010111
1111111011001101
1111111011101110
1111111000011011
10000010
1000110110
1000010100
10000010111
1101100000
1100101111
110010100
1101010110
100001101
11010001
110000000
110111100
100101100
111101100
100011011
110101000
110011110
110010101
1000100110
101001110
1110011
1100100100
11111010
100000000
11111110
1111111100000101
1111111111000111
1111111111111111
1000011011
10000110111
1010011110
1101001000
1101111001
1110010011
10001011111
1010110000
110000010
1100100
1001001
110000
110100
1010101011
110011101
111111101
101001011
101010100
111010011
1111111000011000
100001011
1110000000
1000011110
1010011110
101010111
10010011
10101000
1111111111010111
110100110
10000000010
10011011011
10000000100
10100011011
1110001000
1101101110
10010000011
101010010
1111111110101110
100100101
101011010
1111111001110010
101011111
1000110100
100101101
110101010
11011111
100100
1111110100001100
1111111000010100
1010100011
111111010
1111111111110101
1111111011111110
1011001111
1010001100
1101000110
10101011000
1100101010
10010101000
10000111111
10101001000
1010001100
1010000001
101
1111111111011101
11000011
1000110011
110001111
1111111110101101
101011101
1010010
111010000
11100010
110011
110111
1111111100101000
101111011
1111001100
110100111
101000100
111011011
1001010101
10000000110
1111010110
10101101011
1110110001
1101011110
1010000111
110100100
1111111101110101
1111110110000101
1111101110101111
1111111000100011
1000011
100000001
1000010
111110111
1000111
1011111110
1100010111
1001110110
1111111111001011
10100000
11110
101110110
10110111101
1010110111
1000100
111001100
100101101
1000000010
1101111010
1110011101
10011111
100110
100010
1111111011101000
1111110010111100
1111110011000011
1111101110011011
1111110110100001
111101100
1101100000
1011011101
101100011
110110110
10100011
1011101001
101101110
1110
1111110110101001
1111110101000000
1000100000
10111011101
1101010011
1111111001011111
1111101
10111111
101100010
1011101111
110100
1111111010110100
1111111100101100
1111110010001011
1111101110010101
1111110101101001
1111101110001001
1111111010001111
1111111111010011
100110111
111101101
110001100
1001011110
1111111111001011
1000000011
111001111
1111111010011100
1111111001001011
1111101110111011
1111101110111001
1111111100101111
10010010010
11100110
1111111101101101
1111111101011000
1111110100110111
1111101
1111111000111100
1111110010101010
1111110111011001
1111110010001101
1111111100010010
1111110100110010
1111111011100001
1111110100011011
11110101
111101110
110011111
11001001
1001110011
101101111
1111111101100010
1111111010010010
1111111011111101
1111111000011011
1111111100010001
1111110001111110
1111100111010011
1111110101111010
1010111101
101100101
10011000
1111110101110010
1111111001010111
1111110101101010
1111110000111111
1111101110111101
1111111001111011
1111110101111110
1111111001110111
1111111100011000
1101010
10100101
1011001110
1111000010
1010110011
100000100
1000001111
1111111100101000
1111110001011000
1111110101011010
1111110100110101
1111111011011110
1111110100111011
1111101110000110
1111101101010010
1111110000001001
10010110011
1010001100
100001
1111111011010000
1111110101100100
1111110011101011
1111110101001111
1111111001100011
1111111011110010
1111111111000001
1111111100111100
1001
1111111111110111
1111111110100101
1011001000
1100001011
1100100111
100100001
1111111010110100
1111110110100011
1111111000111101
1111110111011111
1111111010011110
1111111000111110
1111110111000110
1111111001101110
10010000
1011
1101011001
11000111
111011111
1111111000111111
1111111000011011
1111110010011100
1111110010010101
1111111000011110
100100
1111111000010000
1111111100111111
1111111100101110
1111111000111010
1111111011001101
1111111111101111
10101111
1111111110101100
1111111110100001
1111110100110111
1111111000001001
1111111101100001
1111111011111011
1111111000101001
1111111010101100
1111110100011110
1111110100101110
1111111111010000
1111111000010101
1011110111
10110100
10001000
111000110
100001111
1111101101110110
1111111000001110
1111111011111111
10010010
1111111001110101
1111110101011000
1111101111111100
1111101010110100
1111101110010000
1111101010100110
1111110011101001
1111110010100100
1111110101001100
1111111100011100
1111111001010110
110111
1111111100011111
1111111010110111
1111110001100010
1111110000000010
1111111111111110
111000011
10111110
11000011
1111111010000111
1111111100000110
1111110111110001
1111111100010011
1111101111100010
1111110111101101
11001010
100110011
1111111101000111
1111111010010110
1111110010000000
1111101100111111
1111100110001101
1111110000110011
1111110000111100
1111111000010101
1111111000011000
1111111111110000
111001110
1111111101001111
1000000
1111110111100001
1111110011110011
1111111100000101
101001000
1101111011
1100111111
1010100
100100
1111111110101111
11110
1111110100110101
1111110101100110
1111111110000101
1000001011
101010101
1101111
1111111011011011
1111111011111001
1111110001110101
1111101101111100
1111101111110010
1111110100110000
1111111100100101
1111111001100011
10000011
10010111
1101111
1111111100111101
1111111011111001
1111111100110100
1011000
1000110000
1111001011
1111111110010010
1111110100101110
1111111110100110
1000010
10011001
1111111010000110
1111111001111011
11100111
100110000
100011110
1101000010
1001110101
11001000
1111111111000111
11111
1111111110110010
1111110100101110
1111111000000100
1111111111111101
11100010
10000001
110101011
1111111110100000
110111111
1110001
110110111
100011010
1001100110
1111111101100000
1111101101101101
10101001
1111111011000110
10100000
1111110101110010
1111101101110000
0
1111111110100100
1010000
111001011
100111001
11110
1111111111000101
1111111101001000
10000000
11111111
1111111011101010
101000
1001010000
101010110
100111000
111101001
101000000
1111000010
1000000000
1001010011
100110111
1111110111100011
1111110001010111
1111111110001101
1111111111110011
1111111111011111
1111111100010010
1111110110011000
1111110011100110
1111111101110100
11011000
110011010
1111111101110000
101100101
1000110000
1101110100
1110000111
111001111
1000011010
1010001101
1011000010
110100111
11001011
1100011110
1011100111
110110110
1001111100
1110011000
100110
1111110011100010
1111111000011111
101000000
1111111101110011
1111111111010000
1111111001000111
101000001
101110
101111110
1001001110
1101111101
10000001110
10111011101
11100001101
11001110010
11011011110
11111111000
11011000000
10101011010
1110011010
10111001010
1010001111
111110011
1011011011
1011110010
11111011
1111111001110101
1111111001001101
10111010
1111111100000101
10111010
100111110
100101000
10100111
1111111101100010
1001011011
1000100011
1111011110
10001001111
10001000001
10001010110
10001101001
1011100111
11000110010
10011101011
10110111001
111011111
1001011011
1101111000
1111101111
101001111
1010010110
1100101111
11001111
111111101
111001010
1111111110101001
100000000
11110100
1111111111000111
1111111100000000
1111111100000001
10011
110010100
11110110
1000100011
1001010010
1100000111
10101100
101001101
10000001
110111101
1010011001
10000100011
10111001
1111111111110101
1010101111
110110111
11010000
100000000
1110001111
100111010
1110101
11001011
1111111100010111
1111111110100000
101001000
