111101
11101010
101001000
10011001
100111000
1111111010111100
10100001
11100001
10001001
1111111101000100
100101110
1111111111110010
1111111100101001
1111111101010111
1111111110111010
1111111011101010
1111111110110101
1111111101100010
1111111010111001
101100
1111011
1111111011001111
1001010
1111111101001111
11111001
1010
1111111101001001
1111111110101101
1111111111101100
100110101
1111111101100101
100001001
100011000
101010
1111111111101001
1111110111101001
1111111100000111
1111111011001000
1111111111111010
1111111011110111
1111111001001100
1111111000001110
1111111011101011
1010101
1111110100110101
1111110110010001
1101010
1100
1111111111001000
1111111011011111
1111111011001011
1111111010111010
10101100
1011010
10010010
100101011
1101011
1111111100101111
1111111101111001
1111111001001001
1111111011010110
10011001
1111111001001010
1111110101110011
1111101011000100
1111100110111000
1111100101110011
1111100110101010
1111101011111110
1111101111100110
1111110010010110
1111111001101010
1111110111001001
1111111010101111
1111111100011001
1111111110111100
1111111011110001
1111110110001010
1111110111110110
1111111111110111
1111111001101001
1111110010101110
1111111101010101
100110100
1111111110110011
1111111100101000
101111010
1111111110001111
100010000
10100111
1111111101010100
1111111111011100
1111111011010011
1111110101100101
1111110000001011
1111111000101001
1111111111100001
1111110011001011
1111111010011100
1111111101111011
1111110111101000
1111111000011110
1101101
1111111110101000
100001000
1011110110
1001000111
10000101
110001011
1111111111010110
1111111010101110
100011011
1111111011000100
110100
10111111
1010110
10111
100011
100010011
1000100011
1111111111010010
1111111110110111
1011110
111011010
100100011
1111111101101100
10101010
1000101000
11001011
1111111111000111
10001011
11101110
1111111111100100
1111111111110010
10011001
1111111111100110
1100010011
1100100000
110000010
1111111000000110
1111111011101000
1111111110110101
11100100
111110
1111111011100110
111011010
100100010
1000111011
1111111001110111
1111111110101111
10111000
1011101110
100111011
1110101
1101110
10001101
11001111
11101000
1111111010010001
10111110
100100
1111111011010011
100101001
1111111011000001
100100001
111010010
10101000
10001
11011111
111101010
1100010
1111110101101101
101011101
1011100010
1000000001
110111101
101101101
101010011
10101011
1001001000
110010100
1000001001
1111111010010001
1111111011111101
1111111000111101
100011
1111111100100100
110000001
1111111100001101
1111110101011100
1111111111111100
10010010
1000110110
101010111
10000010111
1111111100111111
1111111100011101
100010100
1111111001101001
1111111110011110
1001110
1011010010
101001111
1101010
11011100
101011001
1010010111
110111001
10100111
111000
1111111011111001
1111111110110111
1111111010000000
1111111011000010
1111110111110000
1111111011101100
1111111100011000
1111111001000100
1111111000001101
1111111101010101
111
1100001000
10010001110
1010110
1111111000101110
1111101100001011
10111000
1111111110101110
1111110111101001
1111111011111111
10010010
1111111011110100
1111111101010010
11010001
1000011
10000000
11000111
1111111101111110
1111110101111110
1111110101010011
1111111001101111
1111110000110101
1111111010010101
1111111110010100
1100101
111100
11011
1111111101011110
110101100
10010100110
1100111011
110001110
1111111011000011
1111110010000000
1101111
1001100
1111111000000010
1111110100100000
1111111101000011
1111111100111111
111010111
10001
110000000
100110011
100011011
10110111
1111111011001010
1111110011001100
1111101110101010
1111110101101100
1111111001010010
1111111110000000
101101110
1111111110111001
1111111101100111
1111111110101100
10010101111
10110010110
1110100101
1111111011011111
1111111101011000
1111111001110110
1111111010010010
1111111111010011
1111111110110111
1111101011111010
1111101111000000
1111111111100100
111101010
1010110111
1011110
100101000
110000001
1000110011
1111111110111110
1111111001001110
1111110101100011
1111110110100010
1111110100011000
1111111100110110
11101011
1111111101110111
1111111111011111
1010000000
10010000001
11010011100
1011011011
11101
1111111110001101
1111110010010011
1111111001100110
10010011
1111111000001011
1111110110100011
1111110101101011
1111110010011110
110111
1111111111101010
101011
110110010
1100111111
10010000111
10010000011
111111010
100010011
110001
100101011
1111111011001000
1111111110011100
1111110010011100
1111110101000101
101010110
10001100010
10101010101
1111001101
100110001
1111111010100100
1111101111110000
1111101101101110
1111110000111110
1111110001011100
1111101000101001
1111111000011000
1111111100110101
11110010
1111111110110010
11101011
101010001
1111111010
10101000101
10101111100
10001111101
1001111010
1111111111101011
11101111
1111111110110111
1011000
1111110001001011
1111101101110001
1111110000010110
1111101000100010
1111110100100010
110001
1111110111010101
1010000
1111110111010111
1111110000011100
1111100111001000
1111101010101111
1111101100011110
1111110001011101
1111110111111000
1111111101010100
110100100
111110101
1010010111
1110110000
10011111101
10001010011
1111001100
110000100
11010000
1111111100100000
1111111001010000
1111111111101100
1111111100000010
1111110101010000
1111110011001000
1111011110001000
1111100011011100
1111110000000010
1111110100011100
1011
111010111
1111110011110101
1111101100111110
1111101011000100
1111100010101111
1111100001100010
1111101010000011
1111110100000000
1111111011111101
1111111011110011
110101101
10000111100
10111001000
10100010001
1000010010
110111110
100111010
1111110110111010
1111111001101010
1111111000101000
10110
1111111011000000
1111110100100110
1111101110010111
1111100100001010
1111101001010111
1111110101010111
1111111110011100
1111100
1010101010
1111101111011001
1111110001111010
1111011110110100
1111010011100111
1111010100101111
1111011111001110
1111101100011101
1111110110101101
10100000
1111011011
1100000001
1100001101
1001010110
1111111110011111
1111110111001101
1111111001011101
1111111100101011
1111110110110110
1111111111001100
100100001
11110110
1111110110111101
1111101001001101
1111101110011101
1111111000110111
1111111101011110
100111100
100000110
1111111010111010
1111110110110001
1111101000100000
1111100000011011
1111010100100010
1111010011100111
1111011010010000
1111100011000011
1111110000000010
1111111101011110
1111111011101011
11111000
11110100
1111110110110111
1111111001011111
1111111010110010
1111111001110101
1111111111110100
1111111100101001
1100
1111111100110111
1111110100000101
1111100110100100
1111100101010010
1111110010111001
10011101
1001011100
1111111101100011
1111111111000100
101110
1111111001010001
1111111000100110
1111101111101011
1111100011010100
1111011010111000
1111010010111001
1111011001000011
1111100101101001
1111101111111000
1111111111010100
1111111110101000
11100101
10111001
1111111111011001
1111111100010000
1011100
111010100
110101100
1111111111100110
1111110010110111
1111100000110010
1111110101100101
1111110110011001
1111111010110000
10010100
1101011
1001100010
1000110010
1110111111
1110001100
1111111101001001
1111110010001111
1111101100010111
1111100111101001
1111101001001010
1111100111110001
1111101101110001
1111111011111000
111100010
1000100000
11010001
1111111010011010
10011
11001001
1111111111001000
111011
1111110011110001
1111110001010101
1111101100001010
1111111000000110
1111110010111111
1011110
1111110011101110
11100111
1100000110
1001100000
1110010111
10100000101
1001111000
1001010001
1111111101001010
1111111001111001
1111101110110100
1111101100100100
1111101101000111
1111111100011101
1010101
11111010
1111111110101111
11011001
1000101000
1010001101
111101010
1111111010110000
1111110111101100
1111111000110110
1111110010111000
1111110100111000
1111111011100101
1111111100011110
10110001
1111111010111110
1001000001
1000010001
1110011010
10001010000
1001010001
1101011000
110110110
10101
100111
1111110010011001
1111110100001000
1111111101000000
1111111100111000
100101101
1100001011
11101111
1110011
110001101
1111111010001001
1111111101110111
1111110110100110
1111101101011010
1111110010001011
1111110111010000
101001010
1011101
1111111101000111
1111111100100110
1111111110100100
1101011100
1110100010
1000010110
1000110101
1010101110
111110110
110111101
1111111011111011
1111110110110011
1111110011101001
1111110111000101
10000100
1111111111101100
110101000
10000001
11000
1111111011010001
1111111010001011
1111111011111100
1111110000000010
1111110101001111
1111101100001101
1111110111000100
1111111101110111
1111111011001111
11110110
1111111110100010
101011010
1101101110
1111111111110011
1111111111100101
1111111011011000
10010101
1111111101000100
1111111111110101
11000010
1111111111010010
1111110111000111
1111111100000100
1111111110011001
11110010
101001011
110110000
11010110
1111111100000011
1111110001101001
1111110101100001
1111110011010010
1111110000111110
1111110100010110
1111111100100111
1111111100110010
1111111010110110
1111111110101010
1011000010
10011010110
10001000111
101100
1111111001100101
1111111100100101
1111111100110001
110000
1111111110100001
11001
1111111000110000
10110000
1111111100010111
1111111101100101
101100001
1100001
10100010
1110111
1111111001110000
1111101100100110
1111101011001001
1111110110000000
1111110100100101
1111110110100010
1111111001101111
100101010
11001101
110101
110110010
11001000110
1101101111
1111111110100110
1111111101111100
100000101
1111111111100101
111110110
1010111100
100010101
1110110
1111111010110100
1111110101000100
1111111011001011
111110001
1010000011
1000000000
1111111110111001
1111111101111000
1111110011010000
1111111100010000
10000100
1111110101000011
1111101100011001
1111110110000011
0
1111111100011000
1111111011010011
111000111
11011
1111111101111100
1111111111110111
10110
111101000
111011101
1011010100
101111101
1111111111011001
101000010
1000010111
1111111010001001
1111111010010000
100111100
11010100
11000110
1111111110101110
100010110
1111111110111011
1000101100
10000010110
10010011
111110
1111111111001010
1111111110010011
100001110
1111111011101101
1111111101010001
1100101
1001011111
1111111101100011
1111110100110010
1111111010010110
1111110111011100
1111110101100100
1111110011001100
1111110101010001
1111110110000100
1111101100011011
1111110000111110
1111110011001101
1111101110111001
1111110011001101
1111110000110011
1111101101111100
1111110110011010
1111110111111100
1111110111010101
1111111010101010
1111111011010000
1111111111100110
1111111111000101
1111111100011011
1111111110010010
10110
10100010
1111111101101100
1111111001001101
1111110111000100
1111110100111101
1111111010010010
1111110100100011
1111101111111001
1111110100101001
1111110110111001
1111111011100101
1111100110101000
1111101110011011
1111111000110101
1111110101001101
1111110000001100
1111110001110000
1111101110111010
1111110011100001
1111110111100111
1111110110110100
1111111101111111
1111111110111110
11010010
1111111110010000
1111111111011010
