10101111
100011000
11010100
11011010
1111111100100000
100101101
10011
1111111110111010
1111111100011110
11010110
11100110
1111111111101100
10101000
1111111110111010
100100110
1111111111011101
1111111111010111
1111111111000111
1111111101111011
1111111111000011
100101110
10000
1111111101011001
1111111101110101
1111111011011101
1111111111111000
110010
1111111101111011
1111111101001011
11110110
11000011
1100010
11100111
11000001
1111111100111100
1111111110110110
1111111111000110
1111110110101101
1111111010101011
1001
1111111110101111
1111111101101101
1111111111010111
1011111100
10000111100
11000010
1111110111101100
1111110001101110
1111111011111010
1111110101001001
1111111000110000
1111111011001111
11000011
100101010
1111111100100010
1111111011001011
1111111101110010
101001
1111111010111010
1001111
11100101
1111111100000100
1111111100001110
1111111111010101
1111111100100111
100010100
1010
1111111100001101
1100011
1111111011011110
1111111010111111
1111111110111111
101000
1111111100011110
1111110101010100
1111110100001010
1111110100001011
1111111001111010
1111110100101010
1111111101100001
1111111011110011
101110100
1111001
1111111100101011
1111111101100011
101
1111111111100001
1000100011
1110
1111111010011101
1111111000111100
1111110011101111
1111110011011101
1111111000011011
1111110100101110
1111110100100111
1111110001000001
1111111001010000
1111110111011100
1111110001010000
1111110011011001
1111110011001101
1111101100011010
1111110000011000
1111110000100100
1111110000111111
1111111011000010
1111111000101010
1111111011100001
1111111111111001
1111111001101000
1111111110111110
100101110
1111111101110010
111000
1111110110010010
1111111000100011
1111110011110010
1111110110101001
1111111000000001
1111111001011110
1111111101011011
1111111110101011
1111110111010101
1111111100001000
1111111101111101
1111111000010011
1111110110001100
1111111001110011
1111111101011110
1111111011010011
1111111101010100
100110011
11010100
1111111001101111
110100
1111110011111111
1111111100000100
11100010
1111111111101011
10100110
1111111110101111
110100111
1111111111011001
1111111011111110
1111101111001000
1111111011111111
1111110110000001
1111111001001111
1111111110101100
1111111011101010
1111111010111011
1110111
10010111
110100010
1111111101101101
1111111100110100
1111111101001100
1111111111010111
1010
1111111011101111
110001010
101100110
11011000
111011
11001111
1010
1111111011010110
10101111
1111111100101000
1111111110100010
1111110111100101
1111111111111001
1111111000010111
10011
100100
1111110100001100
1111110110101111
1111111001101001
10110111
1110000
101000110
1111111011001000
1111111010001011
1111110110001110
1111110110000010
1111110011101110
1111111001001001
1111111010001001
1111111000101001
1111111111000110
10000011
10110111
11000110
1111111001011100
101100010
101010110
1111111011001111
10010
1111111111001001
1111110111111110
1111111101111010
11001010
1111111000000001
1111111100101011
1111111000011001
110011101
1001011000
100000000
11010110
1111111011011011
1111111010111011
1111111010000101
1111110011010000
1111111101011001
1111110010110101
1111111000111101
1111111110001100
1110001
1011101001
110000101
1001100111
1111111110110001
111110110
110110101
1000000101
1011010
1111111100110101
100010
1111111010010101
1011100
1111111101111001
1111110101010011
1111111110010010
10110010
1000011010
1111010101
111100010
101
1111111011010100
1111111110101101
10100011
1111111111000101
1000001
10110010
1111111110000110
100111100
10000011011
1110011111
111111
1001011111
111100011
11011111
1111110101000001
10001001
10111
1111110110010100
1111111010111001
1111110111001101
1111111011000111
1111110111011101
1000101
110111011
1000010110
1110010100
1010110001
1011001111
10100001
1111111101010111
1100110111
11110101
110101001
100010011
10000101
100101011
1001110100
1011010010
100110011
1000111011
1111
1000111010
1111111011010110
110011011
1111110111100111
1111111110000000
1111111111011001
101011
1111111011011110
1111111010000010
1111111010100111
11010001
111001
1011111111
1110110010
111000100
111101010
11011111
10001010
100110111
110100101
110011000
1011101111
11011000
111110100
110100001
1111110101101010
1001001011
110011010
1001110110
1010101011
1111110100101001
1111110000110000
1111110100110100
10
1111111101101000
10011110
1111110111110100
1111110100110001
1111110010111100
1111110010001001
1010
1111111110010110
11100111
1111111101100011
1111111011000011
1111110110010010
1111110100001001
1111111101101011
1111111100110101
100101000
1001000000
1100110110
1101110110
10101010
10000101110
1111111110010000
110101110
1001111000
1111110101010000
1111110000100100
1111110000010001
1111110111011110
1111111001111000
1111111100010100
1111110001101101
1111110010100110
1111101010101000
1111110011110111
10010010
10111000
1111110110001111
1111101101100010
1111101101101111
1111110110000001
1111110011001100
1111110101110111
10111
11011000
1101000101
101100111
11001000011
1111110111
1110110001
1111111000111011
1111111111000010
1100000100
11110000
1111101111111110
1111101010010010
1111101111010100
1111101101001111
1111110011100101
1111110010100100
1111110100011000
1111111000110010
1111111111100000
11001110
101001110
1111110110001010
1111110101001111
1111110101100010
1111110101110110
1111111010111100
1111110101000100
1111111001111110
1111111110010011
1000010111
1111111011
10010100000
10111101010
11000110011
100011000
100010011
1111110111011010
1111111110000000
1111110000110100
1111101101100101
1111110100100000
1111101111010011
1111110011011110
1111110101100000
1111111010111000
1000100111
1110000010
110101001
101
1111111000111101
1111101110000001
1111101010011000
1111110010011000
1111111011010110
1111110010011000
1111111011110110
1111111000001110
10010010
1000010001
10010001110
10011001010
10000100010
101110100
1001101010
1111111000001111
1010100
1111111001011010
1111110011011010
1111111110110000
1111111101100000
1111111000011100
1111111000001100
100110011
1110111111
1101000100
111011000
1000110001
1111111111110100
1111110011001001
1111110111110100
1111111010011101
1111111011001011
1111110011011101
1111110100010101
1111110111000101
1111110110100010
1111111101111001
1100100110
1110110010
1100011101
1011110000
1111111001000100
1111111110000001
1111110110001010
1111111110010111
1111110101000011
1111111111001100
1111110111111100
1100010
101100111
1110010011
1100000110
1100111100
1100000001
1001110111
1111111011001111
1111111011100001
1111110110100011
1111111110101011
1111111001101011
1111111010100010
1111111000011000
1111111110101001
1111111010101010
100111101
1001000001
10110111101
1111011010
1010100010
100111
1111110101110110
1111111001101100
1111110110100111
1111111100000000
11101011
1111111110101100
1111111010010001
1111111111111000
10000111110
10101001111
10010001110
10011010100
111111010
1001100
1111110111110011
1111111010111100
1111110111101101
1111111000001011
1111111100011111
1111111111101010
1010
1111111101001010
1111111101000101
1000010011
10100111111
1010100011
1100010000
1111110110011010
1
1111111011001101
1111110101111100
1111111000101001
1111111100011010
1000101
100010
111010100
1010101000
1011010010
1110010111
10001000100
111100010
1111111100010110
1111110100111100
1111111001111011
1111110110100010
1111111011001000
1111111100010111
1111110111010111
1111111010111000
1111111101011100
110001011
1110111000
1101011011
1110001
10001010110
1111111110001100
1111101011
1111111100011110
1111110001001001
1111111100010000
1111110101101110
10010110
1111001
1000001101
1000110011
1000000110
10010010000
10000110010
1111111110011010
1111110111101111
1111110111001111
1111111111011000
1111111100101001
1111111010100001
1111110011111111
1111111111010111
110110
1010101
10100001
100011111
1010001101
1101011011
111101000
1111111111111101
110101111
11111011
1111111100100010
1111111011110000
1111111011111101
1111111101010010
1011110011
100101011
10101111
1111101110
1100010001
10000000010
11000100
1111111010010100
1111111110001101
1111111000111111
1111111100100110
1111111001100110
1111111001101011
1111111111000110
1011100
11110100
1111111100011101
1111111100111100
10011101
1010010100
100001
100000000
10101000
100101
1111111101101110
11000
1111111110010001
100111011
10110101
100011111
111001111
1010000110
1110001011
1011000111
10100011
110110
1111111100010111
1111110100101110
110111
1111111000101100
1111111001011001
1111111011001101
101110101
1011
1000110011
1111111011111100
100100101
1100100011
1110101
1111111100000000
1111111011011100
1111111010011111
100000001
11010001
1011000110
1011010110
1100011000
1001000001
1100011000
1100000011
10001101010
1000011110
1010111000
101110001
1111111001111111
1111110111100001
1111110110101110
1111110111100111
1111111011100111
1011001
1111111010100101
1111111011001110
1111111010111000
1111111100011110
11011010
1111111110100010
10011101
1111111110110001
10111
1111111011101111
1111110011100111
1111110101011000
1111111010001101
10011001
10110001
111101110
1100101100
1000001011
10000000000
10010001111
1010000101
111001010
100101101
111110
1111111011110101
1111111101001000
111111001
1111111011011110
1111111001000100
1111111101100010
1111110111111111
1111111001110100
1111111111111110
1111111100100110
1111111111010011
1011100
1111111110100100
1111111001000011
1111101100111011
1111100010001010
1111100001110010
1111100011010100
1111100100101001
1111110001010011
1111111111010000
1111111101110011
11110001
1001010011
110000111
100111011
1111111100110110
1111111110010110
1111111010010100
1111111111110101
1111111111010011
1111110101001000
1111110001001111
1111110011000111
1111110110000010
1001001001
101001111
11010011
1100110
100101111
1111111010111100
1111111000010010
1111111001001101
1111101101100010
1111100000001111
1111101000110111
1111100000101101
1111011011001010
1111100101000111
1111101110001111
1111101111010110
1111101111101000
1111110001111100
1111110001111011
1111111001011110
1111101101110011
1111101111010100
1111100011100001
1111101000101110
1111100110010110
1111101101101011
1111110100010111
1111110100111010
101100000
1111111101111100
110001100
1111111101100010
11001010
100011011
1111111110111111
1111111000111000
1111111000100011
1111110000000011
1111101101001111
1111101111011001
1111101011111010
1111101011110010
1111110001010100
1111101001100001
1111101000010001
1111100010111000
1111011101111000
1111100000101011
1111100111010010
1111100100011110
1111100011001101
1111110000000011
1111101110010000
1111101001011010
1111110110010111
11001110
1111111111011000
1111111111100000
1100001
1111111111101101
100111010
1111111110001010
100011010
1111111101100111
101100100
1001101110
1111111000100011
1111111001011100
1111111101000000
1111111010010010
1111110011111100
1111110110110001
1111110011100110
1111111001010001
1111110001101101
1111111010111000
111110
1111111001011111
1111111000001010
1111110110001001
1111111001110100
1111110111101110
1111111101011000
1101000
100110100
1111111110110011
1111111010111101
1000000
