1111111011110101
1011110
101000000
11001000
1111111111101011
110
100110010
100001100
1111111101111111
10000010
10000100
100001001
110010111
1111111101110011
1111111010100010
1111111111110000
1111111111010011
1111111100010011
100010010
1111111011000010
1111111110010011
1111111100100011
100110011
10100110
1100011
11101101
1111111011101001
1111111101010111
1111111111100010
10111000
11001011
1111111101000000
1111111011111101
1111111111001101
1101001010
1101110101
11111101
1001101000
1011111000
110010100
101111
1110010
1111111110111110
1111111011110001
1111110011010110
1111111110110010
1101001000
10001010101
10001000001
1000111110
1101110001
1001110000
100100111
1111001
1000110
1111111011001010
11110111
1111111110101110
100101111
1111111011011101
101010010
1001010101
111101101
1001001000
100110010
1111111110010010
111011010
111001010
1000101001
1100100000
1001101011
1000000000
101101100
1000011011
1111111111000011
111001101
10001111011
10101100001
1100000100
110000101
110101101
101101011
1111111011110101
101001010
100001111
1111111101101001
1011100101
1111111101100010
1111111101001111
100110001
101110111
1001011100
1111111010100100
1111111111010110
1111111001001011
1111111000000000
1111111001011010
1111111110011101
1111111011101101
1111111011011110
1111111111000110
1111111011100100
1111111000001100
1010101
110110
111001001
100011100
110011010
101101001
1111111111000110
111001011
1111111110101111
1111111011100100
11101001
1010011
1001111001
110100101
111101000
110111010
1111111110001010
1110101
1111111001001110
1111110111000011
1111110111001111
1111110100100101
1111111001011010
1111110001001000
1111110110011000
1111110101011111
1111110100110011
1111110101001101
100111010
1111111110111011
1010000
1000100
101000011
1111111001111001
1111110001001100
1111110111100110
100001111
100011110
1111100
1011101
101010101
10000111
1001101010
1001010101
100010111
1100010
11010110
10111100
1111111100111111
10000000
1111111100010000
1111110101101011
1111110111101110
1111110000101001
1111101110000001
1111110000100111
1111110100011000
1111110100110011
1111110010111001
1111111010100000
1111111011111111
1111110110100010
1111110010101101
1110
101110001
1111111011111101
1111110111001101
1000001
1010111101
1111111010111011
11000111
11000110
1111111110010000
1111111101010001
1111111110001100
101010
111001010
111101010
1111111111010100
1111111100001101
1111111011001100
110
110
11101111
1111111011111101
1111111011000111
1111111011000001
1111111000110111
1111110011011011
1111110010001101
1111101011110011
1111111010101110
100111010
11111111
1111111100111011
100000001
10110000
1111110111101010
1111110101010001
1111111100010100
1111111101011000
1111111011101100
1111111100111111
11110011
1001010
10011110
1100001
101101
1110000
1111111110001011
100011100
10111000
1111111101000000
1111111110110001
1101001
1001011
1111110101010011
1111110001010111
1111101110111100
10001001
1111111101010010
1111111011001001
1110010
1
101001100
1111111011111111
1111110111111010
1111110101111100
1111111100110001
1011010
1111111100101001
1111111111110001
1111111010000111
10000110
1111111001001011
111110110
1111111011101001
1111111011001100
1111111000110001
1111111000101010
1111111000010101
1111110111011111
1111111000000100
1111110110101100
1111110001111010
1111110111000010
1111110001010001
1111111001101011
1111111011010100
1011010101
1100011100
1111111001101101
1001111
1111111000110111
1111110111010000
1111110101001110
1111111000110110
1111111011110110
1111110101010011
1111111100010000
1111111010111001
1111111001011000
1111111011011001
1111100
1011010
1111111010001101
1111111010110111
1111110101011011
1111110100001101
1111110110011111
1111110101100001
1111111011001110
1111110100000111
1111110100111100
1111100110111101
1111110100111111
1001010101
1001010100
1001110000
1111111100011110
1111111001100111
1111110110111111
1111110111111111
1111111001110100
1111111010010001
1111110111110011
101
1111110111001000
1111111011111100
1111111101011110
1111111100000110
110011110
110100010
11111111
1111110111110110
1111111011111010
1111110111110110
1111110101010111
1111111010100010
1111111011100010
1111100110001101
1111100010111100
1111110011010001
1111110111010011
1111111101011100
111110001
1000011
1010000010
1001110
1111111110000011
1111110010000111
1111111100001110
1010111
100111111
100011110
111011
100001100
101100101
10101100
1001110001
10001011110
1010010010
111001000
110001100
1111111010001011
100010000
1000000100
1111110011011101
1111100110110001
1111100001001000
1111011111100010
1111101011100110
1111111001101010
1111111111100010
111110111
1001010010
100001110
1111111101111101
1111110010001001
1111111000010100
1011110101
110011101
1111111111111111
1001000
11000010
1111111101100011
11000
1010001101
1100111111
1111101011
111010000
1110000100
1100101
110000010
11010001
1111111100010111
1111110100001111
1111100100100111
1111101000010100
1111101010110111
1111111100010001
101111011
11100101
1011010101
10001000
1001010101
1111111011011001
110011000
1000101000
111110000
100110101
11000101
1111111011001001
1111111011111100
10111100
10001110001
10001110100
1101010110
1011011101
101100100
1011010001
1111000101
1101111011
1111111100010001
1111110001010010
1111110000011101
1111100100100001
1111101010100101
1111110111010001
1111111001110000
100001110
1101101011
1101011011
10000001
10000001
1111111110001010
111000
111101110
101101001
1111111111010001
1111111011100111
1111111101101000
1001010101
1011111011
10001110000
1100100000
111110100
1100011110
10011110000
10000011101
1010111101
1111111101111001
1111110001001101
1111101011101110
1111100111010000
1111101110001011
1111110100000001
1110000
1111111111101001
1111111010110100
1111111101101100
1111111001100110
1111110011001000
1111111101001101
10
10111001
1111111001010101
1111111111110000
100100110
11011010
11101000
1000001001
1000100000
1000011010
101110000
11011100
10110010
100110101
1010010
1111111000101001
1111110010111001
1111101100110100
1111101100000001
1111101010011111
1111111000101100
111100000
1010010
1111110110111011
1111110000110010
1111110100001111
1111110001001111
1111110010110010
10111101
1111111111011001
1111111111100101
1111111101100001
1111111110110011
1111111010000010
11110000
111100011
11100011
1101110
1111111100100100
1111111100110001
1111111001011011
1111111110111111
1111111101100001
1111101010011110
1111100010011110
1111100000110001
1111100100101111
1111101101110101
1111111000110111
101000100
1000110
1111110110001101
1111110000010000
1111101111011111
1111101101000110
1111101000011101
1111101001100100
1111111001110000
1111110101011001
1111111011111000
1111111100111011
1111111011111001
111011000
1011110110
110000110
1111111001101100
1111110011100111
1111110101110000
1111110111110101
1111110100011010
1111110001111000
1111100110101110
1111100101100101
1111101011110111
1111110101000011
1111111110110001
1111110111001101
1001111100
1111111101100011
1111111110001101
1111101101000100
1111101100000011
1111101010101010
1111100010010111
1111100101011100
1111100110010000
1111110001100010
1111110010111011
1111111110010001
10000101
1001001101
101001110
0
1111111000100100
1111110100100100
1111110011011001
1111101111011000
1111110000100010
1111101110011100
1111100100100101
1111100011000011
1111101010011111
1111110110010010
111010100
11011110
110100000
1111111100010000
1111111110000101
1111110100110100
1111101101111010
1111100100001000
1111101000011001
1111100111101100
1111100110011100
1111101000100000
1111110101001000
11101011
111110100
1001001011
111010110
1111111000111111
1111110010010101
1111101101011101
1111101110010100
1111101101100110
1111101000000101
1111100110000011
1111100111100011
1111100111100001
1111101101001000
1111111000100011
11000011
1001100001
1111111100001100
1111110111101011
1111110011101110
1111110010011101
1111101100100001
1111100110010101
1111110000010111
1111101101010001
1111101010011110
1111101110000111
1111110011011010
1111111001101001
10111000
1111111110110100
100011
1111111111011011
1111111100100100
1111110110101011
1111101010111001
1111101011100101
1111100010110110
1111101010111001
1111101001010000
1111101011101010
1111110001000010
1111111001100101
100111100
10111111
11101000
100011000
1111111001010010
1111101011100111
1111101010111111
1111101110000100
1111101101011110
1111110111101100
1111111010001010
1111111100111011
1111110110100100
1111111011001111
1111111001101011
1111111110000110
1111111110110010
1111111001100100
1111111100011010
1111101111110100
1111101100011000
1111101100001001
1111110001000000
1111110010110100
1111101001010111
1111110010010110
1111111010001101
1111111101100000
1111111011101001
1110111
1111111101100010
11101000
1111110111111011
1111110000011000
1111110001101101
1111111010100101
1111111110010010
1111111011100110
10011110
11100
1111111000001100
1111110101100101
1111101111011110
1111101101111101
1111101110011100
1111111011011001
1111111000010111
1111111000100110
1111111001011111
1111110011110110
1111110011011010
1111110101001101
1111101010101110
1111111001001011
1111111111000010
1111111100111000
11010101
1111111110011111
1111111101111101
1111111011011000
1111110101011111
1111101110101100
1111110101111011
1110100
1100000110
101000100
110100110
10000011
1111111011001001
1111111110000010
1111110101010000
1111110100111101
1111110110101000
1111110111000001
1111111011011111
1111111001101001
1111111000111101
1111110100110101
1111110110011110
1111111011000010
1111111111011100
1111111100111000
1111111100000100
111101
110001101
110101
11010
1111111100110001
110011
1111110110011001
1111111111010111
10001101001
1011111110
111100101
100010
10001000
1111111111010000
1111110101011100
1111111000101111
1111101101111001
1111110100000101
1111110011110010
1111110011000010
1111111001111110
1111111101110011
110010
10011000
1110111
110011100
1011001
1111111011101110
1111111101011000
1111111101010100
11001101
1111111110100011
1111111100010001
10100010
1000110000
1101101000
1010000110
101000101
1010001000
110110010
110010000
1111111100010000
1111111101011110
1111111110101101
1111110111001101
101101
1111110011000010
1111111100101110
1111111101101100
1111111111110101
1111111110100010
1111111111000010
110010110
1111111111100000
1111111111101100
1011001
1111111110101010
1111111001001101
1101100
1111111011100101
1111111100010011
1111111010110111
100000101
1101101
1100100010
1001001100
1110100011
10110010110
10101011110
1011000000
1010001
10100
100000001
1011010011
1000101110
110111011
1001010011
1101110101
1001001010
1011100000
1000101100
100101
1111
11100
11111001
1001100
1110001
1111111110111111
100011001
1111111011001100
1111111011100110
1000001
1001001001
1001001010
101111110
110011001
1001101111
10001011101
1100001
1001110111
1101101100
1111111110
10001111110
1011111000
1110010110
10000010011
1000100100
111110111
1010110100
1110100010
1000110101
1000010
11101011
1001
1111111011111000
