1111111101001010
1111111100100101
0
1001010
100011001
11001000
1111111111100111
1111111110101001
1111111111100010
10011110
11101101
11110101
1111111100111111
1011011
1111111010111100
1111111111001011
101001001
11111111
1111111110010110
1111111
11110100
10101101
1111111110101111
1101001
1111111011101000
100100010
1111111110111001
1111111110010110
1111111100001000
1111001
1111111110100001
1111111110100000
1111111011101101
1111111101011110
1111111100000000
1111110101001111
1111110110101110
1111111001111001
1111110111000010
1111110001111000
1111110010001010
1111110000100000
1111111110010000
1111110011000100
1111110010100011
1111101101001100
1111101111001010
1111110110000100
1111110000000001
1111110110110110
1111110101100010
1111111001010010
1111111111010100
100001111
1111111110111001
10001
1111111110101110
1111111
1111110111001110
1111111100100110
1111110100001100
1111110110110001
1111110100001000
1111110101000001
1111101110110110
1111101100110110
1111100110110101
1111100011110110
1111101100000011
1111110110110010
1111110101000010
1111110000011111
1111110011100101
1111110011001010
1111111101011111
1111111111001001
1111111000000010
1111111010010000
1111110110001010
1111111000000100
1111110100110010
1111110110100011
1100100
11111100
1111111101001001
100111011
1111111011101010
1111110110101010
100110
1111111010110101
1111110110100110
1111111101000001
1111110110011110
1111101100100011
1111101111111001
1111101101111110
1111101101001110
1111101010010000
1111100111000101
1111101011010011
1111100111001000
1111110011100101
1111110110111011
1111111110110101
1111111111101010
110101001
1111111111011011
1111111100000010
1111111000111111
1111110101100100
1111111000101001
1010
1111111101011001
1111111101001000
1101
1111111101101101
101111000
101001110
1111111010000100
1111111101010000
1111111101010111
1111111011010000
100000111
111010100
1111111110000001
1111110111010110
1111110011101111
1111111000001011
1111111101000010
1111111011001111
1111111101001100
1111111110111110
1111111111110110
110001010
11100101
100011001
1011111110
1001011000
1111111101001000
1111111011110111
11001110
1111111101100111
1111111111000100
1111111001000101
1111111011000011
100111010
1111111111110110
11000
11011010
11001000
111111000
1001100001
10011101
1111111010111101
1111110100000011
1111110110100101
100100
11100110
1010010
1111111010101000
101111010
1111111011101100
111010
10111000
11111100
111011100
1111111111110110
1111110111001000
100001
101010001
11110
1111110110001001
111011
1111111111110011
100101100
110010011
1100001011
1000001000
11011110
1000000001
1000001100
1111111001110111
1111110110001011
1111110001101111
1111110011011110
1111101110110111
1111110010100110
1111111011110110
1111110110001111
1111111010010101
11011100
1000100011
101010010
1001100100
10001100000
1111111101011011
1111111110101001
101010001
1111111100110100
1111111111101001
10101
1011100
100001000
1010111111
10000010100
1100110001
101010111
111110111
101100010
1111111011111000
1111110001011011
1111110001101111
1111110011110011
1111101110011000
1111110010111000
1111110111001000
1111110010100101
1111111000001001
11000
1000100001
1000111001
1110010001
10001011000
1111111111011110
1111111010101000
1111110110100111
1111111
110
1111111011110010
10001100
1000010100
1100000111
11001100
1100010110
1011101111
1110000111
111101000
1111111100010110
1111110011001000
1111110111000110
1111110110111000
1111110000001000
1111110011101001
1111110111010111
1111110110001101
1111110111111100
1111111110000011
1101101111
11000111101
100100000011
11000101110
1010001010
1111110101111111
1111111011101000
1111111100100111
110111
1111111111000100
10010011
110110001
11111010
1010110100
101100111
111010111
1011101010
100011111
10110000
1111110100110111
1111110010100010
1111110111010000
1111111100000011
1111111101101101
1111111100011001
1111111000111011
10010011
1000010
1100001011
1011010000
100000100101
11010001100
1111111100100011
1111111000010111
1111111110000000
1111110111000011
1111111110110110
1010111001
1100111
10101101
1010110011
1000011011
10010111
10001001
1000011001
1110010011
101100
1111101011101001
1111111010010011
1111110111010010
1111111111001111
1111110111000101
1111111001010010
1111110111111100
1111111111010010
10001
1111111001110101
100001101
11101100001
10001110111
1111111111010001
1111111011100011
1111110100100101
1111111010100011
1111111010011101
1000
11111001
101111000
100011011
1111111111100100
1000111100
1001000101
1001011001
10101001011
1000010110
1111111011011100
1111111111000100
100101000
1111100
1111110001101000
1111111101111110
1111110001110101
1111110010101001
1111110010111101
1111110001100000
1111111111011110
1111110100
10110101010
101010111
1111110101101100
1111111011110111
1111110111111000
1111111011100100
1111110101111001
110
1111111111111000
1000000010
100001001
1100111111
1001000101
1100010001
11001111001
10010100010
1010110010
1001000011
10001010
1111111101010000
1111110111000111
1111111100001011
1111111110110111
1111111000010110
1111110010100101
1111110001100011
1111110000000011
1111110101010001
1111111101011101
1111110001100101
1111111111000010
1111
1111111100001000
1111110101110101
1111110101010111
11110001
1010010
10000110
1000110001
1001010011
100111100
1100101111
10111101111
1111110101
110110100
110011
1111111101101110
100000101
100000011
1111111101010010
1100011
1111111101000000
1111111101101010
1111101111100011
1111110000100011
1111111000010000
1111111011001001
1111110111110111
111000010
1010011010
1111111010000110
101101
1111111100000101
1110
1111111100100101
1111111111001001
111001010
11000010
10101101
10001000101
110111111
110111100
101100011
10111110
1111111101010101
110100100
1111111101100101
1111111001111011
1111111101110011
10010
1111111100010011
1111110111010010
1111111100111011
1111111111000101
1111110000100110
1111110100010110
111010111
1010111
1001110011
1111111111010000
1111111101001111
1111110101101000
1111110101011010
1110
111110
100000011
100011101
1001011001
10000001100
101100011
100100111
1111111110110011
11010010
1010111110
1111111110110110
1111111110111110
1111111011100100
1000001
10001001
1110010
1111111010001000
1111111100000101
10101000
1111110100111110
1111111001011110
1001010111
11000001
10001100
1111110001001001
1111101101001001
1111110111011101
1111111100000110
11101011
10001011
1111111111011011
1000000110
1100011001
10100110100
1000011000
1010000111
110001111
1010110000
1001001011
110010101
111101011
10100001
100110110
1101110011
1010000001
1111110110000101
1111110111110101
1111110111111010
100011001
1001011111
1001000000
1111111011010001
1111101111100100
1111110001011001
1111110111001101
1111111011110010
1111111001001000
1111111011111011
1111110111001000
10000001
1010110000
1111101000
1011100010
1001110101
100001001
1010100000
101110111
11111001
11110111
1000111001
101000
1111000011
101100100
1111101000011110
1111111000110001
1111110011110010
1111110101001000
1000111
11101011
1111111110011100
1111110111110001
1111111101100100
1111111010110100
1111110011111110
1111111001111010
1111110011011010
1111101111100010
1111110001100100
1111111111011111
1111111111100110
1111111011000010
10001101
111101100
1111111011100001
1111111011010001
1111111111101101
111010001
101110110
10111100
1000001010
1011111
1111100000100100
1111101111011100
1111110110011110
1111111001111101
1111111011011011
101000100
1001101110
1111111100011001
1000111111
1111111100010100
1111101111010110
1111110011010011
1111110110110111
1111101111111110
1111101111011101
1111110000101100
1111110001110010
1111110100110100
1111110111000010
11101111
101100
1000100
11010110
1111111101101111
100100111
110001
1111111101011100
1111110110011111
1111101000111010
1111110101001011
1111111011010000
100001001
1111111101110001
1000001011
1111111111011011
1111111010001101
1111111001100001
1111111110110100
1111110010100101
1111110111010011
1111110011001000
1111101011000011
1111101110110110
1111101110010010
1111101110010011
1111101011100010
1111111000111000
101011000
1110100111
110011110
1000111001
100101111
10011110
11011110
1111111100011111
1111110010111000
1111110010110100
1111110100110010
1001000
1111111111011000
1111111100100101
100111001
110011100
11010011
1111111011011101
1111111010101100
1111111000110011
1111111111101111
1111110100100110
1111111000101100
1111101111101101
1111110001010001
1111101101110011
1111101111110000
1111110111101011
100001001
1101111111
111011010
1011100
111001000
1111111100100010
100101001
1111111111110001
1111110100001110
1111110001011000
1111110110101111
1111111110110011
1111111111011010
1111111110100100
101011001
1001100101
100011110
1111110010010101
1111111000101011
1111111010110011
1111111100111000
1111111001100100
1111111001010010
1111111111011100
1111111000101000
1111110110111111
1111110010111011
1111111101101101
100100100
1001110100
1010001000
1101000000
101001100
1111111111011010
110100101
11000000
1111111010111110
1111111111010010
1000100010
1111111110101010
1111111110010101
1111111011110101
101011101
10110001000
10000000111
1111111100110100
1111111110111001
1111111100011100
1111111111010011
1010010
110111
11100000
1111111101111100
1111111010000010
1111111111001010
1111111100101100
1001011000
101000011
1111011000
1001100111
1011110111
1000010001
1111111010010011
1111111111011011
1111111000101101
101011
111000000
1111111011010010
11100110
1111111110110011
1000111011
10011101111
1000010110
1111111000101010
1111111111011110
1111111011101100
1010000100
110010010
1001010010
1001110101
1111111111101000
1000010110
110101
1111111110100111
1000110011
1111111111111100
111110111
10000000100
111011010
10010110
1111111100001001
1111111110000000
1111110001000001
1111101010101001
1111111000101011
1111111110100100
1111111101111110
11110
1000001
10010000
10010
1111101110101010
10110
1111111010010001
1111110110010000
10011110
100100101
1111111101000000
1111111011111101
10110
1111111110001111
110100101
101110100
1000110111
101101010
10010110
1111111000011111
1111110000101110
1111111010100111
100010000
1111111110000110
1111110100111100
1111111111011100
100011010
100000100
1000010
1111111100111001
1100001
1111111100011101
1111110100011100
1111101100111000
1111101001010001
1111100011010010
1111100001110000
1111100001101011
1111110001100000
1111101100000100
1111100010000100
1111011011111111
1111110000110111
1111111001000110
1111111010111011
1111101101110000
1111110110101110
1111101111000000
1111101111001010
1111110010100001
1100001
1111111001000011
1111111010101110
1111111011100100
1111111110110110
1111111011001110
11110
10110110
10110000
11110000
1111111010010010
1111111010101010
1111110110011010
1111110101100100
1111110000010010
1111110011101111
1111111000111001
1111110100000010
1111101010011001
1111100011111100
1111110000001111
1111110100101111
1111110001100100
1111110000010000
1111110011010000
1111111001101011
1111111000000001
1111110010001001
1111110110010100
11000101
1111111011011100
1000011
111000
