11001111001
1111101101100110
1010111101
10011000111
1111111110101010
11000110
1111010001
1111101011110000
11010111
10011000000
1111100001
1111101001
1111100110011101
100100100
1111010101010011
1111010100111101
1011010100
1111010111110110
10011100101
1111111111101100
1111010101001001
10010101101
1111110100011110
1111001110010001
111001001
1100001000
10000001110
1111101111000101
1111100110101001
1111111101100111
1111010110111101
1111110011010001
1111111101000100
1001110111
1001000001
1111111100010110
1101100101
1111011111100100
1111100001011010
1111101011001110
11001101
1111111010010010
110111101
1111110101101101
111011101
1111111011001101
100100001011
1111111100
1011100010
1101101
1000010011
1111111011101101
11100100000
100010000010
1111110001110011
1000001000
1000001
1111101110011111
10000110000
10010000001
11011111010
1111101000110111
11001011111
1001010111
1111100100101101
1111010110001011
1111010110110101
1111110101001001
10100011000
1111111111111011
1001001010
100110000001
1111110001011101
1111100001000100
10101000001
11010100011
10110001001
1111101110110001
1000101100
1111010000010110
10000010000
1111101011110011
11011001
1111111111001001
11111110001
10011001111
111011110
10110111011
1110000100
100111101
1111100011010100
1111011000101011
1111010001001001
1001011101
1111111101101000
1111101000001001
1111101110111001
1111111101101000
1111101000000100
1111100010010110
1111010111011110
10000010110
1111100100
10101000
1111101111011101
10001111111
111101111
1111100001101010
1111011101111000
1111101011011111
10100101101
10110000111
1111111101100100
1111100110111011
1111100011000111
1100101101
10001001110
10100000101
10111011010
1111000011
10101001001
10010000111
1000011110
1011110111
1111110101111010
1111101011001000
1111100101000110
1111101111011000
