1111110111101010
1111110111111111
1111111011111000
101101110
1111111111001011
1111110001100110
1111101100011001
1111101100001001
10000101110
1111011001000100
1100111010
1111110001110101
11110000101
10100001010
10010111111
1111100101010111
1111101001110110
10110110
1010001000
1111100100010010
10000100101
1111111111100100
11100001110
1111111001111011
11110100110
1101110
1111100001111110
1111101010011110
1111100100001011
1100111001
110001011
11110000101
110000011
11100011
1111100001101010
1111101111001101
1100101110
1111111
1011010110
10110101010
1111110111101100
1111011000001110
1111100110000000
1111110100000011
1111110100001101
1011110100
11101111001
1111010011001101
1111010011110111
10111010010
1111100111100010
1110011111
1111110011110010
1111101100101001
1100101111
1111101010100111
10001000010
111101111
1111011011000101
1111100011010101
1111111110011111
1111101111
110111010
100010101010
1111100011101001
10101001001
11000000011
1111101100110111
1111101001000110
1111111101110010
1111101100000111
1111100100001111
11010110000
1111110011111000
1111010111
1100011100
1111100101
1111100111101011
1111110000000101
1111111001000101
1100011100
11000110000
11001111010
1111001010100111
10100101000
1110001000
1000100101
1111100101110011
101100001
1111111001100100
1111100111111010
1100010111
1111111000111111
10011111011
1111100110101110
10110011001
1101111100
1111101011000010
1111001111110100
1010010110
1111110000100111
11001111111
1111101001111010
1100010100
1101101111
1111110100101011
10101001000
11000111001
11111000
1111111000001110
1111101010100011
1111110101010100
11101100101
10110000010
1000
1111011000011001
1111101100011001
10011110011
1100000
11001101000
1111110001000110
1111111100111100
11011100
1111111111010100
1111011101100111
110010
1111101001000101
1000000010
