1111100110110000
1111101000111111
1111011100110110
1111101001111010
1111100100010100
1111010000111111
1010011001
1111011101
1111110011010100
1001100001
1111100010110100
10011100101
1111100111011110
1111010111110100
10110111100
100000
1101001011
1111110101101110
1111110000010011
1111100001000110
10001111001
1111100011100110
1111100110100101
1111100101010001
101001000
11010101000
1111111101010001
101001000111
10100010
1111100000000101
1111101100111001
1111010100111110
1101101101
1111011000100000
1111101110100110
1111110101101000
1111100011000101
100111001
1111111001111111
10101101110
1111000110001000
11010001
10011000011
10001010011
110001010
1111100101000001
1111100010110101
10100010101
1111111111101110
1111100100000011
101101011
1111101111110101
1111001011001110
1111100110101001
1100011100
1111101111010101
1111100101000111
1111010000001000
10001011011
1111000100
1111110100010100
1111011100110100
10001101110
1010001101
1110001101
1111110010100010
1111101101001010
1111110110
100001000111
1100010011
10100000011
1111111101000010
1101100111
11110101
1111110100110110
1011000111
1011100111
100000110100
10010101
1111110011110000
1111100011011111
1111100100000100
1111101110111000
1000100
10101110101
11100000010
1111100100111011
10011011010
10110001001
10011001111
1111110111001100
1011010000
11100001111
1111101011001100
11010001010
1111010111101001
10011010010
11110110010
10011010110
1111101100111000
101001110
10111110100
1101010001
10100010101
1111111111101010
1000011110
10110101111
1100111110
11010111000
1100010010
11110100000
10001001
1111010101000000
111000000
1111011101000011
1001000
1111110111101000
1111010111000100
1111101111111001
1011101111
1001001100
1001010111
10110000011
1111101110010111
11010101
1111101100010100
111000011
1111100010010011
