1111101000011110
100110011
1001101111
1111101110101110
1000100011
1011000
1110100110
1001110011
1111001110010101
1111101111010111
110011111
111011111
10010001100
1111101011001111
1000010011
10101001100
10001110010
10111100010
10000101111
1111110110010001
111000101
11011011110
100001100
10101101110
1010011010
1111110001001001
10110000
1111111111011011
100101101000
11111000
1001110001
1111111000110001
1111100000111111
1111101101001111
1111010000101101
111100100
1111010001010011
101011000
10010101111
10010110100
110110010
10000110101
1111101011100000
1110111111
10001110
1111010100101100
1111100010011011
111000100
1111010001000001
10101001111
11110000010
10101000111
1111110010111010
1111111000111101
1111100110110011
1111011100110001
1000000000
11011111000
1111101101101111
1111011001
1110111111101001
10001101000
1111111101010100
1111111111010101
10101001011
1111111000100110
10100000011
1111111100110010
1111011111000010
1101111111
1111111000001101
11011110100
10001111110
1111100000010101
1111111100000111
10100011100
1111100110110001
1111101100110111
1111101111
1111100111110101
101010010
100111101
1111110110100101
1111100111010100
10000100000
1111100011011110
11000010101
10111101101
1111011111101101
1111011011010011
100111001010
1111100111110001
10011101011
1010010010
11001001100
100101
1111111011100101
11111011010
10011010111
1111101111
1111111001111101
10110101
1111101000000010
10001100000
1001011000
10100100011
110100001
1110110110110111
1111110110111000
1111100101011011
1111110010100100
1111100011001011
10100001
110000
1111011000000010
1111011101
11011001000
1111110100110110
10110110001
1101110111
11000110010
1010111100
1111011011010000
11111101100
1111100100010101
1111110010100001
11010001110
1111101001001000
