1111101101001001
10001000110
10110000101
1111101101010011
10101010110
10101110011
1000101000
10000010110
11100111100
11111111100
1111110110100010
10011000111
1111111101101101
1111110010010101
1111011101110010
1111100100101001
1111110100101011
1111101000101100
11110101
11100110110
10110111110
10110010010
1111101111100001
1111111101
1000000000
1110010010
1111101011011100
1111110101100001
1111000110111110
10110011110
1111111000100001
1111111101011100
10101101010
10100010111
1111111111100000
10101010100
111011000
11000001010
1111111000101011
1111110111001111
10111001010
1111100100001011
10001100010
1111101001111100
10111100011
1111110011010111
100101100
1111101000110100
10001010101
1111101100100110
1111011010000111
1111011111010110
1000000111
1111110100101110
1011000111
100010001111
1111110010
1010000111
1111100000010010
11001011111
1000010100
10010110100
1111010010001001
1111101111100100
1111110101101110
1111111010111000
1111100101011110
1111100111010001
1001001010
1001100101
10010111000
1011100
1111100111010001
1101000110
1000010110
1111100000000111
1111111001011111
10110101
1111101110101011
1111100110100100
1100110111
11000011111
10010001111
11110100100
1111100100111111
11011101
1111101011101101
1111110101010010
1111111111001010
10111010000
1111111010110111
1111100110101010
1111000110001111
1111100111000001
1101000101
1111111001001111
10110111111
1111001010110100
1111101111100000
1110101111
10110100111
1111001101000100
1111011111101100
1111101001011000
10001100001
1111100110101010
1111011011110110
1111100000
1111101011110110
1111010011111101
1100000001
1111111101111000
10100100001
11001110101
10000100000
1100111011
11100100
1111101000
1111101110100111
1111110110111110
1111100001000000
1110100110
10110100011
1111100010010001
1111011001110011
11101111
1111011111001001
1111110000111110
