11001011101
1011011000
11111010011
1111100001000011
1111101000100000
1111100000100001
1111101100001011
11011000110
10001001011
1111101001
1111101100101100
1111111101100010
1111100101001001
1111101010000100
101000001
100000000010
1111111110110101
110111000
10101110010
1111110000110000
10100101111
1111101110011001
10010100010
1111110101101110
1111101010000010
1111011011100000
1111011001110000
1111101111000110
1111010101010001
1111100101000111
1111111010100001
1111110001101110
11010111
1111100001001000
1111100000011000
1111111000010000
1111011000011100
1010001010
1111111111101011
1111010000101100
1111110110011100
1111011000001010
1111101110010000
101011110
1111101011001001
1111101111101000
101111100
1111101000001000
1001011110
1000101101
11011101011
1111010101101110
1111101000011100
1111010100
1111111001011001
10000110011
1010111100
1111100001101101
1111101110
10011100000
1111010100100111
1000010000
111010011
1111111111101100
11010000000
11000111100
11011000001
10000010011
1111100000011101
1110100111
1111011101000100
11010101011
10101001010
1010010111
100111
1110111001
1111011100001010
1111110000010101
1111100001010000
11111010110
1111011010110010
10001100000
1111100100010110
1111110100101010
1111101100011101
10011101101
110111101
1111100000111100
10001101010
10101101111
11100101100
1111111101010111
1111010100000011
111110
101110000
1111010010011111
101000011
1111111010001110
1111011110101011
10011100100
1111111101
1011110101
111111011
1111001111010110
1111110100101000
1110111101
1111101111000001
1011110
10000001110
1100111000
1011000111
1111100101010100
1111101001010000
1111100110111001
1111101111011111
10010110000
1111101100110101
1111100001100011
10001100010
1111110100000001
1111110001010011
10001001111
1111111001001011
1111100100100100
100111110110
1111011100001110
1111100000
11110011010
