10111010000
10010101000
1111010100100000
1111101101100000
10010010100
10000000
1111100010010011
1001011
10000010100
1111111010011111
1111100110011001
1111100000110101
1100000010
10000101110
101000010
11111011
1111010110010101
1111110101001011
1111100011011110
1111100011000101
1011000011
1111110100011011
1110001
1111111010001111
1111110011000000
1111101110011101
10111111111
10111100010
10101010100
1001010111
1111100011101111
1111111110001010
1111100100011010
1111111000100000
1011010110
1111100001010111
1111110110010010
1111011001
1010010111
1001111000
10001101101
1010010110
10001001000
1110011010
11101111
1011010001
11010100100
10101111111
11001101011
1111101100110101
110001011
10101101010
10110011111
1111111011011101
1111100101111111
1111101011101101
1111010111000010
1111110010000010
1110110100
1111011110001100
1000100
1101100010
1000000001
1111100101011010
1111111010001100
11001111100
1111110100100010
1111011110111100
1110101001
10111111100
101010000
11110111011
111000100
1111101010110111
1111100100010100
11001001001
110010011
1000010001
1010010010
1111111111101101
1111011110000010
10100000
1110101010
11111010111
1111110101111011
1111111011111101
1111100110110111
11011111010
1111011000011000
1111110001000100
11111011000
110011110
11001011000
10111100010
1010000
11101100110
1111111011100010
10011001001
100000001101
1111100110110010
1111111011110011
1010001111
1111101001110000
11011101001
1111100101111111
1111111000010110
1111101100101001
10001001011
10011111100
101101111001
10011111100
1011000011
1111
1100111001
1010010000
1111010100110010
1010011101
10111010000
10011101111
10110001101
100000100
1111011001011000
1111101010011000
11100101
1011010001
10000100011
1111101001000111
11011101
