100011011
111111110
10010111000
1111110011110001
11101011
10111001101
1000101100
1111110111100011
1111110000111000
1111101101110101
1100011010
100101110
101001011
1110010101
10111001
1111101100101011
10001011011
101110110
1111101111110100
1110101011
1111011010011101
11011100010
11111001111
1000000011
1111111001
1111110001100011
1111110110101001
10111110001
11111100
11011110100
1111110000001110
11110100011
1111100000111100
1111111100111001
101000100
1110010
1111100110100000
1110010110
1111010011100011
1111101010111101
100001111111
100101101010
10110011011
1111100001001110
1111101100010110
10111010000
1111110111000111
1111111001100100
1111110111111000
111000010
11100
11011111011
11001001010
1111110100111101
1111111010
1111011001000100
1111111100010111
1111011111110100
1111110100100010
1111100001010101
1111110000100110
10011100101
100000010000
1011100101
11110001000
1111111101010010
1111110011110100
101000101
1111100100101100
1111010101010000
100111000
1111101111011011
1111110000111000
0
1111100110100101
11010000101
1111100001110001
10000010111
1111110001011011
111001110011
10101100101
1111100001111000
11001000001
1111100010111010
1111100011010011
1101010010
1000101000
1111111010111100
1001010001
1111011111010101
1111101101100111
1111010111011001
1111110011100000
1111100111101101
1111100101101010
1111100111110011
1111110010110101
1111101001100011
1111110011100001
1011111110
1001111100
111000000
1111110100011011
1111101100111001
1111111010001101
11101101001
1111111101011110
110000100
1111111010101111
101001101100
1111110010111100
11101000110
10110100010
10111000011
10001101100
1110100111
1111101011101001
100000111000
1111110111010101
1111110100011110
1111011001101111
1111111111100001
1111100111110010
1101100101
110011001101
1111110000011000
10111101010
11001111101
