1110100010
1111100101100011
111110110
1101010100
1111011100101010
1111110101101001
10100100000
1111011110111100
111010011
1111111010111000
101110111
1111101110100110
10110011
1111111000000110
10110100010
101100001011
1101101011
11001001000
1111101100010111
11110111000
1011000111
1111101110111001
1111101011111011
10010000011
1111111101010111
1111110101101001
10011110111
1111111100000011
1101010101
1111110010101110
100110010011
1000110010
10110001001
1111111000001101
10000011100
1
10101100110
1111000000011011
10111111111
1010110101
101011100100
1111011101111000
1111100000111001
1111100111010110
1111110001000000
10011110110
1111101001011000
1101100001
10100010100
1111011111011101
11001100
1111101100110000
101010111
1111111011000001
1111101011101001
100111110
10011111110
11101111001
100001000
1111110010101100
11111111101
1111101000001100
1111111010111111
100000001
1111110011110010
1111101110110011
10110001110
101000101000
1011011110
1111101111010110
1111101110110110
1111001011010000
1111110101010100
11001100100
1111101000111110
1111100100111001
1111110001
111011001
1111101001011100
11111010011
10001101000
1011100000
1111101001111101
110010110111
1111100111010100
1111101111110001
1111110000111001
1111100010001000
1111111001111100
1111111101001001
11100011101
10110001110
1100010110
1011011100
111000101
11111011111
1111100111101010
1111111011100101
10101000001
10011101001
10110101011
10100010111
100011011001
1111111000110100
1111101100101101
1110001011
10000001000
10110001010
10010101
100001001110
1111100100011111
1111101110101110
1111001111111001
110110110
100100000100
10001111111
1111100111111110
1111110100010000
1111101001000110
10010111100
1110111110
1111011100101101
1011101110
1111111110101010
1111011010001010
11100001
1111100101011000
1111110011010110
